const unsigned char model[] = {
  0x1c, 0x00, 0x00, 0x00, 0x54, 0x46, 0x4c, 0x33, 0x14, 0x00, 0x20, 0x00,
  0x1c, 0x00, 0x18, 0x00, 0x14, 0x00, 0x10, 0x00, 0x0c, 0x00, 0x00, 0x00,
  0x08, 0x00, 0x04, 0x00, 0x14, 0x00, 0x00, 0x00, 0x1c, 0x00, 0x00, 0x00,
  0x90, 0x00, 0x00, 0x00, 0xe8, 0x00, 0x00, 0x00, 0xa0, 0x2b, 0x00, 0x00,
  0xb0, 0x2b, 0x00, 0x00, 0xe8, 0x35, 0x00, 0x00, 0x03, 0x00, 0x00, 0x00,
  0x01, 0x00, 0x00, 0x00, 0x10, 0x00, 0x00, 0x00, 0x00, 0x00, 0x0a, 0x00,
  0x10, 0x00, 0x0c, 0x00, 0x08, 0x00, 0x04, 0x00, 0x0a, 0x00, 0x00, 0x00,
  0x0c, 0x00, 0x00, 0x00, 0x1c, 0x00, 0x00, 0x00, 0x3c, 0x00, 0x00, 0x00,
  0x0f, 0x00, 0x00, 0x00, 0x73, 0x65, 0x72, 0x76, 0x69, 0x6e, 0x67, 0x5f,
  0x64, 0x65, 0x66, 0x61, 0x75, 0x6c, 0x74, 0x00, 0x01, 0x00, 0x00, 0x00,
  0x04, 0x00, 0x00, 0x00, 0x98, 0xff, 0xff, 0xff, 0x13, 0x00, 0x00, 0x00,
  0x04, 0x00, 0x00, 0x00, 0x08, 0x00, 0x00, 0x00, 0x64, 0x65, 0x6e, 0x73,
  0x65, 0x5f, 0x31, 0x31, 0x00, 0x00, 0x00, 0x00, 0x01, 0x00, 0x00, 0x00,
  0x04, 0x00, 0x00, 0x00, 0x3a, 0xd4, 0xff, 0xff, 0x04, 0x00, 0x00, 0x00,
  0x07, 0x00, 0x00, 0x00, 0x69, 0x6e, 0x70, 0x75, 0x74, 0x5f, 0x33, 0x00,
  0x02, 0x00, 0x00, 0x00, 0x34, 0x00, 0x00, 0x00, 0x04, 0x00, 0x00, 0x00,
  0xdc, 0xff, 0xff, 0xff, 0x16, 0x00, 0x00, 0x00, 0x04, 0x00, 0x00, 0x00,
  0x13, 0x00, 0x00, 0x00, 0x43, 0x4f, 0x4e, 0x56, 0x45, 0x52, 0x53, 0x49,
  0x4f, 0x4e, 0x5f, 0x4d, 0x45, 0x54, 0x41, 0x44, 0x41, 0x54, 0x41, 0x00,
  0x08, 0x00, 0x0c, 0x00, 0x08, 0x00, 0x04, 0x00, 0x08, 0x00, 0x00, 0x00,
  0x15, 0x00, 0x00, 0x00, 0x04, 0x00, 0x00, 0x00, 0x13, 0x00, 0x00, 0x00,
  0x6d, 0x69, 0x6e, 0x5f, 0x72, 0x75, 0x6e, 0x74, 0x69, 0x6d, 0x65, 0x5f,
  0x76, 0x65, 0x72, 0x73, 0x69, 0x6f, 0x6e, 0x00, 0x17, 0x00, 0x00, 0x00,
  0xb4, 0x2a, 0x00, 0x00, 0xac, 0x2a, 0x00, 0x00, 0x2c, 0x2a, 0x00, 0x00,
  0xbc, 0x29, 0x00, 0x00, 0x5c, 0x29, 0x00, 0x00, 0xcc, 0x28, 0x00, 0x00,
  0xb0, 0x28, 0x00, 0x00, 0x60, 0x28, 0x00, 0x00, 0x90, 0x27, 0x00, 0x00,
  0x80, 0x22, 0x00, 0x00, 0xf0, 0x1a, 0x00, 0x00, 0x60, 0x10, 0x00, 0x00,
  0x50, 0x02, 0x00, 0x00, 0xc0, 0x00, 0x00, 0x00, 0xb8, 0x00, 0x00, 0x00,
  0xb0, 0x00, 0x00, 0x00, 0xa8, 0x00, 0x00, 0x00, 0xa0, 0x00, 0x00, 0x00,
  0x98, 0x00, 0x00, 0x00, 0x90, 0x00, 0x00, 0x00, 0x88, 0x00, 0x00, 0x00,
  0x68, 0x00, 0x00, 0x00, 0x04, 0x00, 0x00, 0x00, 0x0a, 0xd5, 0xff, 0xff,
  0x04, 0x00, 0x00, 0x00, 0x54, 0x00, 0x00, 0x00, 0x0c, 0x00, 0x00, 0x00,
  0x08, 0x00, 0x0e, 0x00, 0x08, 0x00, 0x04, 0x00, 0x08, 0x00, 0x00, 0x00,
  0x10, 0x00, 0x00, 0x00, 0x24, 0x00, 0x00, 0x00, 0x00, 0x00, 0x06, 0x00,
  0x08, 0x00, 0x04, 0x00, 0x06, 0x00, 0x00, 0x00, 0x04, 0x00, 0x00, 0x00,
  0x00, 0x00, 0x00, 0x00, 0x00, 0x00, 0x0a, 0x00, 0x10, 0x00, 0x0c, 0x00,
  0x08, 0x00, 0x04, 0x00, 0x0a, 0x00, 0x00, 0x00, 0x02, 0x00, 0x00, 0x00,
  0x02, 0x00, 0x00, 0x00, 0x04, 0x00, 0x00, 0x00, 0x06, 0x00, 0x00, 0x00,
  0x32, 0x2e, 0x31, 0x35, 0x2e, 0x30, 0x00, 0x00, 0x6a, 0xd5, 0xff, 0xff,
  0x04, 0x00, 0x00, 0x00, 0x10, 0x00, 0x00, 0x00, 0x31, 0x2e, 0x35, 0x2e,
  0x30, 0x00, 0x00, 0x00, 0x00, 0x00, 0x00, 0x00, 0x00, 0x00, 0x00, 0x00,
  0x04, 0xcc, 0xff, 0xff, 0x08, 0xcc, 0xff, 0xff, 0x0c, 0xcc, 0xff, 0xff,
  0x10, 0xcc, 0xff, 0xff, 0x14, 0xcc, 0xff, 0xff, 0x18, 0xcc, 0xff, 0xff,
  0x1c, 0xcc, 0xff, 0xff, 0xa2, 0xd5, 0xff, 0xff, 0x04, 0x00, 0x00, 0x00,
  0x80, 0x01, 0x00, 0x00, 0x8c, 0x46, 0x9f, 0x3d, 0x32, 0xcc, 0x6c, 0x3e,
  0xcb, 0xe0, 0x1d, 0x3e, 0xec, 0x35, 0x81, 0x3d, 0xc2, 0x00, 0xcf, 0x3e,
  0xfd, 0x8a, 0xc5, 0x3d, 0x6f, 0x56, 0xa2, 0xbf, 0x54, 0x4d, 0x28, 0x3f,
  0x37, 0x02, 0x92, 0x3e, 0x60, 0x52, 0x0f, 0x3d, 0xbb, 0x13, 0xba, 0x3e,
  0x60, 0x5f, 0x5b, 0xbd, 0xcd, 0x01, 0x8e, 0xbf, 0x07, 0x7d, 0xf2, 0x3e,
  0x19, 0xd6, 0x08, 0x3d, 0x15, 0x61, 0x55, 0x3e, 0x3e, 0x13, 0x30, 0xbc,
  0x4f, 0xa5, 0xe6, 0x3e, 0xea, 0x77, 0x3e, 0x3f, 0x7c, 0x9f, 0x5b, 0x3e,
  0x61, 0x45, 0x20, 0xbf, 0x00, 0xa4, 0x33, 0xbe, 0x7b, 0x58, 0x0c, 0xbf,
  0x55, 0x54, 0xde, 0x3d, 0xe6, 0x30, 0x33, 0x3e, 0xfd, 0xf0, 0x35, 0x3e,
  0x9f, 0x6f, 0x82, 0x3e, 0x8e, 0xdd, 0x1f, 0xbe, 0x99, 0x72, 0xcf, 0xbf,
  0xb1, 0xb8, 0xda, 0x3d, 0xdb, 0x81, 0x3d, 0xbf, 0x17, 0xe0, 0xb2, 0x3e,
  0x80, 0xd7, 0x4d, 0xbd, 0x26, 0x5c, 0x28, 0x3e, 0x60, 0xdc, 0x4b, 0xbd,
  0x45, 0x1c, 0xb7, 0x3e, 0x42, 0xca, 0x9c, 0xbe, 0xd8, 0x01, 0x98, 0x3d,
  0x78, 0x5e, 0xd2, 0x3f, 0xff, 0x3c, 0x6a, 0x3e, 0x2f, 0xad, 0xd0, 0x3e,
  0x14, 0x25, 0xcf, 0xbe, 0xe0, 0x1f, 0x5d, 0xbe, 0x6c, 0x61, 0x54, 0xbe,
  0xd8, 0x5b, 0xd9, 0x3f, 0xf6, 0x8e, 0x40, 0xbf, 0x2b, 0xcb, 0x9f, 0x3e,
  0x64, 0x64, 0x2d, 0xbd, 0x51, 0xc8, 0x21, 0x3d, 0xe9, 0xa4, 0xd3, 0x3e,
  0xdc, 0x3d, 0x10, 0x3d, 0x25, 0x99, 0xa2, 0xbf, 0xcd, 0x93, 0xad, 0x3e,
  0x91, 0x1c, 0xa8, 0x3e, 0x40, 0x29, 0xcc, 0x3e, 0x2a, 0x1b, 0x2d, 0x3e,
  0xda, 0xf6, 0x8a, 0xbf, 0xaa, 0x99, 0xb7, 0x3e, 0xb5, 0xb8, 0xa9, 0xbf,
  0x81, 0x05, 0xf4, 0xbd, 0x94, 0x4c, 0x6a, 0x3f, 0xd7, 0x43, 0xef, 0x3e,
  0xa8, 0x77, 0x02, 0x3f, 0xd9, 0x0b, 0xb7, 0x3e, 0x52, 0xf1, 0xcc, 0xbe,
  0xad, 0xd0, 0xad, 0x3e, 0xa7, 0x6f, 0x84, 0x3e, 0x8b, 0x82, 0xa3, 0xbf,
  0x49, 0xf6, 0x25, 0xbe, 0x79, 0xd7, 0x3f, 0xbe, 0xd6, 0xcd, 0x83, 0xbe,
  0x03, 0x78, 0xaa, 0xbf, 0xd0, 0x93, 0xb1, 0xbe, 0xe5, 0xaa, 0x16, 0xbc,
  0xa6, 0x43, 0x99, 0xbe, 0x1a, 0xec, 0x02, 0x3e, 0xce, 0x1d, 0x66, 0xbe,
  0x86, 0x4b, 0x08, 0x3f, 0xff, 0x1d, 0x58, 0x3c, 0x90, 0x6e, 0xbb, 0x3d,
  0x57, 0xf9, 0x6a, 0x3e, 0x71, 0x24, 0x86, 0xbf, 0x7b, 0x7b, 0x58, 0xbf,
  0xb6, 0xc7, 0xba, 0x3e, 0x87, 0x69, 0xcb, 0x3e, 0x43, 0xc6, 0xc1, 0xbe,
  0x6f, 0x9a, 0x0d, 0x3f, 0x8c, 0xa2, 0x64, 0xbe, 0x6b, 0x5e, 0x9b, 0x3e,
  0xcb, 0xd1, 0x94, 0xbf, 0x2f, 0xe7, 0xb0, 0x3e, 0x20, 0x61, 0x1a, 0x3f,
  0x60, 0xea, 0x74, 0x3d, 0x10, 0x41, 0xdc, 0xbe, 0x56, 0x3d, 0x76, 0x3e,
  0x78, 0x3e, 0x27, 0x3d, 0x2e, 0xd7, 0xff, 0xff, 0x04, 0x00, 0x00, 0x00,
  0x00, 0x0e, 0x00, 0x00, 0x24, 0x2d, 0x6b, 0xbe, 0x2a, 0xe0, 0x7b, 0xbe,
  0xe4, 0xbd, 0xa0, 0x3d, 0x30, 0xc7, 0x19, 0x3d, 0x28, 0xd9, 0xb8, 0x3d,
  0x1a, 0x3b, 0x3f, 0xbe, 0x76, 0xaf, 0x74, 0xbe, 0xe0, 0x13, 0x2d, 0x3e,
  0x7f, 0xce, 0x2e, 0xbe, 0x38, 0x48, 0x58, 0xbe, 0x0f, 0xb0, 0x8f, 0xbe,
  0x58, 0x91, 0x77, 0x3d, 0x80, 0xb6, 0x0a, 0xbe, 0x3b, 0x16, 0x9a, 0xbe,
  0xfa, 0xbc, 0x94, 0xbe, 0xa0, 0x34, 0xa5, 0xbc, 0x99, 0x02, 0x59, 0xbe,
  0x03, 0x1b, 0x30, 0xbe, 0xcc, 0xc3, 0xdf, 0x3d, 0xac, 0x84, 0x47, 0xbe,
  0xb4, 0x0d, 0x42, 0xbe, 0x67, 0xc3, 0x43, 0xbe, 0xc0, 0xa0, 0x6d, 0x3c,
  0xfc, 0x30, 0x16, 0x3e, 0x2e, 0x49, 0x4d, 0xbe, 0x7a, 0x85, 0x39, 0x3e,
  0x36, 0x55, 0x56, 0xbe, 0xa1, 0x69, 0x9f, 0xbe, 0xda, 0x46, 0x64, 0xbe,
  0xd8, 0xc5, 0x2a, 0xbd, 0x16, 0x9a, 0x70, 0x3e, 0xd2, 0x07, 0x8e, 0xbe,
  0x40, 0x06, 0x4b, 0xbc, 0xe0, 0xbb, 0x68, 0x3c, 0x98, 0x32, 0xe5, 0x3d,
  0xb0, 0xce, 0x6b, 0x3d, 0x26, 0xfe, 0x57, 0x3e, 0x3e, 0x51, 0x8c, 0xbe,
  0x60, 0x36, 0x7a, 0x3d, 0x7c, 0xf8, 0x49, 0xbe, 0x40, 0x44, 0xeb, 0xbc,
  0xa6, 0x89, 0x76, 0xbe, 0x08, 0xa0, 0xf5, 0xbd, 0x98, 0x3d, 0x7e, 0x3d,
  0x51, 0x4f, 0x35, 0xbe, 0x20, 0xe1, 0xdc, 0xbd, 0xb8, 0xcd, 0xb9, 0xbd,
  0x80, 0x0c, 0x36, 0xbb, 0x18, 0xc1, 0xbd, 0x3d, 0xf4, 0xc8, 0x0f, 0xbe,
  0x92, 0x37, 0x06, 0xbe, 0x1a, 0x45, 0x6c, 0xbe, 0x4a, 0x36, 0xa4, 0xbd,
  0x09, 0x68, 0x85, 0xbe, 0x60, 0x0f, 0xb9, 0x3c, 0x8b, 0x55, 0x9e, 0x3e,
  0x6e, 0x74, 0xfe, 0xbd, 0x94, 0x23, 0x70, 0xbe, 0x8f, 0x4d, 0x9a, 0x3e,
  0x6a, 0xdd, 0x8d, 0x3e, 0x82, 0x29, 0x90, 0xbe, 0xf7, 0x26, 0x88, 0xbe,
  0x29, 0x82, 0x65, 0x3e, 0x24, 0x87, 0xc3, 0xbd, 0x1d, 0x24, 0xcd, 0xbd,
  0x22, 0x92, 0xe9, 0x3d, 0x0f, 0xef, 0x9b, 0x3e, 0x5a, 0x86, 0x9c, 0x3e,
  0x06, 0xc3, 0x58, 0xbe, 0x4b, 0x7a, 0xff, 0xbd, 0xc4, 0xe3, 0x7c, 0xbe,
  0x09, 0x85, 0x87, 0x3e, 0xfe, 0xe5, 0x49, 0x3e, 0x4b, 0xcf, 0x64, 0x3e,
  0x70, 0xe4, 0xd3, 0xba, 0x8c, 0x8f, 0x5e, 0xbe, 0x9c, 0xed, 0x41, 0x38,
  0x20, 0x8e, 0x0c, 0xbe, 0x26, 0x5a, 0x8b, 0xbe, 0x22, 0x8b, 0x83, 0xbe,
  0xde, 0xbe, 0x55, 0x3e, 0x3f, 0xd5, 0x99, 0xbe, 0x21, 0x90, 0x77, 0xbe,
  0xe4, 0x29, 0xc0, 0x3d, 0x84, 0x7a, 0xf5, 0x3d, 0xf7, 0x91, 0x61, 0xbe,
  0xd5, 0x1d, 0x97, 0x3e, 0x62, 0x57, 0xab, 0x3e, 0xae, 0x50, 0x84, 0x3e,
  0x31, 0xce, 0x53, 0x3b, 0x5d, 0xa0, 0x0b, 0x3f, 0x8a, 0xc2, 0x2b, 0x3e,
  0x50, 0x85, 0x1d, 0x3f, 0x05, 0x37, 0x8c, 0x3e, 0x25, 0x8d, 0x94, 0x3e,
  0x92, 0x44, 0x42, 0x3c, 0xdc, 0xf0, 0x00, 0x3f, 0xcf, 0x3f, 0x02, 0x3e,
  0x00, 0xc0, 0x1a, 0x3e, 0xad, 0x99, 0x81, 0x3e, 0xd7, 0xaf, 0x61, 0xbe,
  0xeb, 0x95, 0xa7, 0x3e, 0x68, 0x8c, 0x65, 0x3b, 0xbe, 0xd0, 0x4a, 0x3e,
  0xb7, 0xbd, 0x6b, 0xbd, 0x65, 0x32, 0x91, 0xbe, 0x3d, 0xe9, 0x63, 0x3d,
  0xf4, 0x3b, 0xdb, 0x3d, 0xc0, 0xe2, 0x52, 0xbe, 0xfb, 0x3b, 0x1f, 0x3f,
  0x5d, 0x73, 0x0d, 0x3f, 0xfa, 0x54, 0x00, 0x3d, 0x27, 0xaa, 0x8e, 0x3e,
  0x7a, 0x58, 0x77, 0x3e, 0x4e, 0xc4, 0x12, 0xbe, 0xd0, 0xcb, 0x04, 0x3e,
  0x84, 0x40, 0x7c, 0xbe, 0x77, 0x7c, 0x33, 0xbd, 0x54, 0x30, 0x8a, 0x3e,
  0xdc, 0xec, 0x99, 0x3d, 0xd2, 0xef, 0x48, 0xbe, 0x1a, 0xb2, 0xdb, 0xbc,
  0x4f, 0x27, 0x81, 0x3e, 0xcb, 0xc7, 0x4e, 0x3e, 0xc0, 0x97, 0xd8, 0x3e,
  0x52, 0x0f, 0xf5, 0xbd, 0x89, 0xac, 0x50, 0xbe, 0xe8, 0x1d, 0x10, 0x3d,
  0xf2, 0x79, 0x5e, 0x3e, 0xfb, 0x22, 0xa9, 0x3e, 0xe7, 0x67, 0x98, 0x3e,
  0x4b, 0x8a, 0xc3, 0x3e, 0x8a, 0x89, 0xac, 0x3c, 0x54, 0x91, 0x41, 0xbe,
  0xb4, 0x2c, 0x39, 0xbe, 0x08, 0x5b, 0xbd, 0x3d, 0xad, 0x9e, 0x2f, 0xbe,
  0x07, 0x14, 0x9e, 0x3e, 0x66, 0xea, 0xef, 0x3e, 0xf0, 0xbc, 0x9d, 0xbe,
  0x8e, 0x44, 0x43, 0xbe, 0x43, 0xf8, 0x15, 0x3e, 0x86, 0x7c, 0x69, 0xbe,
  0xb4, 0x8a, 0x4f, 0xbe, 0x4f, 0xdc, 0xe4, 0xbd, 0xb7, 0xe3, 0x9d, 0xbe,
  0x16, 0xfc, 0x2b, 0xbe, 0x55, 0x01, 0x97, 0x3e, 0x99, 0xd9, 0x61, 0xbd,
  0x1a, 0x1a, 0x3c, 0x3d, 0xf2, 0xb2, 0x1a, 0x3e, 0xf7, 0x75, 0x47, 0xbe,
  0x2d, 0x26, 0x58, 0xbe, 0xd5, 0x30, 0x03, 0xbc, 0x23, 0x7a, 0x8e, 0x3e,
  0xcc, 0x6e, 0xdf, 0x3d, 0xd2, 0xfc, 0x62, 0x3e, 0x3a, 0x68, 0x66, 0x3e,
  0x38, 0xe2, 0x96, 0xbe, 0x41, 0x68, 0x68, 0x3e, 0x91, 0xc5, 0x5f, 0x3d,
  0x95, 0x31, 0x99, 0xbc, 0xa7, 0x9b, 0x6c, 0x3e, 0x20, 0x69, 0xc8, 0x3c,
  0x19, 0x51, 0x85, 0x3e, 0x71, 0xa3, 0x91, 0x3d, 0x82, 0xb2, 0x1a, 0x3d,
  0x6d, 0xd0, 0x8a, 0x3d, 0x20, 0xad, 0x39, 0xbc, 0x35, 0x03, 0xfa, 0xbe,
  0xb4, 0x24, 0xbe, 0x3d, 0x48, 0x55, 0x2a, 0x3e, 0x71, 0x31, 0x31, 0xbe,
  0xde, 0x2e, 0x11, 0xbf, 0x08, 0x82, 0x8d, 0x3e, 0x7d, 0x1c, 0x88, 0x3e,
  0xe1, 0x43, 0x92, 0x3e, 0x95, 0x4e, 0x1e, 0x3e, 0xc0, 0x88, 0x9e, 0x3d,
  0x34, 0x71, 0xf8, 0xbe, 0xca, 0xb8, 0x1a, 0xbe, 0xe1, 0xbb, 0x8b, 0x3e,
  0xb9, 0x65, 0x31, 0x3d, 0xac, 0x7b, 0x98, 0xbd, 0xe1, 0x34, 0x46, 0xbe,
  0x3c, 0x39, 0x4d, 0x3e, 0xe8, 0x00, 0x07, 0xbf, 0x08, 0x7b, 0x8e, 0xbd,
  0xf9, 0x04, 0x1d, 0xbf, 0x7e, 0x21, 0xcf, 0xbe, 0xc4, 0x37, 0x88, 0xbe,
  0x58, 0x3f, 0x07, 0xbe, 0xf8, 0xe0, 0xa4, 0x3d, 0x8c, 0x81, 0x89, 0x3e,
  0xa9, 0x09, 0x11, 0x3e, 0xe0, 0x0c, 0x8d, 0xbe, 0x2f, 0x75, 0x9f, 0x3e,
  0xe6, 0x9e, 0x60, 0xbe, 0x0a, 0xd1, 0x56, 0x3e, 0x92, 0x5b, 0xfd, 0x3e,
  0x5a, 0x21, 0x0a, 0xbe, 0x06, 0x1f, 0x8e, 0x3e, 0x8e, 0x5d, 0x92, 0x3f,
  0x15, 0x9c, 0x93, 0x3e, 0x6d, 0xf7, 0x97, 0x3f, 0x93, 0x8c, 0x7b, 0x3f,
  0xe5, 0x84, 0x94, 0x3e, 0xe8, 0x2b, 0xa5, 0x3e, 0xfb, 0x76, 0x67, 0x3f,
  0x39, 0x10, 0x59, 0x3e, 0xab, 0xa4, 0x1e, 0xbe, 0x52, 0xd3, 0x45, 0x3e,
  0xda, 0xa5, 0x53, 0x3e, 0x85, 0x5a, 0x1a, 0x3f, 0x70, 0xc2, 0x34, 0x3e,
  0x58, 0xa8, 0xcc, 0xbd, 0x70, 0x4b, 0x08, 0x3e, 0x23, 0x5b, 0xb3, 0xbe,
  0x9f, 0x83, 0x86, 0x3e, 0x68, 0xcc, 0xe8, 0x3d, 0xa2, 0x32, 0x0e, 0x3e,
  0xff, 0x5b, 0x16, 0x3f, 0x59, 0x6c, 0x4f, 0x3f, 0xfe, 0xef, 0xfa, 0x3d,
  0x78, 0x16, 0x45, 0x3d, 0xc0, 0x5d, 0x6d, 0x3c, 0x68, 0x19, 0xe6, 0xbd,
  0x14, 0x2b, 0xfd, 0x3d, 0x64, 0x3a, 0x22, 0xbe, 0x30, 0x31, 0x93, 0xbe,
  0xae, 0xb9, 0x8d, 0xbe, 0x25, 0xa0, 0x8d, 0x3e, 0x3b, 0x90, 0x97, 0x3e,
  0xbb, 0xe1, 0x98, 0x3e, 0x0c, 0x9b, 0xfe, 0x3d, 0x3a, 0x96, 0x34, 0xbe,
  0xa4, 0x9c, 0x70, 0xbe, 0x44, 0x5d, 0x04, 0xbe, 0xb3, 0x1d, 0x88, 0x3e,
  0xb5, 0x29, 0x0b, 0xbe, 0x10, 0x9f, 0x82, 0x3d, 0xfe, 0x4b, 0x8a, 0xbe,
  0x40, 0xf8, 0x95, 0xbc, 0xcd, 0x0e, 0x82, 0xbe, 0xe4, 0x93, 0x00, 0xbe,
  0xa0, 0x6e, 0x42, 0xbe, 0x79, 0x7a, 0xa1, 0x3e, 0xa0, 0x8f, 0x5f, 0x3d,
  0xeb, 0xbf, 0x9f, 0xbe, 0xf8, 0x62, 0xe6, 0x3d, 0xc3, 0xc3, 0x27, 0xbe,
  0xf0, 0xdb, 0x56, 0x3d, 0x78, 0xcc, 0x2c, 0x3d, 0x63, 0x03, 0x29, 0x3e,
  0x98, 0x28, 0xae, 0x3d, 0xbd, 0xfd, 0x23, 0x3e, 0x5b, 0x87, 0x29, 0xbe,
  0x19, 0x1f, 0xe5, 0x3d, 0x1f, 0x51, 0x61, 0xbd, 0x8e, 0x0e, 0x1f, 0x3e,
  0xf4, 0xa7, 0x4e, 0xbe, 0x13, 0xe2, 0x84, 0xbd, 0xbf, 0x78, 0x08, 0xbe,
  0x2a, 0x34, 0x45, 0x3d, 0x6f, 0x80, 0x80, 0x3b, 0x35, 0x3a, 0xca, 0xbd,
  0xf8, 0x11, 0x8d, 0xbe, 0xda, 0x22, 0x73, 0x3e, 0x4c, 0xd3, 0xaa, 0xbd,
  0xe7, 0x7c, 0x9e, 0xbd, 0xe2, 0x74, 0x3c, 0x3e, 0xfd, 0xe5, 0x1f, 0x3e,
  0x3d, 0xca, 0x98, 0xbe, 0x6f, 0x00, 0xa1, 0xbe, 0x39, 0x25, 0x92, 0xbe,
  0xf9, 0x99, 0x84, 0x3e, 0x60, 0xb4, 0x2e, 0xbc, 0x28, 0xeb, 0x6a, 0x3e,
  0x96, 0x17, 0xb6, 0x3d, 0xe8, 0x37, 0x4b, 0x3d, 0x99, 0xab, 0x8b, 0xbe,
  0xc4, 0xe0, 0xd9, 0xbd, 0xd0, 0x65, 0x76, 0xbe, 0xae, 0x1f, 0x8a, 0xbe,
  0xbe, 0x6f, 0x69, 0x3e, 0xd3, 0xb6, 0x83, 0xbe, 0xc1, 0xcc, 0x80, 0xbe,
  0x50, 0xce, 0xb0, 0xbd, 0x72, 0x06, 0x77, 0x3e, 0x0e, 0x14, 0x1d, 0xbe,
  0xa8, 0xb6, 0xc3, 0xbd, 0xc0, 0xef, 0xe4, 0x3c, 0x4a, 0x31, 0xfa, 0xbd,
  0x8c, 0x4a, 0x1d, 0xbe, 0xc4, 0x64, 0xdc, 0xbd, 0x00, 0xff, 0x97, 0xba,
  0x10, 0x8a, 0x4f, 0x3d, 0x8b, 0xb8, 0x92, 0x3e, 0xf1, 0x29, 0xa1, 0xbe,
  0xc2, 0xbf, 0x68, 0x3e, 0x40, 0x1e, 0x6b, 0xbd, 0x9c, 0x80, 0x25, 0xbe,
  0x00, 0x66, 0xe2, 0x3a, 0x40, 0xfb, 0x4c, 0xbe, 0x58, 0x4f, 0x20, 0x3e,
  0x72, 0x25, 0x40, 0xbe, 0x05, 0xd3, 0x90, 0x3e, 0xd0, 0x44, 0x78, 0xbd,
  0x98, 0xcd, 0x77, 0x3d, 0x3e, 0x13, 0x3a, 0x3e, 0x00, 0xfc, 0xf0, 0xba,
  0x27, 0x85, 0x41, 0xbe, 0xc2, 0xf6, 0x3f, 0x3e, 0x32, 0x03, 0x33, 0x3e,
  0x14, 0xc4, 0xdd, 0x3d, 0xe0, 0xfa, 0x9a, 0xbe, 0xbe, 0xc6, 0xd3, 0xbd,
  0x79, 0x75, 0x44, 0x3e, 0x01, 0x3b, 0x9c, 0xbe, 0xa2, 0x12, 0x4b, 0x3e,
  0x12, 0x45, 0x8a, 0xbd, 0x29, 0xb1, 0x60, 0x3e, 0xe0, 0x84, 0xdb, 0x3d,
  0x60, 0x91, 0xe3, 0xbc, 0x7e, 0xb8, 0x3d, 0x3e, 0x64, 0xd4, 0x66, 0xbe,
  0x40, 0xf3, 0xa4, 0xbb, 0x35, 0x69, 0x1b, 0xbe, 0x88, 0xb0, 0x34, 0xbe,
  0x3d, 0xc8, 0x80, 0xbe, 0x71, 0xe8, 0x99, 0xbe, 0x3e, 0x67, 0xc3, 0xbd,
  0x60, 0x9f, 0x1c, 0x3d, 0x57, 0xfd, 0x6f, 0xbd, 0x06, 0x83, 0x8f, 0xbe,
  0x17, 0x76, 0x87, 0xbe, 0xba, 0xc8, 0x45, 0x3e, 0x0c, 0x49, 0xbe, 0xbe,
  0xf5, 0x48, 0x9d, 0x3e, 0xe6, 0xbf, 0x9c, 0x3c, 0x25, 0xb7, 0xea, 0x3d,
  0x15, 0xfc, 0x6d, 0xbf, 0x9e, 0x49, 0xb8, 0x3e, 0x70, 0xc8, 0x8c, 0xbd,
  0xea, 0x74, 0xb7, 0x3d, 0x0e, 0xc9, 0x8d, 0xbc, 0xc0, 0xdb, 0x50, 0xbc,
  0x8c, 0x59, 0x23, 0xbf, 0x25, 0x0e, 0xba, 0x3d, 0x8f, 0x6d, 0x34, 0x3f,
  0x05, 0xda, 0x9a, 0xbe, 0x2a, 0xb8, 0x52, 0x3e, 0xfc, 0x60, 0x9e, 0xbe,
  0xc0, 0x9c, 0x71, 0x3d, 0x94, 0xfd, 0xea, 0xbe, 0xda, 0x2d, 0x83, 0xbe,
  0xba, 0x01, 0x4e, 0xbe, 0xa5, 0xf5, 0x07, 0xbf, 0x77, 0x88, 0x80, 0xbd,
  0x7f, 0x5f, 0x83, 0x3e, 0x90, 0xf9, 0x75, 0xbe, 0x96, 0xda, 0xa7, 0x3e,
  0x63, 0x5e, 0x7e, 0xbe, 0xdd, 0x4b, 0x46, 0x3c, 0x1a, 0x4a, 0x53, 0x3e,
  0xf8, 0xf0, 0x00, 0x3f, 0x7e, 0xa3, 0x22, 0x3e, 0xc3, 0xad, 0x83, 0x3e,
  0xa1, 0x92, 0x23, 0x3d, 0x41, 0x2e, 0x3b, 0x3f, 0x13, 0x50, 0x8b, 0x3d,
  0x08, 0x90, 0x0b, 0x3d, 0x34, 0xe6, 0x92, 0x3e, 0x17, 0x20, 0x0f, 0x3e,
  0xb4, 0xc3, 0xff, 0x3d, 0xe8, 0x6b, 0x5e, 0x3e, 0x6e, 0x40, 0xd8, 0x3d,
  0x63, 0x43, 0xce, 0xbe, 0xf2, 0xf6, 0x65, 0x3e, 0xc0, 0xe2, 0x13, 0xbe,
  0x7c, 0x4f, 0x3d, 0xbe, 0xe1, 0x9c, 0x28, 0x3e, 0x44, 0x35, 0x1c, 0x3f,
  0x6e, 0x14, 0x9c, 0x3e, 0x7d, 0x5d, 0x20, 0x3f, 0x5f, 0xcf, 0x08, 0x3f,
  0xb5, 0x5d, 0x3f, 0xbe, 0x74, 0x11, 0x45, 0xbe, 0xff, 0x1a, 0xc6, 0xbd,
  0x84, 0x29, 0x5e, 0x3e, 0xc7, 0xa4, 0x31, 0xbd, 0x7f, 0x45, 0xed, 0xbc,
  0xdc, 0x94, 0xae, 0x3d, 0xbb, 0x61, 0x77, 0xbe, 0xa4, 0xd2, 0x88, 0xbe,
  0x0a, 0xc3, 0x8f, 0xbd, 0x45, 0xda, 0x62, 0xbe, 0xe2, 0x49, 0xc9, 0x3d,
  0x21, 0x15, 0x43, 0xbe, 0x1b, 0xec, 0x2b, 0xbe, 0xa2, 0x4f, 0x81, 0xbd,
  0x95, 0xac, 0x64, 0x3e, 0x7c, 0xcc, 0x62, 0xbe, 0x2b, 0x66, 0x30, 0xbd,
  0xa5, 0xd8, 0x2a, 0x3d, 0x4a, 0x46, 0x10, 0x3e, 0x46, 0x3b, 0x98, 0xbd,
  0xb0, 0x95, 0x25, 0x3d, 0xba, 0xcc, 0x57, 0x3e, 0xc3, 0x79, 0x94, 0xbe,
  0xfb, 0x30, 0x36, 0xbe, 0x3a, 0x7c, 0xd3, 0xbd, 0x33, 0x0b, 0x83, 0xbe,
  0xfb, 0x65, 0x44, 0x3e, 0xf1, 0x17, 0x9c, 0xbb, 0xa4, 0x77, 0xd2, 0xbd,
  0xea, 0xa4, 0x4a, 0x3e, 0x5e, 0x22, 0x46, 0xbe, 0xae, 0x04, 0x6d, 0x3d,
  0x4f, 0xa9, 0x52, 0xbe, 0x4d, 0x45, 0x76, 0xbe, 0xe4, 0xbd, 0xe6, 0x3d,
  0x5c, 0x3a, 0x90, 0x3d, 0x1c, 0x41, 0xa8, 0xbd, 0x90, 0xb3, 0xbf, 0xbc,
  0xf9, 0x41, 0x37, 0xbe, 0xf8, 0xab, 0x68, 0xbe, 0x32, 0x1f, 0x6d, 0x3e,
  0x4d, 0x5d, 0xbf, 0xbd, 0x00, 0x15, 0xba, 0xba, 0xa8, 0x21, 0x12, 0xbd,
  0x44, 0xd4, 0x39, 0x3e, 0x79, 0x0c, 0x9b, 0xbe, 0xd6, 0x35, 0x2d, 0xbd,
  0x80, 0x7b, 0x6b, 0xbc, 0x46, 0x86, 0x63, 0x3e, 0x16, 0x83, 0x93, 0xbd,
  0xb8, 0xcc, 0xd8, 0x3d, 0x92, 0xf0, 0x78, 0xbe, 0xc5, 0xe4, 0x8d, 0xbe,
  0x6e, 0xad, 0x3f, 0xbe, 0x28, 0xda, 0x1c, 0x3e, 0x68, 0x87, 0x47, 0xbd,
  0x95, 0xf6, 0x62, 0xbe, 0x62, 0x10, 0x42, 0x3e, 0xac, 0xa3, 0x52, 0x3e,
  0x00, 0x2d, 0xe4, 0x3d, 0x60, 0x1c, 0x69, 0xbd, 0xee, 0x1b, 0x67, 0x3e,
  0xfa, 0x3f, 0xb5, 0x3d, 0x58, 0x9b, 0x46, 0xbd, 0x1f, 0x27, 0xa4, 0xbe,
  0xf5, 0x50, 0x55, 0xbd, 0xb2, 0x47, 0xf5, 0x3c, 0xcf, 0x2e, 0x47, 0xbe,
  0x44, 0x50, 0x9b, 0xbd, 0xc8, 0xaa, 0xb4, 0xbe, 0xd3, 0xb9, 0x83, 0xbe,
  0x74, 0x82, 0x99, 0xbd, 0x68, 0x58, 0xab, 0xbe, 0x8e, 0x51, 0x2d, 0xbc,
  0x46, 0x62, 0x96, 0xbe, 0x89, 0xed, 0x81, 0x3e, 0xd6, 0x76, 0xa7, 0xbd,
  0xfc, 0xb6, 0x82, 0xbd, 0xae, 0x22, 0x86, 0xbd, 0xf4, 0xca, 0x91, 0x3e,
  0x67, 0x52, 0x0b, 0xbe, 0x42, 0x9a, 0xe8, 0xbd, 0x2b, 0xca, 0x81, 0x3d,
  0xc8, 0x27, 0x4f, 0x3d, 0xf0, 0x8e, 0x21, 0x3e, 0x58, 0x39, 0xbe, 0x3d,
  0x63, 0x78, 0xa8, 0xbe, 0x87, 0xae, 0x72, 0x3e, 0x3a, 0x1d, 0x2b, 0x3d,
  0xbc, 0xe9, 0x8b, 0xbd, 0x31, 0x03, 0x8f, 0x3e, 0x78, 0x29, 0x48, 0xbd,
  0x7d, 0x40, 0x6f, 0x3e, 0xeb, 0x10, 0x8d, 0xbe, 0xe4, 0x87, 0x52, 0xbe,
  0x80, 0x57, 0x4c, 0x3f, 0x3a, 0xef, 0x8c, 0xbe, 0x31, 0x8f, 0x01, 0x3f,
  0x33, 0xb9, 0x49, 0x3f, 0x53, 0xdf, 0x8e, 0x3e, 0x73, 0xe1, 0x8b, 0xbe,
  0xda, 0xb0, 0xd6, 0x3e, 0x80, 0x12, 0xb0, 0x3e, 0x70, 0xbb, 0x49, 0xbd,
  0x00, 0x8d, 0x1a, 0xbd, 0x80, 0x09, 0xd6, 0x3b, 0xab, 0x5f, 0xf4, 0x3e,
  0xc7, 0xf5, 0xe4, 0x3d, 0x7d, 0x85, 0x6d, 0x3e, 0x09, 0x79, 0x67, 0xbd,
  0xff, 0x98, 0x9b, 0xbe, 0x79, 0x48, 0xe3, 0x3d, 0x2a, 0x4a, 0x0c, 0x3e,
  0x50, 0x95, 0x53, 0xbe, 0x59, 0xed, 0x41, 0x3f, 0xf4, 0x26, 0x66, 0x3f,
  0x9e, 0x5a, 0x73, 0xbe, 0xde, 0x98, 0x50, 0xbe, 0x2e, 0xe7, 0x6e, 0x3e,
  0x4b, 0xd3, 0xa1, 0x3e, 0x8c, 0xc0, 0x15, 0x3f, 0x32, 0xbf, 0x5e, 0x3e,
  0xdc, 0xf6, 0x92, 0x3e, 0x3d, 0x93, 0x7a, 0x3f, 0x20, 0xff, 0x22, 0xbd,
  0xe2, 0x3a, 0x3c, 0x3f, 0x6c, 0x23, 0x78, 0x3f, 0x60, 0x1c, 0x35, 0xbd,
  0x0b, 0x89, 0x3e, 0xbe, 0x66, 0x8f, 0x09, 0x3f, 0x9b, 0xbf, 0x17, 0x3f,
  0x25, 0xad, 0x11, 0x3e, 0x5f, 0xe5, 0xa1, 0x3e, 0xf3, 0xd7, 0x5f, 0xbe,
  0xf5, 0x6e, 0xa7, 0x3e, 0xdb, 0x2b, 0xa1, 0x3d, 0x7f, 0x6c, 0xc3, 0x3d,
  0xa8, 0xa4, 0x2e, 0x3e, 0x2f, 0x32, 0x04, 0xbd, 0xda, 0x60, 0x32, 0x3e,
  0x5c, 0xd4, 0xd0, 0x3d, 0x98, 0xc9, 0x8f, 0x3e, 0x03, 0xe8, 0x55, 0x3f,
  0x69, 0x75, 0x45, 0x3f, 0x76, 0x63, 0x10, 0x3e, 0x00, 0xb7, 0xfe, 0x3d,
  0x17, 0xa3, 0x36, 0x3f, 0x93, 0xc9, 0x21, 0xbe, 0x6f, 0xcd, 0xad, 0x3e,
  0x9d, 0xc5, 0x1e, 0xbe, 0x8d, 0xbf, 0x1a, 0x3f, 0x8a, 0x25, 0x74, 0x3e,
  0x49, 0xe3, 0x1a, 0xbe, 0x9c, 0xba, 0x05, 0x3e, 0xc3, 0x12, 0x2a, 0x3e,
  0x60, 0xbb, 0xe9, 0x3c, 0x1d, 0x59, 0xe2, 0x3e, 0xd4, 0x80, 0x2f, 0xbe,
  0xce, 0xfd, 0xfd, 0xbe, 0x70, 0xba, 0x9c, 0x3e, 0x08, 0xbd, 0x45, 0x3d,
  0x38, 0x77, 0x29, 0xbd, 0x5c, 0x02, 0xc9, 0x3d, 0x40, 0x6f, 0xff, 0x3e,
  0xd4, 0x07, 0x35, 0x3f, 0x34, 0xe9, 0xb2, 0x3e, 0x7d, 0x1a, 0x14, 0x3f,
  0xb2, 0x28, 0x94, 0xbe, 0x3e, 0x36, 0x63, 0xbe, 0x28, 0xbf, 0x4c, 0xbd,
  0xde, 0xa9, 0xd3, 0x3d, 0xaa, 0x64, 0x4c, 0x3e, 0xf8, 0x0a, 0x45, 0x3e,
  0x4c, 0xa0, 0x12, 0x3e, 0x1c, 0x38, 0xbf, 0x3c, 0x00, 0x75, 0x77, 0xbc,
  0x31, 0xdf, 0x1c, 0xbe, 0x0a, 0xaa, 0x9f, 0x3e, 0x7a, 0x33, 0xc0, 0x3e,
  0x92, 0x18, 0x0f, 0xbf, 0xe8, 0xba, 0x9b, 0x3d, 0x8d, 0xf6, 0x0a, 0xbf,
  0x1f, 0x5e, 0xa5, 0xbe, 0xa1, 0xb7, 0x27, 0xbe, 0x58, 0x6c, 0xdc, 0x3e,
  0xb5, 0x7f, 0x1d, 0xbe, 0x3e, 0xf2, 0x9b, 0xbd, 0x49, 0xbd, 0x64, 0xbe,
  0x20, 0x68, 0x62, 0x3d, 0x8c, 0xaf, 0x28, 0x3e, 0x67, 0xe6, 0xe7, 0xbc,
  0x57, 0x4c, 0xb7, 0x3e, 0xda, 0x0b, 0x62, 0x3e, 0x0f, 0xe8, 0x8c, 0x3e,
  0xae, 0x00, 0x40, 0x3e, 0x7c, 0x69, 0x75, 0x3e, 0xe2, 0xf9, 0x4f, 0xbe,
  0xfe, 0xf0, 0x6f, 0xbe, 0x60, 0x4c, 0x98, 0xbd, 0x9f, 0x1b, 0x52, 0xbf,
  0x19, 0xda, 0xf0, 0x3d, 0x00, 0xa3, 0xe7, 0x3a, 0xa6, 0xef, 0xac, 0x3d,
  0x9e, 0xc7, 0x1e, 0x3e, 0xdc, 0x15, 0xa2, 0xbd, 0x0a, 0xc1, 0xa1, 0xbd,
  0x5a, 0x8c, 0x36, 0xbc, 0xed, 0x21, 0x80, 0x3d, 0x52, 0xde, 0x93, 0xbe,
  0x57, 0x3f, 0x98, 0x3c, 0x09, 0xcd, 0x20, 0xbe, 0x6c, 0x61, 0x84, 0xbd,
  0xaf, 0x7d, 0x39, 0xbe, 0xe2, 0xb3, 0xad, 0xbe, 0xa9, 0x9e, 0x67, 0x3b,
  0x2a, 0x4f, 0xfb, 0x3d, 0x18, 0x45, 0x2e, 0x3e, 0xf0, 0xf2, 0xba, 0x3d,
  0xd3, 0x05, 0x0d, 0x3c, 0x3b, 0x92, 0x1a, 0x3e, 0x00, 0x1d, 0x96, 0xbe,
  0x57, 0x26, 0x6e, 0x3e, 0x25, 0x21, 0xad, 0x3b, 0xa5, 0x4d, 0x87, 0x3e,
  0xd0, 0x80, 0x56, 0xbe, 0x34, 0xbe, 0xda, 0x3d, 0x2b, 0x9f, 0xa5, 0xbe,
  0xf3, 0x12, 0xd6, 0x3d, 0x9d, 0x0b, 0xbb, 0xbd, 0x4d, 0x1e, 0x8b, 0x3e,
  0xe6, 0x93, 0xa8, 0xbe, 0xa9, 0x1e, 0x93, 0x3e, 0x7e, 0x3c, 0x13, 0xbf,
  0x07, 0x96, 0x5e, 0xbe, 0x42, 0x25, 0x2e, 0xbe, 0x2a, 0xff, 0x11, 0x3e,
  0x5c, 0x43, 0x96, 0xbe, 0x72, 0xf9, 0xb5, 0xbe, 0xf1, 0x40, 0x01, 0xbf,
  0x6e, 0x6a, 0x34, 0xbe, 0x74, 0xc6, 0xb5, 0xbd, 0x9e, 0xf0, 0xce, 0x3d,
  0x57, 0x88, 0x4b, 0x3e, 0x5e, 0xcb, 0x15, 0xbe, 0xce, 0x02, 0xe8, 0xbd,
  0x98, 0x30, 0xca, 0x3d, 0x55, 0xc4, 0xd7, 0x3d, 0x21, 0x52, 0xd7, 0x3a,
  0xcf, 0x15, 0x9e, 0x3e, 0x1a, 0x17, 0x6f, 0xbe, 0x28, 0xe2, 0xc3, 0x3e,
  0xb0, 0xee, 0x01, 0xbe, 0x80, 0x69, 0x8b, 0xbb, 0x18, 0x10, 0x4c, 0xbe,
  0x64, 0xa1, 0xe9, 0xb9, 0x94, 0xe1, 0x08, 0xbf, 0x99, 0x1f, 0x53, 0xbe,
  0xdc, 0x5d, 0x87, 0xbe, 0xe1, 0xee, 0x7b, 0x3e, 0x30, 0x38, 0x75, 0xbd,
  0xc9, 0x15, 0x79, 0xbe, 0x16, 0xfc, 0x24, 0x3e, 0x37, 0x11, 0x82, 0xbe,
  0x49, 0xda, 0x65, 0xbe, 0xec, 0xdd, 0xad, 0x3d, 0x00, 0x4c, 0x50, 0x3e,
  0x21, 0x14, 0xd5, 0xbd, 0xe0, 0xb4, 0xa1, 0xbc, 0x85, 0x34, 0xa0, 0x3c,
  0x31, 0xf6, 0x93, 0xbe, 0x1c, 0x61, 0x81, 0xbe, 0xfa, 0x23, 0x02, 0x3e,
  0x57, 0x90, 0x86, 0x3e, 0xd8, 0xe8, 0x1c, 0x3d, 0x79, 0x84, 0xca, 0x3d,
  0x9a, 0xc3, 0x81, 0xbe, 0xa0, 0x88, 0x95, 0x3e, 0x7e, 0x0d, 0x34, 0xbe,
  0x28, 0x81, 0xc7, 0x3d, 0xf8, 0x5e, 0x84, 0xbe, 0x10, 0xfc, 0x44, 0x3d,
  0x5f, 0x2d, 0x9e, 0xbe, 0xda, 0x3b, 0xe4, 0xbd, 0x60, 0xce, 0x47, 0x3d,
  0x62, 0xd7, 0x71, 0xbc, 0xf0, 0x87, 0xa8, 0x3d, 0xae, 0x1a, 0x99, 0x3e,
  0x22, 0x62, 0x4f, 0x3e, 0x23, 0xda, 0x54, 0x3e, 0x2f, 0xed, 0x7d, 0x3a,
  0x21, 0x04, 0x1c, 0x3f, 0x2e, 0xcc, 0xcf, 0x3d, 0xb4, 0x23, 0x8a, 0xbe,
  0xb4, 0x1e, 0x45, 0xbe, 0x6b, 0xe3, 0xd1, 0xbc, 0xe1, 0xa4, 0x90, 0xbe,
  0x33, 0x39, 0x0d, 0x3f, 0x3c, 0x8a, 0x6a, 0xbd, 0x7f, 0x5d, 0xcf, 0xbd,
  0xe8, 0x1e, 0x90, 0x3d, 0x22, 0x70, 0x6d, 0x3e, 0x3e, 0xa3, 0x72, 0x3e,
  0x51, 0x60, 0x3b, 0x3e, 0x54, 0x84, 0x8e, 0x3e, 0xdd, 0x2c, 0x1d, 0x3f,
  0x6c, 0xaa, 0x33, 0x3f, 0x1c, 0x42, 0x42, 0x3f, 0x5d, 0xaf, 0x99, 0x3e,
  0x50, 0x4e, 0x8d, 0xbe, 0x2d, 0xe6, 0x82, 0x3e, 0x0a, 0xac, 0x96, 0x3e,
  0x7c, 0xbb, 0x55, 0x3e, 0xcb, 0xfd, 0x97, 0xbe, 0x7e, 0x5f, 0x09, 0x3e,
  0x81, 0x47, 0xa5, 0x3c, 0x6e, 0x87, 0x60, 0x3e, 0x6c, 0x36, 0x04, 0x3f,
  0x57, 0x35, 0x6c, 0xbe, 0x01, 0x80, 0xb8, 0xbe, 0x58, 0x7d, 0x2b, 0x3f,
  0xa8, 0xf6, 0x84, 0xbe, 0xfe, 0x35, 0x1e, 0x3f, 0xeb, 0x6c, 0xf9, 0x3e,
  0x7c, 0x75, 0xd0, 0x3d, 0x46, 0x1d, 0x65, 0xbe, 0xf6, 0x5b, 0x39, 0x3f,
  0xbe, 0xe7, 0x1f, 0x3f, 0x6b, 0xe4, 0x05, 0x3e, 0x2c, 0x33, 0xbe, 0xbd,
  0xa8, 0x23, 0x7a, 0x3d, 0x6b, 0x17, 0xf7, 0x3d, 0xb3, 0xfd, 0xc3, 0x3e,
  0x5b, 0x0b, 0xb9, 0xbe, 0x52, 0x9b, 0x04, 0x3e, 0x05, 0xfd, 0x14, 0xbe,
  0x06, 0xf5, 0xa0, 0x3e, 0x9d, 0xc9, 0x8d, 0x3e, 0x30, 0xa3, 0x78, 0x3e,
  0x13, 0xc6, 0xc7, 0x3e, 0x94, 0x26, 0x15, 0x3f, 0xf3, 0x45, 0x43, 0x3e,
  0xac, 0x7e, 0x05, 0x3e, 0x94, 0x67, 0x76, 0x3f, 0x95, 0x6f, 0x91, 0x3e,
  0x29, 0x6c, 0xc3, 0x3e, 0x53, 0x52, 0xab, 0x3d, 0x39, 0x40, 0x73, 0x3f,
  0x78, 0x52, 0x76, 0xbe, 0xe6, 0xd2, 0x7d, 0x3e, 0x38, 0x46, 0x4f, 0x3c,
  0xff, 0xf7, 0xe4, 0x3e, 0x15, 0x53, 0x06, 0xbe, 0x00, 0x41, 0x06, 0x3f,
  0xde, 0xe1, 0x40, 0xbe, 0xfa, 0xf1, 0x89, 0xbd, 0x36, 0x84, 0x35, 0xbd,
  0x72, 0x5d, 0xab, 0xbd, 0xda, 0x52, 0x6d, 0x3e, 0x2c, 0xbf, 0x68, 0x3e,
  0x89, 0xf8, 0x27, 0x3f, 0xb2, 0x04, 0x4c, 0x3f, 0x50, 0xb3, 0x14, 0x3f,
  0x38, 0x53, 0xab, 0x3e, 0xbd, 0x07, 0x17, 0xbe, 0xd5, 0xe5, 0x8e, 0x3e,
  0xc9, 0xcf, 0x98, 0x3e, 0xaa, 0x62, 0x2a, 0x3e, 0xde, 0x4f, 0x3f, 0x3e,
  0x1f, 0xd0, 0xeb, 0x3d, 0xd6, 0x19, 0x7f, 0x3e, 0xaf, 0x38, 0x09, 0x3e,
  0x30, 0x7e, 0x21, 0xbd, 0xf2, 0x2b, 0x8f, 0xbe, 0xd1, 0x6e, 0x58, 0xbe,
  0xd5, 0x49, 0x7b, 0x3e, 0xb9, 0x4a, 0xfd, 0xbe, 0x37, 0xec, 0x5d, 0xbe,
  0xf2, 0x58, 0xe2, 0xbe, 0x28, 0x9f, 0x28, 0xbe, 0x4c, 0xb1, 0x93, 0x3d,
  0xf2, 0x9f, 0xee, 0xbb, 0x81, 0xb4, 0xa7, 0x3c, 0x2e, 0x68, 0xad, 0xbd,
  0x9c, 0x2c, 0x9b, 0xbe, 0x3a, 0x93, 0x95, 0xbd, 0x74, 0xb2, 0x1b, 0xbe,
  0xa5, 0xa5, 0xed, 0x3e, 0xa4, 0x12, 0x90, 0x3e, 0xcf, 0x7f, 0xae, 0x3e,
  0xd8, 0x9d, 0xd2, 0x3e, 0x9d, 0x40, 0x20, 0x3f, 0x52, 0x33, 0x2d, 0x3e,
  0xd4, 0xc4, 0xcd, 0x3d, 0x0d, 0x4f, 0x83, 0xbe, 0xaa, 0xe0, 0x5c, 0x3d,
  0x42, 0x5c, 0xd5, 0xbe, 0xce, 0x30, 0x1c, 0x3e, 0x26, 0x57, 0x2c, 0xbe,
  0x33, 0xf3, 0x20, 0xbf, 0x9e, 0xf9, 0x7e, 0x3e, 0x94, 0x8e, 0x94, 0xbe,
  0xd2, 0x9c, 0x85, 0x3e, 0x5a, 0xd9, 0xc1, 0xbe, 0x47, 0x36, 0xa9, 0xbd,
  0x47, 0x2f, 0x9e, 0x3e, 0x00, 0xcc, 0xc8, 0x3d, 0xce, 0x9e, 0x6a, 0x3e,
  0x0a, 0xe6, 0x59, 0x3e, 0xa1, 0x18, 0xef, 0xbd, 0xd3, 0x20, 0xec, 0x3d,
  0xa4, 0xf9, 0x09, 0x3f, 0xb1, 0x3d, 0xc9, 0xbd, 0xc0, 0x87, 0x3f, 0xbc,
  0x58, 0x6f, 0xf4, 0x3d, 0xb8, 0x60, 0xbf, 0x3e, 0x56, 0x25, 0xcb, 0x3d,
  0xb9, 0x18, 0x25, 0xbe, 0xbb, 0xd3, 0x62, 0xbe, 0xe9, 0x06, 0x64, 0x3c,
  0x49, 0x35, 0xc5, 0x3d, 0x6c, 0x6f, 0x91, 0xbe, 0x78, 0x9c, 0x33, 0x3e,
  0x4e, 0xd9, 0x96, 0x3e, 0xa4, 0x9e, 0xd7, 0xbe, 0xea, 0x7e, 0x9d, 0x3d,
  0x81, 0x68, 0x82, 0x3e, 0x92, 0xfd, 0x04, 0x3e, 0x87, 0xcf, 0x93, 0xbe,
  0xc5, 0x15, 0x86, 0xbe, 0x3f, 0xe6, 0xec, 0xbd, 0xc4, 0x1e, 0xb2, 0xbe,
  0xa7, 0xb0, 0x95, 0x3c, 0x54, 0x40, 0xaa, 0x3d, 0x93, 0x00, 0x94, 0xbe,
  0x9f, 0x4f, 0xfa, 0x3c, 0x18, 0x06, 0x39, 0x3d, 0x04, 0x4b, 0x9a, 0x3d,
  0xb8, 0x68, 0x37, 0xbe, 0x3e, 0x32, 0x3a, 0x3e, 0x78, 0xef, 0x2c, 0x3e,
  0xb8, 0x3a, 0x63, 0xbd, 0xde, 0xf0, 0x58, 0xbe, 0x9d, 0xc8, 0x1a, 0xbe,
  0xa4, 0x9b, 0x82, 0xbe, 0x1e, 0x24, 0x68, 0x3e, 0x44, 0x03, 0x9d, 0xbe,
  0x0c, 0xa6, 0xc9, 0xbb, 0x54, 0xab, 0x4c, 0xbe, 0x01, 0xe5, 0x20, 0xbe,
  0x30, 0xe7, 0x28, 0x3e, 0xe3, 0xd6, 0x1c, 0x3e, 0x6f, 0x5a, 0xdb, 0xbc,
  0x0e, 0xd8, 0x34, 0x3e, 0x9c, 0x3d, 0xa6, 0x3d, 0x62, 0xef, 0x89, 0xbe,
  0xda, 0x32, 0x27, 0xbe, 0xad, 0x99, 0xbc, 0xbd, 0xfc, 0x0c, 0xf8, 0x3d,
  0x5a, 0xb8, 0xf2, 0x3c, 0x4b, 0x33, 0x43, 0x3e, 0x93, 0x62, 0x99, 0xbe,
  0x7a, 0xf8, 0x8a, 0x3d, 0x9f, 0x7b, 0x2f, 0xbe, 0x5f, 0xf0, 0x37, 0xbe,
  0xcc, 0xed, 0x84, 0xbe, 0x28, 0xce, 0x9a, 0xbe, 0xba, 0x1e, 0xc1, 0x3e,
  0x09, 0x5d, 0x80, 0x3d, 0x5a, 0xfd, 0x88, 0xbe, 0x5a, 0xf0, 0x01, 0x3e,
  0xba, 0xdb, 0x0c, 0xbe, 0x7f, 0x9a, 0x5d, 0xbb, 0xd3, 0x8a, 0x83, 0x3e,
  0xaa, 0xf1, 0x70, 0xbe, 0xa7, 0x79, 0xa5, 0x3c, 0x6a, 0xd5, 0x84, 0x3e,
  0x14, 0x90, 0x9a, 0x3d, 0xa0, 0xec, 0x6d, 0x3d, 0xec, 0xcd, 0x9b, 0xbd,
  0x6d, 0xd3, 0x0d, 0xbd, 0xb9, 0xde, 0xbf, 0x3d, 0x90, 0x65, 0x94, 0x3c,
  0xb0, 0x2d, 0xd1, 0x3c, 0x42, 0xef, 0x1c, 0x3e, 0x52, 0x44, 0xb3, 0xbd,
  0x18, 0xf3, 0xc0, 0xbd, 0x04, 0x66, 0x80, 0xbd, 0xb5, 0x0e, 0x99, 0x3e,
  0x62, 0xa6, 0x8a, 0xbe, 0x3f, 0xa1, 0x8c, 0xbe, 0x80, 0x32, 0xae, 0xbb,
  0x3a, 0xd8, 0x1f, 0x3e, 0x52, 0x19, 0xa0, 0xbe, 0xb2, 0xbc, 0xe6, 0xbd,
  0x04, 0x2f, 0x61, 0xbe, 0x52, 0x43, 0x80, 0xbe, 0x5e, 0x44, 0x38, 0xbe,
  0x3a, 0x18, 0x33, 0x3e, 0x8c, 0x59, 0xc4, 0xbd, 0xaa, 0x3b, 0x8d, 0xbe,
  0x97, 0x4d, 0x67, 0xbe, 0x48, 0x7f, 0xd7, 0xbd, 0xee, 0xbc, 0xd2, 0xbd,
  0x60, 0x7b, 0xa0, 0x3c, 0xac, 0x4a, 0xeb, 0xbd, 0x8c, 0x05, 0x9b, 0xbe,
  0xe2, 0x7b, 0x1e, 0x3e, 0xe0, 0x52, 0xd9, 0xbc, 0x10, 0x9d, 0x9c, 0x3d,
  0x3a, 0xe5, 0xff, 0xff, 0x04, 0x00, 0x00, 0x00, 0x80, 0x0a, 0x00, 0x00,
  0xe6, 0xbc, 0xb7, 0xbd, 0xc8, 0x35, 0x95, 0xbe, 0xb2, 0xe3, 0x21, 0x3e,
  0xd0, 0xf0, 0xc4, 0xbc, 0x60, 0xc1, 0x6b, 0x3e, 0xd7, 0xcc, 0xa8, 0xbe,
  0xc0, 0x2e, 0x8a, 0xbc, 0x3c, 0xef, 0xf0, 0x3d, 0xe8, 0x26, 0x9e, 0xbe,
  0x18, 0xff, 0x5d, 0x3d, 0x40, 0x9f, 0xc4, 0x3c, 0xc9, 0x96, 0xa0, 0xbe,
  0x46, 0x2f, 0xe2, 0xbd, 0x92, 0xab, 0xa9, 0x3e, 0x5c, 0xa1, 0x74, 0xbe,
  0xfc, 0xb0, 0xf0, 0x3d, 0xcc, 0xd3, 0xd6, 0xbd, 0xf8, 0xb7, 0xf3, 0x3d,
  0x7a, 0x40, 0xab, 0x3e, 0x60, 0x6f, 0x49, 0x3e, 0xc0, 0x7c, 0x74, 0x3d,
  0xb2, 0x35, 0x6b, 0xbe, 0x5e, 0xd0, 0x9d, 0x3e, 0x00, 0x95, 0xb8, 0x3c,
  0xf8, 0x8e, 0xd7, 0xbd, 0x72, 0x42, 0x3b, 0x3f, 0xd3, 0xa3, 0x98, 0xbd,
  0x06, 0x97, 0xe2, 0x3e, 0x05, 0x88, 0x6c, 0x3e, 0xeb, 0xe4, 0x9a, 0x3e,
  0x52, 0x3d, 0x29, 0xbe, 0x9f, 0x0d, 0xa0, 0xbe, 0xe7, 0xe6, 0x2c, 0x3f,
  0x7d, 0xd2, 0x97, 0xbe, 0xe8, 0x71, 0xc5, 0x3d, 0x62, 0xe1, 0x57, 0xbe,
  0xf4, 0xe3, 0x24, 0x3e, 0xe1, 0x33, 0x41, 0xbe, 0xc8, 0x4a, 0x32, 0x3e,
  0x74, 0xdd, 0xef, 0x3d, 0x3a, 0x37, 0xbf, 0x3c, 0x3b, 0x24, 0xe9, 0x3d,
  0x4b, 0x9f, 0xb8, 0xbd, 0x38, 0x1a, 0x08, 0xbd, 0x88, 0x3d, 0x6e, 0x3e,
  0x17, 0xfc, 0xab, 0xbe, 0x8b, 0xc5, 0x08, 0xbe, 0xb1, 0x40, 0x7e, 0x3e,
  0x80, 0x61, 0x69, 0xbd, 0x2c, 0x3c, 0x38, 0xbe, 0xd6, 0x70, 0x4a, 0xbe,
  0xec, 0x51, 0x98, 0x3e, 0x10, 0x4a, 0x4e, 0x3e, 0x80, 0x82, 0x94, 0xbe,
  0x66, 0x28, 0x1e, 0x3e, 0x49, 0x88, 0x42, 0xbe, 0x84, 0x8e, 0x44, 0x3e,
  0x80, 0x89, 0x8e, 0x3e, 0x2c, 0x49, 0xa6, 0x3e, 0x8d, 0x8a, 0x4d, 0xbe,
  0x8a, 0xa3, 0x9c, 0xbe, 0x18, 0xc0, 0x94, 0x3d, 0x74, 0x01, 0x8a, 0x3e,
  0x6c, 0xfe, 0x50, 0x3e, 0x18, 0xfb, 0x47, 0xbd, 0xf8, 0x9b, 0x4e, 0x3d,
  0x72, 0x43, 0x9f, 0x3e, 0xd0, 0xe9, 0xab, 0x3e, 0x3c, 0x79, 0x99, 0xbe,
  0xf6, 0xa0, 0xa6, 0x3e, 0x70, 0xdb, 0x3c, 0xbd, 0x80, 0x46, 0x9d, 0x3c,
  0xe8, 0xa9, 0x49, 0x3e, 0x05, 0x20, 0xb3, 0x3e, 0x70, 0x1c, 0x5f, 0x3e,
  0xb2, 0xda, 0xad, 0x3d, 0xc2, 0xa6, 0xc8, 0xbd, 0x1b, 0x60, 0x23, 0x3f,
  0xed, 0x52, 0x0f, 0x3e, 0x9d, 0x32, 0x47, 0xbe, 0x6e, 0xc6, 0x76, 0x3e,
  0x04, 0x05, 0xa6, 0x3e, 0x8c, 0xf0, 0x5c, 0x3e, 0x1e, 0xf2, 0xa8, 0x3e,
  0x10, 0xe1, 0x69, 0x3d, 0xaa, 0x28, 0x9b, 0xbe, 0x4a, 0x1a, 0x21, 0x3e,
  0xaa, 0x31, 0x24, 0xbe, 0xc5, 0xfa, 0x57, 0x3f, 0xc6, 0x95, 0x61, 0x3e,
  0x70, 0x9f, 0x55, 0x3f, 0xe4, 0x91, 0x8e, 0xbd, 0x1a, 0xbe, 0xd7, 0xbe,
  0x4a, 0xdc, 0x95, 0x3e, 0xdf, 0x08, 0x21, 0x3e, 0x68, 0x04, 0x56, 0xbe,
  0x1a, 0xc5, 0xad, 0xbe, 0xfb, 0x7e, 0x8c, 0xbe, 0x37, 0x60, 0x9f, 0xbe,
  0x17, 0x33, 0xb0, 0x3d, 0xd4, 0xd9, 0x13, 0xbe, 0x9d, 0xfb, 0x7c, 0xbd,
  0x46, 0x95, 0x1c, 0xbe, 0xb9, 0x76, 0xc4, 0x3d, 0x00, 0x39, 0x51, 0xbe,
  0xb4, 0x70, 0xa0, 0xbd, 0xc8, 0x11, 0x1f, 0x3e, 0x70, 0x7a, 0x2a, 0x3e,
  0xce, 0xf3, 0x6f, 0xbe, 0xc0, 0x8c, 0x82, 0xbb, 0xf0, 0x67, 0x3c, 0xbd,
  0x74, 0x13, 0x50, 0x3e, 0xfd, 0x04, 0x8f, 0xbe, 0x57, 0xd8, 0x89, 0xbd,
  0xd6, 0xf2, 0x8e, 0x3e, 0x60, 0x0a, 0x69, 0x3d, 0xfd, 0x75, 0x8c, 0x3c,
  0xce, 0xd3, 0xea, 0xbd, 0xfc, 0xdb, 0x15, 0x3e, 0x70, 0x82, 0x93, 0xbd,
  0x98, 0x78, 0x58, 0x3d, 0x81, 0x06, 0x40, 0x3e, 0xe2, 0x88, 0x50, 0x3e,
  0xf2, 0x6a, 0xef, 0x3e, 0xd8, 0x85, 0xee, 0xbd, 0x56, 0x82, 0xbd, 0x3d,
  0x77, 0x7c, 0xf8, 0xbe, 0x47, 0x63, 0x23, 0xbc, 0xa3, 0xcd, 0x25, 0x3f,
  0xe4, 0x9a, 0x33, 0x3e, 0xfc, 0xfe, 0x73, 0x3e, 0x12, 0x7a, 0xc3, 0xbd,
  0xbf, 0xe0, 0x32, 0xbe, 0x00, 0x26, 0x95, 0x3d, 0xb0, 0xdb, 0x96, 0x3e,
  0x40, 0x33, 0x63, 0xbd, 0x0e, 0x7f, 0xbd, 0x3e, 0x14, 0x21, 0xdf, 0x3e,
  0xeb, 0xd2, 0x2c, 0x3e, 0x34, 0x52, 0xb0, 0x3d, 0x38, 0xd0, 0x09, 0x3f,
  0x25, 0x18, 0x38, 0xbe, 0x6b, 0x15, 0x66, 0x3e, 0x40, 0x22, 0xaa, 0xbd,
  0x87, 0x7b, 0x2d, 0xbe, 0xbb, 0xfe, 0xe3, 0x3d, 0xbb, 0xc1, 0x6c, 0xbe,
  0x59, 0xc8, 0xe0, 0xbe, 0xd0, 0x22, 0x6d, 0x3d, 0xbb, 0xb2, 0xed, 0x3e,
  0x96, 0xa9, 0x88, 0x3e, 0x07, 0x86, 0xfd, 0xbd, 0xde, 0x88, 0x85, 0x3e,
  0xb7, 0xea, 0x84, 0xbe, 0x9c, 0xff, 0x8d, 0xbd, 0xfc, 0xae, 0x1a, 0xbe,
  0x8c, 0x99, 0x9a, 0xbd, 0xc0, 0x72, 0x62, 0x3e, 0x7c, 0x72, 0xf7, 0x3d,
  0x30, 0x9b, 0x29, 0x3e, 0xa2, 0x67, 0x08, 0x3f, 0x21, 0x52, 0x98, 0x3e,
  0x85, 0xe6, 0xe3, 0x3e, 0xde, 0x92, 0x8e, 0x3e, 0x34, 0x65, 0xd1, 0xbe,
  0x5e, 0xb7, 0x03, 0xbe, 0x9e, 0x76, 0x49, 0x3e, 0xbf, 0xe7, 0xfe, 0x3d,
  0xca, 0xde, 0x72, 0xbe, 0xee, 0x04, 0x8d, 0x3e, 0x88, 0xdf, 0x38, 0x3d,
  0x40, 0xd0, 0x27, 0x3e, 0x56, 0xa5, 0x95, 0xbe, 0x36, 0x67, 0x66, 0xbe,
  0x80, 0xb0, 0x81, 0xbd, 0xb0, 0xbf, 0x88, 0xbe, 0x50, 0xe8, 0x8c, 0x3d,
  0x30, 0x68, 0x8a, 0x3c, 0x20, 0xda, 0x42, 0x3d, 0x40, 0x13, 0xad, 0xbd,
  0x44, 0x00, 0x1c, 0x3e, 0x5f, 0xd4, 0x42, 0xbe, 0xb8, 0xcb, 0x55, 0x3e,
  0x58, 0xc9, 0x81, 0xbd, 0xa0, 0x4a, 0x1d, 0xbd, 0xd6, 0x0e, 0x51, 0xbe,
  0xa6, 0x6a, 0x82, 0x3e, 0x61, 0x40, 0x27, 0xbe, 0x3f, 0x12, 0x6a, 0xbe,
  0xe0, 0x30, 0x5e, 0xbd, 0xd7, 0x9e, 0x44, 0xbe, 0xe0, 0x50, 0xfd, 0xbc,
  0xf0, 0x03, 0xb1, 0xbd, 0xf3, 0x83, 0x7c, 0x3d, 0x73, 0x4f, 0xa2, 0xbd,
  0x2e, 0x79, 0x6d, 0xbe, 0x5a, 0xa1, 0xa8, 0x3e, 0x6e, 0x37, 0xdf, 0x3e,
  0x9c, 0x7a, 0xf5, 0x3d, 0x63, 0x32, 0x04, 0x3e, 0x08, 0xd8, 0x11, 0x3e,
  0x34, 0x93, 0xbe, 0x3d, 0x57, 0x61, 0x4a, 0xbe, 0xe0, 0xd1, 0x89, 0x3e,
  0x98, 0xdd, 0x94, 0x3d, 0x58, 0x1f, 0x49, 0x3e, 0x60, 0xf5, 0x3d, 0x3e,
  0x68, 0x9e, 0x78, 0xbe, 0xb8, 0x6c, 0x19, 0x3f, 0x2a, 0x5c, 0xdc, 0xbc,
  0x36, 0xfd, 0x61, 0x3e, 0xec, 0xa8, 0x3a, 0x3e, 0x3b, 0xe3, 0x94, 0xbe,
  0xfc, 0xf3, 0x96, 0xbe, 0xf4, 0x98, 0xac, 0x3e, 0x80, 0x49, 0x3f, 0x3e,
  0x24, 0x9b, 0xd9, 0xbd, 0x1e, 0x9f, 0x9b, 0x3c, 0x6b, 0xbb, 0x5c, 0x3c,
  0xb1, 0x93, 0x93, 0xbe, 0x14, 0x56, 0x64, 0x3d, 0x0a, 0xda, 0xd1, 0x3e,
  0x67, 0x1c, 0x4e, 0x3e, 0xb1, 0x9b, 0x3f, 0xbe, 0xdd, 0x4b, 0xd5, 0x3e,
  0xcc, 0xaa, 0xe2, 0x3d, 0xf0, 0x23, 0xf0, 0x3d, 0xde, 0x54, 0x93, 0x3e,
  0xfa, 0x71, 0x63, 0xbe, 0x9c, 0x9b, 0xdf, 0xbd, 0xa2, 0x86, 0x01, 0x3e,
  0xec, 0xf7, 0xa1, 0x3d, 0xf2, 0x75, 0xd5, 0x3e, 0x27, 0xdf, 0xc7, 0x3d,
  0x71, 0x40, 0x3d, 0x3f, 0xb1, 0x42, 0x0c, 0xbe, 0x94, 0x3e, 0xde, 0xbd,
  0x80, 0xdb, 0x55, 0x3b, 0xef, 0x76, 0x48, 0x3e, 0x7c, 0xb4, 0xa9, 0xbe,
  0x80, 0xd9, 0x5a, 0x3e, 0x30, 0xeb, 0x2f, 0xbd, 0x88, 0xd3, 0xa3, 0x3e,
  0xbe, 0x88, 0x18, 0x3e, 0x48, 0x58, 0x37, 0x3e, 0xb0, 0xbc, 0x1f, 0xbe,
  0x6c, 0x45, 0x25, 0x3e, 0x3c, 0x7e, 0xc3, 0xbd, 0xc4, 0x00, 0x2b, 0x3e,
  0x00, 0x21, 0x4e, 0x3b, 0x10, 0x23, 0x3e, 0xbe, 0xb4, 0x2f, 0x35, 0x3e,
  0xa2, 0xba, 0x14, 0x3e, 0x70, 0x67, 0x0d, 0x3e, 0x38, 0xc4, 0x0f, 0x3e,
  0x3c, 0x17, 0x99, 0x3e, 0x96, 0xb1, 0x8e, 0xbe, 0xe0, 0x69, 0x6b, 0xbc,
  0xec, 0x3c, 0x66, 0xbe, 0x3c, 0xc0, 0x54, 0x3e, 0x52, 0xb6, 0x89, 0xbe,
  0xa8, 0x1b, 0x98, 0x3d, 0xa1, 0x1a, 0x24, 0xbe, 0x1c, 0x93, 0x66, 0x3e,
  0x24, 0x76, 0xe1, 0x3d, 0x08, 0x6d, 0x64, 0x3e, 0xc9, 0xcb, 0x10, 0x3e,
  0xf6, 0xa3, 0x79, 0x3d, 0x62, 0xc8, 0xb4, 0x3d, 0x4c, 0xb8, 0x95, 0x3e,
  0xdb, 0x2d, 0x16, 0xbf, 0x13, 0x29, 0xe7, 0x3d, 0x3c, 0xb0, 0xb4, 0x3e,
  0x28, 0xd0, 0x31, 0x3d, 0x08, 0x17, 0x5f, 0xbe, 0xa4, 0xa4, 0x89, 0xbd,
  0x18, 0x88, 0xf2, 0x3d, 0x80, 0x57, 0x47, 0xbb, 0x0d, 0x3c, 0xa8, 0xbe,
  0xe8, 0x68, 0x10, 0xbd, 0x1d, 0x62, 0x84, 0x3e, 0x5c, 0x04, 0x81, 0xbb,
  0xcb, 0x7b, 0x1e, 0xbe, 0x7e, 0x21, 0x1f, 0x3e, 0xba, 0x64, 0xee, 0x3e,
  0x2d, 0xc0, 0x40, 0xbe, 0x6a, 0x4c, 0x80, 0xbe, 0x47, 0x42, 0x04, 0x3d,
  0xa2, 0xa7, 0x11, 0xbe, 0xa0, 0x92, 0xe7, 0x3d, 0x50, 0xc4, 0xb3, 0x3d,
  0x6a, 0x8c, 0x0c, 0xbf, 0x26, 0x53, 0x9c, 0xbe, 0x61, 0x5a, 0xb9, 0x3e,
  0x2f, 0xa3, 0x3c, 0x3f, 0x55, 0xa9, 0xa9, 0xbe, 0xc4, 0xff, 0xd6, 0x3e,
  0x14, 0x8d, 0xe1, 0xbd, 0x1d, 0x03, 0x12, 0xbe, 0xca, 0xe6, 0x98, 0xbe,
  0xa2, 0x7e, 0x9a, 0x3e, 0x60, 0x2a, 0x03, 0xbe, 0x7e, 0x78, 0x2a, 0xbe,
  0xf8, 0x66, 0x0e, 0xbd, 0x51, 0x37, 0x3d, 0x3f, 0xf2, 0xbc, 0x1c, 0xbe,
  0xdc, 0x1a, 0x22, 0x3f, 0xe0, 0x86, 0x6c, 0x3e, 0x17, 0x53, 0x09, 0xbe,
  0x3e, 0x19, 0x87, 0xbe, 0x08, 0xfb, 0xcf, 0xbd, 0xcd, 0x44, 0x74, 0x3e,
  0xa0, 0x98, 0xd6, 0x3c, 0xb9, 0xc8, 0x31, 0xbe, 0xd6, 0xab, 0x82, 0xbe,
  0x1a, 0x5c, 0xc5, 0xbd, 0xeb, 0x02, 0xac, 0x3e, 0x31, 0xed, 0x5a, 0x3d,
  0x46, 0x7c, 0x42, 0x3f, 0x7f, 0x31, 0x0b, 0xbe, 0x1b, 0x0a, 0x63, 0xbe,
  0x88, 0x83, 0x63, 0xbe, 0xc8, 0xea, 0x8e, 0xbe, 0x34, 0xb6, 0x49, 0x3e,
  0x38, 0xa8, 0x0f, 0x3d, 0x06, 0xd3, 0x84, 0xbe, 0x0c, 0x05, 0x66, 0x3e,
  0x22, 0x77, 0x20, 0xbe, 0xa0, 0x39, 0x0e, 0x3f, 0x1c, 0x5d, 0x63, 0xbe,
  0x77, 0x1f, 0x27, 0x3f, 0xb6, 0x15, 0x12, 0x3e, 0xa5, 0x8d, 0x3a, 0x3e,
  0xa6, 0x08, 0xed, 0xbd, 0xc8, 0x96, 0x44, 0xbd, 0xf2, 0x6d, 0x23, 0xbe,
  0xa0, 0x2c, 0x68, 0xbe, 0x7d, 0x92, 0x96, 0x3e, 0xe8, 0xfe, 0x74, 0xbd,
  0x40, 0xb6, 0xd2, 0xbd, 0x88, 0x6d, 0xdb, 0x3d, 0x7c, 0x6b, 0xad, 0x3d,
  0xdf, 0xea, 0x7e, 0x3e, 0x76, 0x4f, 0xa6, 0xbe, 0xbb, 0x74, 0x14, 0xbe,
  0x16, 0xa9, 0xa5, 0xbe, 0x18, 0x25, 0x4c, 0x3d, 0x60, 0xe3, 0x58, 0x3e,
  0xe4, 0x22, 0x45, 0x3e, 0xaf, 0x25, 0x39, 0xbe, 0x2a, 0x73, 0xf0, 0xbd,
  0xd4, 0xd1, 0x1d, 0x3e, 0xf1, 0x79, 0x0f, 0xbe, 0xcf, 0x11, 0x22, 0x3d,
  0x58, 0x6a, 0x77, 0xbe, 0x00, 0xf1, 0xd8, 0x3a, 0xa5, 0x3a, 0xa6, 0xbc,
  0xc0, 0xa7, 0x89, 0x3c, 0x00, 0x4c, 0x3a, 0xba, 0x4c, 0x0a, 0x14, 0xbe,
  0x9b, 0xd8, 0x86, 0xbe, 0x18, 0x90, 0x49, 0xbe, 0x70, 0x8e, 0xa8, 0x3c,
  0x68, 0xbe, 0x91, 0x3d, 0x18, 0xd1, 0x52, 0x3d, 0x5f, 0xc6, 0x76, 0xbe,
  0xa2, 0xe4, 0x71, 0xbe, 0x4c, 0x06, 0x8c, 0x3d, 0xf3, 0x19, 0x95, 0xbe,
  0x44, 0xfd, 0x87, 0x3d, 0x34, 0x71, 0x83, 0x3e, 0xcb, 0xf5, 0x48, 0xbe,
  0x8c, 0x50, 0x9b, 0xbd, 0x5c, 0x13, 0xa3, 0xbd, 0xa2, 0x60, 0x23, 0x3e,
  0x52, 0xdb, 0x6d, 0xbe, 0x72, 0x4c, 0x00, 0x3e, 0xa6, 0x20, 0xa7, 0xbe,
  0xdc, 0x05, 0x99, 0xbe, 0xd4, 0x87, 0x0a, 0x3e, 0x50, 0xe0, 0x0e, 0xbe,
  0x1c, 0x4f, 0x84, 0xbe, 0xb4, 0x8b, 0xf8, 0x3d, 0x58, 0x12, 0xa7, 0xbd,
  0x74, 0x21, 0xa6, 0x3e, 0x14, 0x9c, 0xa1, 0x3e, 0x23, 0x4d, 0x02, 0xbe,
  0x50, 0x83, 0xf0, 0x3c, 0xe2, 0x24, 0x95, 0xbe, 0x3c, 0x43, 0x07, 0xbe,
  0x74, 0xf2, 0x1a, 0x3e, 0x54, 0xc6, 0xcb, 0x3d, 0x64, 0xaa, 0xd0, 0x3d,
  0x4c, 0xe8, 0xf3, 0xbd, 0x58, 0xd3, 0x50, 0x3d, 0xe0, 0xc7, 0x68, 0x3e,
  0x93, 0xca, 0x18, 0xbe, 0x54, 0x24, 0xa4, 0xbd, 0xb1, 0x5e, 0x38, 0xbe,
  0x5c, 0xb1, 0x90, 0x3e, 0xb7, 0xf9, 0xa4, 0xbe, 0x04, 0x9a, 0xad, 0xbd,
  0x20, 0x42, 0x00, 0x3d, 0x80, 0x60, 0x52, 0x3e, 0x08, 0xb9, 0x3e, 0xbe,
  0x40, 0xe0, 0xba, 0x3b, 0x1f, 0xed, 0x8d, 0xbe, 0x5e, 0x81, 0x66, 0xbe,
  0xc0, 0x87, 0x05, 0x3d, 0x0d, 0x9f, 0x93, 0x3e, 0xb3, 0xd0, 0x7b, 0xbe,
  0xd0, 0xdb, 0x68, 0x3e, 0x08, 0x0a, 0x8d, 0xbe, 0x7d, 0x61, 0x8d, 0x3e,
  0xe6, 0xc3, 0x21, 0x3f, 0x4c, 0xa5, 0x89, 0xbd, 0xea, 0x43, 0xc4, 0x3e,
  0x68, 0x12, 0xa8, 0xbe, 0xa0, 0xa7, 0x73, 0x3c, 0x4f, 0xfe, 0x70, 0xbe,
  0x62, 0xa4, 0x79, 0xbe, 0x76, 0x62, 0x95, 0x3e, 0x80, 0xcd, 0x51, 0x3b,
  0x82, 0x50, 0x17, 0x3e, 0x53, 0x49, 0xf1, 0x3e, 0xd7, 0xe3, 0xc4, 0x3e,
  0x96, 0x74, 0x5b, 0x3f, 0xe2, 0x5d, 0x4d, 0xbe, 0x63, 0xf9, 0x61, 0xbd,
  0xa4, 0xee, 0x9f, 0x3e, 0x26, 0x7b, 0xac, 0xbe, 0x6f, 0x4f, 0x76, 0x3d,
  0xf0, 0x53, 0xb4, 0xbc, 0xee, 0x51, 0x51, 0x3f, 0x43, 0xa5, 0x70, 0x3f,
  0x79, 0x66, 0x7e, 0x3f, 0x54, 0x84, 0x51, 0xbd, 0xce, 0x94, 0xdd, 0x3e,
  0x8f, 0xc9, 0x0c, 0xbf, 0xf3, 0x44, 0xfc, 0x3c, 0x99, 0x1b, 0x35, 0x3f,
  0x00, 0xd9, 0x4d, 0x3b, 0x3c, 0x9d, 0x97, 0xbe, 0x7e, 0xb3, 0x1f, 0x3e,
  0xdd, 0x21, 0x9c, 0xbe, 0x84, 0x35, 0x83, 0x3d, 0xea, 0x0d, 0x4f, 0xbe,
  0x48, 0x49, 0x1d, 0x3d, 0x4b, 0x66, 0xe4, 0xbc, 0x2b, 0x9e, 0x35, 0x3f,
  0xd0, 0xf3, 0x88, 0x3e, 0xaa, 0x8d, 0x89, 0xbe, 0xe7, 0x24, 0x71, 0x3e,
  0x9c, 0xa3, 0xa8, 0x3e, 0xb7, 0xbf, 0x39, 0xbd, 0x19, 0xbc, 0x9e, 0x3d,
  0x9a, 0x9e, 0x23, 0xbe, 0x09, 0xf6, 0x8f, 0x3e, 0xb2, 0x32, 0xd0, 0x3e,
  0x5a, 0x43, 0x6a, 0x3e, 0x9d, 0xa8, 0x95, 0xbe, 0x8f, 0xc1, 0x1d, 0x3e,
  0x0d, 0x32, 0xed, 0xbe, 0x29, 0x1c, 0xf4, 0xbd, 0x20, 0x81, 0xf7, 0x3e,
  0x6a, 0x0a, 0x91, 0x3e, 0x78, 0x45, 0xc3, 0xbd, 0x10, 0x04, 0xe3, 0x3c,
  0x7f, 0x70, 0x00, 0xbe, 0x80, 0xe7, 0xd4, 0x3c, 0x71, 0xf0, 0x16, 0xbe,
  0xe4, 0x4f, 0xef, 0xbd, 0x95, 0xa9, 0x6d, 0x3e, 0x56, 0xb0, 0x12, 0xbd,
  0x89, 0x59, 0xdf, 0xbd, 0xec, 0x34, 0x00, 0x3e, 0x26, 0x27, 0x23, 0x3f,
  0xb8, 0x91, 0x0b, 0xbe, 0x34, 0xbc, 0x9c, 0xbe, 0x28, 0x91, 0x5e, 0x3e,
  0x48, 0xed, 0x90, 0xbe, 0x8d, 0x2f, 0x2e, 0x3f, 0x9d, 0x77, 0xcb, 0x3e,
  0xff, 0x02, 0x3f, 0x3f, 0x92, 0x44, 0x1a, 0xbe, 0xdf, 0xd1, 0xd5, 0x3e,
  0x2f, 0x4f, 0x38, 0xbe, 0x89, 0xdf, 0x3e, 0xbe, 0x6c, 0x17, 0x12, 0x3e,
  0xb2, 0x64, 0xd4, 0xbd, 0xe8, 0xd1, 0xb1, 0xbd, 0xaf, 0xcb, 0x92, 0xbe,
  0xc0, 0x81, 0x84, 0x3e, 0x49, 0xf5, 0x77, 0xbe, 0xb0, 0x22, 0x2d, 0x3e,
  0x4c, 0x42, 0x97, 0xbd, 0x53, 0xfc, 0xf8, 0x3e, 0x4a, 0x24, 0xdd, 0x3d,
  0x32, 0x28, 0x86, 0xbe, 0x66, 0xb5, 0x02, 0x3e, 0xad, 0x29, 0x09, 0x3f,
  0x80, 0x00, 0x8b, 0x3c, 0xd8, 0x0e, 0xf3, 0xbd, 0xab, 0x0b, 0x5d, 0x3e,
  0x00, 0xa7, 0x86, 0xbe, 0xe8, 0x31, 0xa3, 0x3e, 0xf4, 0x68, 0xaf, 0x3e,
  0xbc, 0xf2, 0x26, 0x3f, 0xc3, 0x82, 0x3c, 0x3e, 0xa7, 0x63, 0x9c, 0x3e,
  0x2e, 0x23, 0x15, 0xbf, 0x0d, 0xe8, 0x73, 0x3d, 0x79, 0x74, 0xfe, 0x3e,
  0x70, 0xd0, 0x2d, 0xbd, 0x18, 0xce, 0xa4, 0x3d, 0x21, 0x08, 0x96, 0xbe,
  0xb5, 0x8b, 0xa6, 0xbe, 0x40, 0x92, 0xe1, 0x3b, 0xd0, 0x53, 0x80, 0x3e,
  0x32, 0xcb, 0x81, 0xbe, 0xdf, 0xbe, 0x13, 0xbe, 0x8f, 0xfe, 0x03, 0x3f,
  0x72, 0x71, 0x9e, 0xbe, 0x65, 0x05, 0x0d, 0xbe, 0xb4, 0x6c, 0x2b, 0x3f,
  0x78, 0xd6, 0xeb, 0x3d, 0xb3, 0x77, 0x93, 0x3e, 0x74, 0xa2, 0x75, 0xbe,
  0x72, 0x8a, 0x9f, 0xbe, 0x9d, 0x24, 0xad, 0xbe, 0xc2, 0x44, 0x94, 0x3e,
  0x89, 0x02, 0x9c, 0xbe, 0xb8, 0x07, 0x40, 0xbd, 0xe5, 0x8c, 0xe9, 0xbd,
  0xc8, 0x15, 0x8c, 0x3e, 0x9f, 0x4c, 0x5f, 0x3e, 0xd3, 0x6f, 0x17, 0xbe,
  0x55, 0x17, 0x8a, 0xbe, 0x04, 0xab, 0x0c, 0x3e, 0x38, 0x21, 0x37, 0x3e,
  0xf4, 0xd1, 0x9c, 0xbd, 0x83, 0x4c, 0x6f, 0xbe, 0x64, 0x27, 0xfc, 0x3d,
  0xbe, 0xbb, 0x50, 0xbe, 0x58, 0x69, 0x6e, 0x3e, 0x02, 0x8f, 0x1a, 0x3e,
  0x3f, 0xe7, 0x53, 0xbe, 0xc0, 0x50, 0x95, 0x3e, 0xf6, 0x81, 0x19, 0xbe,
  0x3c, 0xe3, 0x78, 0xbe, 0x80, 0xc9, 0xd3, 0x3b, 0x9c, 0x09, 0xc2, 0xbd,
  0x40, 0x14, 0x6e, 0xbd, 0xe8, 0xd2, 0x6b, 0x3e, 0x55, 0x02, 0x8c, 0xbe,
  0xdc, 0x1f, 0x51, 0x3e, 0x62, 0x4e, 0x86, 0x3e, 0x25, 0x3c, 0x8f, 0xbe,
  0xc6, 0x5d, 0x39, 0xbe, 0x58, 0x6d, 0xa0, 0x3d, 0xb8, 0x3d, 0xc0, 0x3d,
  0x6c, 0x78, 0xae, 0xbd, 0xd4, 0x0c, 0x61, 0xbe, 0xbc, 0xb1, 0xa9, 0xbd,
  0x14, 0xa5, 0x71, 0x3e, 0xa3, 0xfe, 0x46, 0xbe, 0x78, 0xb9, 0x42, 0x3e,
  0x6c, 0x46, 0x3d, 0x3e, 0x98, 0xeb, 0xd3, 0x3d, 0xbe, 0x09, 0x8f, 0xbe,
  0x78, 0x68, 0x98, 0xbd, 0xa0, 0xe7, 0x4a, 0xbc, 0x38, 0xa5, 0x1a, 0xbe,
  0xb8, 0xbd, 0x8d, 0x3d, 0x54, 0xea, 0x26, 0x3e, 0x00, 0xb3, 0x44, 0x3e,
  0x60, 0xc3, 0xb1, 0xbc, 0x95, 0x2a, 0x24, 0xbe, 0x64, 0x71, 0x93, 0x3e,
  0x28, 0xaa, 0x88, 0xbe, 0x68, 0x59, 0x4c, 0xbd, 0x27, 0xf6, 0x45, 0xbd,
  0x17, 0x90, 0xdf, 0x3d, 0x2b, 0xa6, 0x43, 0xbe, 0x5f, 0xbb, 0x0c, 0x3c,
  0xa8, 0x3c, 0x60, 0x3e, 0xc0, 0xa3, 0x84, 0x3d, 0x7c, 0x13, 0x63, 0x3e,
  0xf5, 0x4b, 0x89, 0xbe, 0xc0, 0x6a, 0xa4, 0xbe, 0x50, 0x7e, 0x9d, 0x3e,
  0xe1, 0xb6, 0x2b, 0xbe, 0x67, 0xff, 0x89, 0x3e, 0xad, 0x3e, 0x3d, 0x3d,
  0xb2, 0xb9, 0x96, 0xbe, 0x44, 0x69, 0x56, 0xbe, 0xe7, 0xba, 0x00, 0xbc,
  0xb0, 0x19, 0x51, 0xbe, 0x9e, 0x6a, 0xa5, 0xbe, 0x28, 0x5b, 0xe6, 0x3d,
  0xc0, 0xd2, 0x59, 0x3c, 0xe3, 0x31, 0x62, 0x3e, 0x6b, 0x66, 0x11, 0x3e,
  0xc3, 0x04, 0x68, 0xbe, 0xac, 0x13, 0x6a, 0x3e, 0x73, 0xdf, 0x4f, 0x3e,
  0x45, 0xca, 0x0f, 0x3f, 0xad, 0x3d, 0x7b, 0x3e, 0x44, 0x6d, 0xe4, 0x3e,
  0xec, 0xe6, 0x75, 0x3e, 0x45, 0x60, 0x41, 0xbe, 0x09, 0x14, 0x1f, 0xbe,
  0xcc, 0x76, 0x8f, 0x3d, 0x20, 0x21, 0x57, 0xbc, 0xd0, 0xc7, 0xf9, 0xbc,
  0xd4, 0x49, 0xaa, 0x3e, 0xe7, 0x77, 0x23, 0x3f, 0xb9, 0x47, 0xfb, 0xbd,
  0xb3, 0x5b, 0x01, 0x3f, 0x5b, 0x73, 0x8f, 0xbe, 0x47, 0xdf, 0xcb, 0xbe,
  0xe4, 0x97, 0xa6, 0xbd, 0x77, 0xda, 0x23, 0x3e, 0x86, 0x9d, 0xa2, 0x3e,
  0x2d, 0x0c, 0x52, 0xbe, 0xfe, 0x7f, 0x28, 0x3d, 0x60, 0x10, 0x51, 0x3e,
  0xa8, 0x1b, 0x14, 0xbd, 0xb4, 0x74, 0x40, 0x3e, 0xac, 0x2e, 0x58, 0x3e,
  0xb5, 0x52, 0xeb, 0x3e, 0xc6, 0x08, 0x46, 0xbe, 0xa4, 0xd9, 0x16, 0x3f,
  0x00, 0x7f, 0xfb, 0xbc, 0xf8, 0xe4, 0x1c, 0xbd, 0x10, 0x4d, 0x04, 0x3e,
  0x94, 0x33, 0xb7, 0xbd, 0x7c, 0x55, 0x9a, 0x3e, 0xa6, 0xfd, 0x02, 0x3e,
  0x05, 0x3f, 0x59, 0xbe, 0xd4, 0x94, 0x4e, 0x3f, 0x86, 0x51, 0x38, 0x3e,
  0xa8, 0x75, 0x6c, 0x3d, 0x24, 0x42, 0xe1, 0x3d, 0xa6, 0xf8, 0x72, 0xbe,
  0xc0, 0xfc, 0x58, 0xbc, 0x34, 0xae, 0xc6, 0x3d, 0xcd, 0x86, 0x6c, 0x3e,
  0x88, 0x86, 0x4e, 0xbe, 0x54, 0x82, 0x61, 0x3e, 0x22, 0x0f, 0xe7, 0xbd,
  0xe4, 0x16, 0xa5, 0x3e, 0x4b, 0x61, 0xac, 0x3d, 0x34, 0xc0, 0x67, 0xbe,
  0x88, 0x98, 0x96, 0x3e, 0x9e, 0x6c, 0x98, 0xbe, 0x23, 0x3d, 0x57, 0xbe,
  0x8b, 0xba, 0x4e, 0xbe, 0x08, 0x53, 0x40, 0xbd, 0x18, 0x20, 0x1c, 0x3e,
  0xd0, 0x7d, 0xa4, 0x3e, 0x7c, 0x56, 0x45, 0x3e, 0x92, 0x4f, 0x99, 0xbe,
  0x10, 0x60, 0x27, 0x3d, 0x95, 0xb5, 0x1f, 0xbe, 0x43, 0xa7, 0x8a, 0x3e,
  0x5a, 0x3e, 0xdb, 0xbd, 0x0e, 0xeb, 0x8e, 0x3e, 0x8e, 0x12, 0x09, 0xbe,
  0xb8, 0xc1, 0x37, 0x3e, 0xa6, 0xba, 0x04, 0x3e, 0x35, 0xf2, 0xab, 0xbe,
  0xc6, 0xef, 0xff, 0xff, 0x04, 0x00, 0x00, 0x00, 0x80, 0x07, 0x00, 0x00,
  0x53, 0x77, 0xac, 0x3e, 0x57, 0x7d, 0xbb, 0x3e, 0x30, 0x62, 0xa9, 0xbd,
  0x3c, 0xcd, 0xa0, 0x3d, 0x88, 0xdc, 0x5d, 0x3d, 0xb1, 0xc7, 0xb1, 0x3e,
  0x1c, 0x94, 0x2f, 0xbe, 0xb0, 0x5d, 0xe8, 0xbc, 0x4c, 0x65, 0xa0, 0x3d,
  0x44, 0x2a, 0xdd, 0x3d, 0xf2, 0x80, 0x50, 0x3e, 0x22, 0xb1, 0x6c, 0x3e,
  0xa4, 0x91, 0x2e, 0xbe, 0x58, 0xf6, 0x12, 0x3d, 0x35, 0xe7, 0x9e, 0xbe,
  0x9c, 0x0f, 0xb3, 0xbd, 0x44, 0x9d, 0x6d, 0xbe, 0x40, 0xb8, 0x9a, 0xbe,
  0x76, 0x71, 0x41, 0xbe, 0x8b, 0xd2, 0x95, 0x3e, 0x76, 0x08, 0x8d, 0xbe,
  0x5d, 0xb9, 0x2a, 0xbe, 0x6a, 0x1d, 0x0d, 0xbf, 0x72, 0xba, 0x36, 0x3e,
  0x90, 0x8b, 0x9c, 0x3d, 0x04, 0x03, 0x9e, 0xbd, 0x27, 0xb8, 0x99, 0x3e,
  0x0c, 0xea, 0x5e, 0xbe, 0xae, 0x47, 0xc0, 0x3d, 0x40, 0xfa, 0x79, 0xbd,
  0xdc, 0x4f, 0x72, 0xbe, 0x43, 0x87, 0xd4, 0x3e, 0x37, 0x06, 0xba, 0x3e,
  0x77, 0x36, 0xaa, 0x3e, 0x62, 0xa3, 0x3d, 0x3e, 0xa8, 0xee, 0xd5, 0x3e,
  0x13, 0x7d, 0x2e, 0x3d, 0x63, 0x9e, 0xb3, 0x3e, 0x5f, 0xeb, 0xdb, 0x3e,
  0xf8, 0xd8, 0x24, 0x3d, 0xa4, 0xde, 0x54, 0xbe, 0xe4, 0xc1, 0x9e, 0x3d,
  0x19, 0x9c, 0x2d, 0xbe, 0x76, 0xc0, 0x76, 0xbe, 0x35, 0x4a, 0x88, 0xbe,
  0x28, 0xb8, 0x8b, 0xbe, 0x6c, 0x4a, 0x8a, 0xbe, 0x2e, 0x09, 0x30, 0xbf,
  0x1b, 0x70, 0x37, 0x3e, 0xe0, 0x07, 0x26, 0x3d, 0xeb, 0x27, 0x26, 0x3e,
  0xe1, 0x9d, 0xb5, 0x3d, 0x26, 0x32, 0x1d, 0x3e, 0x06, 0x82, 0x57, 0x3e,
  0x24, 0xac, 0xa5, 0xbd, 0x94, 0xa0, 0x11, 0x3e, 0x75, 0xb4, 0x81, 0x3e,
  0x78, 0xdb, 0x30, 0x3e, 0x9b, 0x96, 0x54, 0x3e, 0xd8, 0xdd, 0x8a, 0xbe,
  0x80, 0xe1, 0x19, 0x3c, 0x20, 0x11, 0xb8, 0x3d, 0xd1, 0x15, 0x28, 0xbf,
  0xc8, 0x51, 0x8b, 0x3d, 0x1c, 0xfa, 0x1b, 0xbe, 0xdb, 0x2b, 0x9c, 0x3e,
  0xe3, 0x29, 0xae, 0xbe, 0xe3, 0x76, 0x3d, 0xbf, 0x33, 0xb1, 0xde, 0x3d,
  0x62, 0xa9, 0x3c, 0xbe, 0x57, 0x35, 0x9b, 0x3e, 0xdb, 0xd0, 0x3a, 0x3d,
  0xb1, 0x5b, 0x4e, 0xbe, 0xca, 0x2a, 0xa7, 0xbe, 0xe9, 0x24, 0x06, 0xbe,
  0xf3, 0xb8, 0x1e, 0xbe, 0x8a, 0x65, 0x9a, 0x3e, 0x83, 0x4e, 0xdc, 0x3d,
  0xe8, 0x31, 0xe2, 0x3e, 0x94, 0x15, 0xf8, 0x3d, 0x55, 0x23, 0xb7, 0x3e,
  0x96, 0xea, 0x08, 0x3e, 0x24, 0x4e, 0x22, 0x3e, 0x83, 0xa8, 0x64, 0xbe,
  0xd4, 0xec, 0xe2, 0x3d, 0x4f, 0x60, 0xad, 0x3e, 0xba, 0xe2, 0x15, 0x3e,
  0x49, 0xd5, 0x03, 0xbe, 0x44, 0x11, 0x99, 0x3e, 0x5f, 0xab, 0x9d, 0xbe,
  0xc0, 0xed, 0x00, 0xbd, 0xd0, 0x3b, 0xf6, 0x3c, 0x94, 0x6f, 0xa8, 0xbe,
  0x66, 0x05, 0x9b, 0xbe, 0xcd, 0x01, 0x14, 0xbe, 0x87, 0x45, 0xaa, 0xbe,
  0xd9, 0xb1, 0x46, 0x3e, 0xf9, 0x92, 0x90, 0xbc, 0x44, 0x05, 0xbb, 0xbe,
  0xc0, 0xca, 0xb2, 0xbe, 0x23, 0x53, 0x83, 0x3e, 0x60, 0x32, 0x6d, 0x3c,
  0x24, 0x72, 0x3e, 0xbd, 0xf7, 0x1e, 0x9b, 0x3e, 0x3e, 0xc4, 0x27, 0x3e,
  0x81, 0x25, 0x8c, 0x3e, 0x50, 0xa0, 0xea, 0xbc, 0x73, 0xda, 0xa3, 0x3f,
  0x2e, 0x62, 0x16, 0xbf, 0x94, 0xa2, 0x05, 0x3e, 0x6d, 0x6e, 0x77, 0xbe,
  0xf8, 0x4e, 0x38, 0x3f, 0x9b, 0x48, 0xaf, 0x3e, 0x97, 0x6f, 0xa6, 0x3e,
  0x98, 0x0b, 0x73, 0xbd, 0xab, 0xe9, 0xed, 0x3f, 0xa0, 0x02, 0xef, 0x3e,
  0xf5, 0x3b, 0xda, 0x3e, 0x7b, 0xca, 0x19, 0x3f, 0x6f, 0x3d, 0x9e, 0xbe,
  0x59, 0x5c, 0x9b, 0x3e, 0xeb, 0xeb, 0x19, 0xbe, 0xa9, 0xb6, 0x21, 0x3f,
  0x34, 0x20, 0xec, 0x3d, 0x08, 0xcd, 0x6e, 0x3d, 0x66, 0xb5, 0x13, 0x3e,
  0x32, 0x19, 0x5a, 0x3e, 0x8c, 0x54, 0x39, 0x3f, 0x10, 0xf9, 0xde, 0xbe,
  0xc0, 0x67, 0xe3, 0x3d, 0x36, 0x3c, 0x9f, 0x3e, 0xff, 0x62, 0x3e, 0x3e,
  0x2c, 0xfb, 0x47, 0xbe, 0x2a, 0xbb, 0x96, 0xbe, 0xbf, 0x6a, 0x0e, 0xbe,
  0xd0, 0x6b, 0x96, 0x3e, 0xd1, 0x1f, 0xcc, 0x3d, 0xf7, 0xef, 0xd3, 0xbd,
  0x02, 0x30, 0xb5, 0x3c, 0x5a, 0x6a, 0x95, 0xbe, 0xc9, 0x95, 0x73, 0xbe,
  0x60, 0x5c, 0x3f, 0x3c, 0x1a, 0xf9, 0xc2, 0x3e, 0x86, 0xb5, 0x0f, 0xbe,
  0xd3, 0xd5, 0xbb, 0x3e, 0x0c, 0x94, 0x22, 0xbe, 0xa6, 0xbe, 0xaf, 0xbe,
  0x77, 0xec, 0xa6, 0xbe, 0x32, 0x75, 0x9f, 0x3e, 0xa8, 0x9b, 0x04, 0xbe,
  0x3b, 0xe8, 0x0f, 0xbe, 0x3f, 0xa0, 0x04, 0xbd, 0x56, 0xbf, 0xb2, 0xbe,
  0x20, 0x84, 0x68, 0x3c, 0xb4, 0x7f, 0xf7, 0x3d, 0x4e, 0x76, 0x7d, 0xbd,
  0xbc, 0x37, 0x77, 0xbd, 0xe0, 0x53, 0x14, 0x3e, 0x9a, 0x3c, 0xcf, 0xbe,
  0xfc, 0x76, 0xb4, 0xbe, 0x90, 0x20, 0x8a, 0x3d, 0x7d, 0x6c, 0x57, 0xbe,
  0xc9, 0x60, 0x1a, 0xbf, 0x9e, 0x00, 0x84, 0xbe, 0x6c, 0x0f, 0xac, 0x3d,
  0x46, 0x7c, 0x20, 0x3e, 0x92, 0x32, 0x42, 0x3e, 0xa8, 0x2f, 0xdd, 0x3e,
  0x40, 0xa6, 0xfe, 0xbe, 0x3a, 0x2e, 0x74, 0x3e, 0x72, 0x45, 0xf2, 0x3d,
  0x71, 0x96, 0x0f, 0x3f, 0x43, 0x97, 0xaf, 0x3e, 0x2c, 0xf7, 0xd4, 0x3d,
  0xb9, 0x93, 0xa4, 0x3e, 0xf9, 0x87, 0xcc, 0x3f, 0x72, 0x68, 0x94, 0x3e,
  0xd2, 0xb3, 0x35, 0x3f, 0xec, 0xfc, 0xb8, 0x3e, 0xbc, 0xd2, 0x9e, 0xbe,
  0x00, 0x18, 0x51, 0x3d, 0x39, 0xbe, 0x98, 0x3e, 0x30, 0x56, 0xbf, 0x3d,
  0x46, 0x80, 0x44, 0x3e, 0x7c, 0xae, 0xc9, 0x3d, 0x58, 0x80, 0x16, 0xbe,
  0x67, 0x82, 0xa4, 0xbe, 0xa0, 0x28, 0xc3, 0xbd, 0x98, 0x26, 0x31, 0xbd,
  0x50, 0xe4, 0xdc, 0x3c, 0x00, 0x5e, 0x82, 0xba, 0x24, 0x61, 0xf3, 0xbd,
  0xc9, 0x84, 0x92, 0x3e, 0x97, 0x76, 0x9c, 0x3e, 0x8e, 0x3d, 0x67, 0x3e,
  0x70, 0xac, 0x43, 0xbd, 0x4b, 0x82, 0x97, 0x3e, 0x6b, 0x22, 0x9d, 0xbe,
  0x56, 0x74, 0xa7, 0xbe, 0x93, 0xae, 0xa8, 0xbe, 0x8c, 0xc1, 0x0c, 0xbe,
  0x36, 0xe5, 0x71, 0x3e, 0x1c, 0x09, 0x50, 0xbe, 0x80, 0x0d, 0x20, 0x3d,
  0x7e, 0x75, 0x7e, 0xbe, 0xe2, 0x80, 0x45, 0x3e, 0xaa, 0x01, 0x43, 0x3e,
  0xf8, 0x59, 0xaf, 0xbd, 0x9e, 0xb7, 0x12, 0x3e, 0x5d, 0xe0, 0xa5, 0x3e,
  0xce, 0xf9, 0x24, 0x3e, 0xad, 0x66, 0x81, 0x3e, 0xfa, 0x0c, 0x5a, 0x3e,
  0xb2, 0xd3, 0x60, 0x3e, 0xc0, 0x8c, 0xb4, 0xbd, 0x32, 0x2a, 0x64, 0x3e,
  0xc2, 0xe7, 0x24, 0xbe, 0xae, 0x8a, 0x7d, 0xbe, 0x50, 0xe2, 0x09, 0xbd,
  0x06, 0x4b, 0x18, 0x3e, 0x6b, 0x85, 0xba, 0x3e, 0xfa, 0x35, 0x56, 0x3e,
  0x3c, 0x12, 0x3e, 0xbe, 0x90, 0x9c, 0xe0, 0xbd, 0xed, 0xb2, 0x8d, 0x3e,
  0x28, 0x0c, 0x7e, 0xbd, 0x96, 0x31, 0x5e, 0xbe, 0x4c, 0x29, 0x8d, 0x3d,
  0xe2, 0xbb, 0x58, 0x3e, 0xe2, 0x1c, 0x0a, 0x3e, 0x91, 0xe6, 0x10, 0xbe,
  0x00, 0x6e, 0x71, 0xbe, 0x3e, 0x0a, 0x2b, 0x3e, 0xda, 0xa2, 0x6c, 0x3e,
  0x5b, 0xa6, 0x4b, 0xbe, 0xc4, 0x16, 0xb2, 0xbd, 0xd2, 0xf3, 0x39, 0x3e,
  0x44, 0x32, 0x49, 0xbe, 0xe0, 0x2c, 0xaf, 0xbe, 0xf7, 0x26, 0x05, 0xbe,
  0xdb, 0xfa, 0x09, 0xbe, 0xdc, 0xad, 0xe3, 0x3d, 0x18, 0x0c, 0x36, 0xbd,
  0xe4, 0x25, 0xcd, 0x3d, 0xe8, 0x02, 0x98, 0xbe, 0xc0, 0x76, 0x24, 0xbd,
  0x96, 0xd2, 0x9b, 0xbe, 0x9a, 0x21, 0x41, 0x3e, 0xb5, 0x25, 0x9f, 0xbe,
  0x3e, 0xca, 0x0c, 0x3e, 0xe5, 0x3c, 0xb2, 0x3e, 0x08, 0x1d, 0x04, 0x3d,
  0xac, 0x06, 0x8f, 0xbe, 0xd8, 0x05, 0x93, 0x3d, 0x23, 0x96, 0x6f, 0xbe,
  0xaa, 0x86, 0x51, 0xbe, 0x08, 0x98, 0x63, 0xbe, 0x58, 0x8d, 0x1c, 0x3d,
  0x3c, 0xf2, 0xc7, 0xbd, 0xef, 0xe0, 0x90, 0x3e, 0xd0, 0xff, 0xc4, 0xbd,
  0xe0, 0xa8, 0x81, 0x3d, 0x20, 0x55, 0xc3, 0x3d, 0x40, 0x93, 0x60, 0xbc,
  0x00, 0x80, 0x19, 0xba, 0xb6, 0x1d, 0x59, 0x3e, 0x4e, 0x0b, 0x6c, 0x3e,
  0x16, 0xa4, 0x28, 0xbe, 0x08, 0x96, 0x59, 0xbe, 0xb5, 0x42, 0x9d, 0x3e,
  0xd0, 0x70, 0x50, 0xbd, 0x09, 0x77, 0x8c, 0x3e, 0x60, 0xff, 0xf8, 0x3d,
  0x20, 0x67, 0x92, 0x3c, 0x7c, 0x22, 0xca, 0xbd, 0x15, 0xcf, 0x93, 0x3e,
  0xb3, 0x4c, 0x39, 0xbe, 0x6b, 0xd6, 0x00, 0xbe, 0xa2, 0x78, 0x87, 0xbe,
  0xcc, 0x39, 0xbc, 0x3d, 0xf0, 0x78, 0xbf, 0x3c, 0xd3, 0x3d, 0x8b, 0x3e,
  0x56, 0x61, 0x01, 0xbe, 0x80, 0xb1, 0x7f, 0x3b, 0xc8, 0x19, 0xee, 0xbd,
  0x22, 0x1f, 0x79, 0x3e, 0x00, 0x7a, 0x8b, 0x3b, 0xcd, 0x76, 0x9d, 0x3e,
  0x84, 0x2b, 0xd9, 0x3d, 0xf6, 0x7c, 0x05, 0x3e, 0x00, 0x92, 0x22, 0x3a,
  0x22, 0xd3, 0x8e, 0xbe, 0x4c, 0x55, 0x81, 0xbe, 0x5c, 0xfc, 0xaf, 0xbd,
  0x6b, 0x65, 0xbc, 0x3e, 0xee, 0x78, 0x51, 0x3e, 0x69, 0xa0, 0xb1, 0xbe,
  0xce, 0x06, 0x24, 0x3e, 0xce, 0xe3, 0xac, 0xbe, 0x67, 0x15, 0xa1, 0x3e,
  0xee, 0xe5, 0x30, 0xbe, 0x5f, 0x0b, 0x8c, 0x3e, 0x62, 0x2e, 0x25, 0xbe,
  0xfd, 0xf5, 0x84, 0xbe, 0x8c, 0x85, 0x04, 0x3e, 0xd8, 0xc7, 0x79, 0xbe,
  0x80, 0xf9, 0xb4, 0xbd, 0xe6, 0x4e, 0xa8, 0xbe, 0x43, 0x60, 0x16, 0xbe,
  0x08, 0x3a, 0xa2, 0x3d, 0x6c, 0x5a, 0xd6, 0x3d, 0xbd, 0x1a, 0x8a, 0x3e,
  0xb0, 0xe1, 0xf4, 0xbc, 0x47, 0xb4, 0xa3, 0xbe, 0x20, 0x22, 0xac, 0x3d,
  0x22, 0x7d, 0x4e, 0x3e, 0x91, 0xf8, 0x13, 0xbe, 0x8e, 0x2a, 0x78, 0xbe,
  0x61, 0x2e, 0x58, 0xbe, 0x64, 0x02, 0xcc, 0x3d, 0xc0, 0xfb, 0xab, 0xbb,
  0xc5, 0x4f, 0x9c, 0x3e, 0xf0, 0x75, 0x2e, 0xbe, 0xbc, 0xd5, 0x92, 0x3d,
  0x00, 0x44, 0xe0, 0x3a, 0x30, 0xc9, 0xbc, 0xbe, 0xbe, 0x84, 0x5f, 0x3e,
  0xda, 0xa8, 0x1e, 0x3f, 0xea, 0xfc, 0x16, 0xbe, 0x75, 0x67, 0x8c, 0x3e,
  0xf6, 0xb9, 0x98, 0x3e, 0x07, 0xc2, 0x6b, 0x3e, 0xa2, 0x22, 0x29, 0xbe,
  0xb2, 0x6a, 0x6c, 0x3e, 0x2e, 0xda, 0x97, 0xbe, 0xfd, 0xe2, 0x7b, 0x3f,
  0x50, 0x45, 0x7b, 0xbd, 0x1f, 0x36, 0x89, 0xbe, 0xa7, 0xd2, 0xea, 0x3e,
  0x18, 0xee, 0xbb, 0x3d, 0x98, 0x50, 0x49, 0x3d, 0x78, 0xe9, 0x4c, 0xbe,
  0x2a, 0x7e, 0x20, 0xbf, 0x40, 0x17, 0x97, 0xbb, 0x51, 0x82, 0x31, 0xbe,
  0x73, 0x20, 0x47, 0xbe, 0x0a, 0xb6, 0x32, 0x3e, 0x32, 0x9f, 0xcc, 0x3d,
  0xa9, 0xa1, 0x75, 0x3e, 0x80, 0x90, 0x33, 0x3d, 0x5f, 0x1e, 0x24, 0x3e,
  0x77, 0x7c, 0x99, 0x3d, 0x41, 0x50, 0xb8, 0xbe, 0x26, 0x79, 0x2f, 0x3e,
  0x48, 0x58, 0x07, 0x3d, 0x39, 0x8d, 0xe4, 0x3e, 0x80, 0x8c, 0xb1, 0x3e,
  0xe7, 0x19, 0xcc, 0x3c, 0x0b, 0xd7, 0x6e, 0x3e, 0x18, 0x13, 0xa0, 0xbe,
  0x40, 0x4a, 0x87, 0x3b, 0x0a, 0x92, 0x34, 0x3e, 0x54, 0x3a, 0xdc, 0x3e,
  0xeb, 0x6a, 0x28, 0xbe, 0x99, 0x96, 0x8d, 0x3e, 0x07, 0x36, 0x76, 0xbe,
  0x42, 0x8e, 0xb1, 0xbe, 0x85, 0x43, 0x2b, 0x3f, 0x2b, 0x2a, 0x55, 0xbe,
  0x4d, 0x2d, 0x8b, 0x3e, 0xca, 0x65, 0x60, 0x3e, 0x83, 0xa9, 0x98, 0x3e,
  0x42, 0x28, 0x5e, 0x3e, 0x28, 0x41, 0x09, 0xbe, 0xb4, 0xd8, 0x65, 0xbe,
  0x6a, 0x0e, 0x33, 0x3f, 0xe3, 0xbe, 0x1d, 0x3e, 0x81, 0xf6, 0x8b, 0xbe,
  0x03, 0xe5, 0x36, 0x3e, 0xf0, 0xed, 0x03, 0xbd, 0x48, 0xfb, 0x29, 0xbe,
  0xe6, 0x1c, 0x0f, 0x3e, 0x00, 0x0f, 0xaf, 0x3a, 0x01, 0x82, 0x4d, 0xbe,
  0x3e, 0x16, 0x59, 0x3e, 0xce, 0xab, 0x1c, 0x3e, 0xe4, 0xa4, 0xa9, 0xbd,
  0xc7, 0x19, 0x9a, 0xbe, 0x3b, 0x88, 0x8a, 0xbe, 0x47, 0x57, 0x53, 0xbe,
  0x7a, 0xa7, 0x60, 0xbe, 0x70, 0x5c, 0xe0, 0x3d, 0x08, 0x39, 0x98, 0xbd,
  0x4e, 0xf7, 0x41, 0x3e, 0x00, 0xa5, 0x71, 0xbb, 0xa8, 0xcb, 0xc1, 0xbd,
  0x5a, 0x21, 0x2f, 0x3e, 0xd5, 0x20, 0x91, 0xbe, 0x30, 0x2d, 0xba, 0xbd,
  0x69, 0x3a, 0x4f, 0xbe, 0x01, 0x1e, 0x8e, 0xbe, 0xf6, 0x75, 0x42, 0xbe,
  0x19, 0xf8, 0x27, 0xbf, 0x70, 0x3f, 0x26, 0xbd, 0x00, 0x43, 0xe2, 0xba,
  0x94, 0xac, 0x01, 0x3e, 0xbb, 0x85, 0x60, 0xbe, 0x66, 0x0a, 0x2e, 0xbf,
  0xbd, 0x34, 0x10, 0x3f, 0x22, 0xa3, 0x56, 0x3e, 0x9e, 0x14, 0x8f, 0x3e,
  0x43, 0x89, 0xa9, 0x3e, 0x80, 0xb1, 0x93, 0x3d, 0x51, 0x2f, 0xb4, 0x3e,
  0x16, 0x70, 0x58, 0xbe, 0xb3, 0xd9, 0xa8, 0xbd, 0x1f, 0x00, 0xc9, 0x3e,
  0xe5, 0xd6, 0x03, 0x3f, 0x34, 0xb2, 0xd6, 0xbc, 0xa5, 0xd9, 0xbb, 0x3e,
  0x0d, 0x1e, 0x3d, 0xbe, 0xd3, 0x14, 0x63, 0xbe, 0x7b, 0x51, 0x32, 0xbe,
  0x90, 0x14, 0x5f, 0x3d, 0xe4, 0x75, 0x16, 0xbe, 0x08, 0x9a, 0xba, 0xbd,
  0xda, 0xcb, 0x5b, 0x3e, 0x90, 0x71, 0x32, 0xbd, 0x11, 0xcf, 0x86, 0x3e,
  0xfa, 0x30, 0x3d, 0xbe, 0xc8, 0xcd, 0x27, 0xbd, 0x30, 0xe4, 0x9e, 0xbd,
  0xef, 0xff, 0x0b, 0xbe, 0xb5, 0x27, 0x9c, 0x3e, 0x50, 0x9a, 0x89, 0xbe,
  0x5a, 0x3c, 0x72, 0x3e, 0xab, 0xdb, 0x4b, 0xbe, 0xfb, 0x19, 0x1d, 0xbe,
  0xc0, 0x0d, 0xd4, 0xbc, 0xba, 0xa1, 0x99, 0xbe, 0xc8, 0x33, 0x5e, 0x3d,
  0x33, 0x1f, 0x99, 0x3e, 0xed, 0x1d, 0x56, 0xbe, 0xc4, 0x29, 0xe1, 0x3d,
  0x76, 0x7c, 0x13, 0x3e, 0x24, 0x63, 0xd4, 0x3d, 0xbd, 0x92, 0x90, 0x3e,
  0x90, 0x52, 0x82, 0x3c, 0x54, 0x8e, 0x87, 0xbe, 0x3c, 0x52, 0xa6, 0xbe,
  0x47, 0xf4, 0xa3, 0xbe, 0xd1, 0x2b, 0x93, 0xbd, 0x3e, 0x39, 0x17, 0x3e,
  0x1c, 0xb0, 0xb5, 0x3d, 0x4c, 0xf8, 0xc6, 0x3d, 0xcd, 0x79, 0xb1, 0xbe,
  0xe1, 0x31, 0x8e, 0x3e, 0xbf, 0x90, 0x64, 0xb9, 0x29, 0xbd, 0x0f, 0xbd,
  0xdc, 0xc8, 0x7c, 0xbe, 0x48, 0x25, 0x62, 0xbd, 0xb1, 0xc8, 0x56, 0xbe,
  0x3b, 0xe9, 0x7c, 0x3d, 0x1c, 0xd3, 0x9c, 0x3d, 0xeb, 0xae, 0x75, 0xbe,
  0xbc, 0x8c, 0xcb, 0xbd, 0x7b, 0xda, 0x80, 0x3e, 0x45, 0xbb, 0x5c, 0xbd,
  0x65, 0xf2, 0xa3, 0x3e, 0x60, 0xca, 0x3e, 0xbd, 0xe0, 0x6a, 0xe9, 0xbc,
  0x14, 0xd1, 0x9f, 0xbe, 0xd0, 0xfd, 0x81, 0x3d, 0xfc, 0xe5, 0x90, 0xbd,
  0x3c, 0x51, 0x4f, 0xbe, 0xd5, 0x38, 0x9a, 0x3e, 0x34, 0xe1, 0xe1, 0xbd,
  0x07, 0xd3, 0x43, 0xbe, 0x9e, 0xcc, 0x08, 0xbe, 0x8d, 0x1b, 0x9a, 0x3e,
  0x52, 0xf7, 0xff, 0xff, 0x04, 0x00, 0x00, 0x00, 0x00, 0x05, 0x00, 0x00,
  0x16, 0x11, 0xc8, 0xbe, 0x5f, 0xaf, 0x8c, 0xbe, 0xc4, 0x6c, 0xcb, 0x3e,
  0x50, 0x76, 0x54, 0x3e, 0xc6, 0xf5, 0x7d, 0xbe, 0xd8, 0x3c, 0xbe, 0x3d,
  0xcd, 0x87, 0x58, 0xbe, 0x7c, 0x05, 0x0b, 0x3e, 0x64, 0x21, 0x81, 0xbd,
  0xbc, 0x85, 0xfb, 0xbd, 0xc0, 0xc8, 0x2d, 0xbd, 0x06, 0xa2, 0xaa, 0x3e,
  0x53, 0x72, 0x9a, 0xbe, 0xd4, 0x0a, 0xec, 0xbd, 0x51, 0x69, 0xad, 0xbe,
  0x26, 0xc5, 0xb6, 0xbe, 0x76, 0xe6, 0x06, 0xbe, 0x1c, 0x91, 0x95, 0xbe,
  0xa8, 0x27, 0xd1, 0xbd, 0xf2, 0xa8, 0xce, 0x3e, 0x38, 0xb7, 0x53, 0x3e,
  0xc0, 0xe9, 0xeb, 0x3d, 0x58, 0x88, 0x56, 0x3e, 0x54, 0xe3, 0x1a, 0x3e,
  0x1a, 0x93, 0xa3, 0xbe, 0x40, 0x6c, 0x73, 0xbc, 0xe6, 0xa2, 0xa1, 0x3e,
  0x34, 0x0b, 0x10, 0x3e, 0x7c, 0xac, 0xbc, 0x3e, 0x20, 0x52, 0x83, 0xbe,
  0x30, 0x2b, 0xfc, 0xbd, 0xf7, 0xeb, 0x5c, 0xbe, 0xf9, 0x9c, 0x04, 0x3e,
  0x80, 0x66, 0x5f, 0xbd, 0xb0, 0xa0, 0xf7, 0xbd, 0x80, 0xd7, 0x31, 0x3e,
  0x00, 0x2e, 0x48, 0x3e, 0x55, 0x9a, 0x84, 0xbe, 0xaa, 0x7a, 0xbc, 0xbe,
  0xa5, 0xb7, 0xaa, 0xbe, 0x12, 0x3d, 0xaa, 0xbe, 0x38, 0xa4, 0xcd, 0xbe,
  0x90, 0x3d, 0x17, 0x3d, 0x7c, 0x71, 0x45, 0x3e, 0xf5, 0x8b, 0xc5, 0xbe,
  0xb3, 0x3c, 0x03, 0xbf, 0x90, 0xa6, 0x58, 0x3d, 0xb2, 0xa9, 0x1d, 0xbf,
  0x9c, 0xe2, 0xa2, 0xbe, 0xda, 0x9a, 0xa9, 0x3e, 0xc7, 0xbf, 0x7e, 0xbe,
  0xec, 0xf7, 0x17, 0xbe, 0x60, 0x22, 0xab, 0x3e, 0xc8, 0x17, 0x10, 0x3e,
  0xc0, 0xdf, 0xac, 0xbd, 0x48, 0xb6, 0x1d, 0xbe, 0x18, 0x34, 0x21, 0x3e,
  0x9c, 0x7a, 0x3b, 0x3e, 0xe8, 0x58, 0x97, 0xbe, 0x78, 0x3e, 0xb9, 0x3e,
  0x38, 0x59, 0xa2, 0x3e, 0xd8, 0x51, 0x55, 0x3e, 0x36, 0xe0, 0x93, 0x3e,
  0xdf, 0x56, 0x67, 0xbe, 0x50, 0xd6, 0x8a, 0xbe, 0x62, 0xf8, 0x28, 0xbe,
  0x33, 0xd2, 0x76, 0xbe, 0x44, 0x3e, 0x19, 0x3e, 0x30, 0x71, 0xa3, 0x3e,
  0x7c, 0xc9, 0xc4, 0xbe, 0xa0, 0x3a, 0xcc, 0x3e, 0x09, 0xc7, 0x5f, 0xbe,
  0xe8, 0xf5, 0x17, 0xbe, 0xe9, 0x99, 0x7f, 0xbe, 0x18, 0x72, 0xa3, 0x3e,
  0xc6, 0xc1, 0xbd, 0xbe, 0xdd, 0x5e, 0x2f, 0xbe, 0x45, 0xfc, 0xa1, 0xbe,
  0x40, 0xb2, 0x0a, 0xbe, 0x24, 0xfa, 0xce, 0xbe, 0xe0, 0xe4, 0xab, 0xbc,
  0x9a, 0x39, 0x4d, 0xbe, 0xf6, 0x7a, 0x2d, 0xbe, 0xc0, 0x75, 0xa0, 0x3e,
  0xac, 0x00, 0x2c, 0x3e, 0xf0, 0xc4, 0xbd, 0x3d, 0xbb, 0xfd, 0x9a, 0xbe,
  0x7f, 0x6f, 0x70, 0xbe, 0x0b, 0x33, 0xce, 0xbe, 0x72, 0xa7, 0xa8, 0xbe,
  0x00, 0xea, 0x65, 0x3b, 0x18, 0xcb, 0x58, 0x3e, 0x4c, 0xe6, 0x81, 0xbe,
  0xb6, 0x18, 0x8e, 0xbe, 0x58, 0xe3, 0x36, 0xbd, 0xd6, 0x96, 0xb6, 0x3e,
  0xc7, 0xca, 0xbe, 0xbe, 0x1e, 0x97, 0x9f, 0xbe, 0xb0, 0xa6, 0x8a, 0xbe,
  0x88, 0x9f, 0x87, 0xbd, 0xa5, 0xb9, 0x27, 0xbe, 0x9c, 0x22, 0x97, 0xbe,
  0x32, 0xa2, 0xcb, 0x3e, 0x3e, 0x53, 0x33, 0xbe, 0xea, 0x2b, 0xbb, 0x3e,
  0x98, 0x91, 0x20, 0x3d, 0x8c, 0x58, 0x82, 0x3e, 0x5e, 0x3d, 0x8c, 0xbe,
  0x5c, 0xce, 0x4d, 0x3e, 0xd4, 0x40, 0xa2, 0xbe, 0xbc, 0x5e, 0x9e, 0xbd,
  0x98, 0xf5, 0x9d, 0xbe, 0x7d, 0x9c, 0xbf, 0x3e, 0xe6, 0x90, 0xbd, 0x3e,
  0x70, 0x5c, 0x83, 0xbd, 0xf4, 0xb0, 0x10, 0x3e, 0x31, 0xb6, 0x85, 0xbe,
  0x00, 0x4d, 0x06, 0x3b, 0x62, 0x75, 0x8e, 0x3e, 0x02, 0x02, 0x83, 0x3e,
  0x74, 0x2e, 0xac, 0xbe, 0xc0, 0x23, 0x4f, 0x3e, 0x88, 0xab, 0x59, 0x3d,
  0xc8, 0xd5, 0x03, 0x3d, 0x62, 0x96, 0x1e, 0xbf, 0x40, 0xf7, 0x8d, 0xbd,
  0x60, 0x7b, 0x74, 0x3e, 0x53, 0x00, 0x2d, 0xbf, 0x94, 0x73, 0x85, 0x3b,
  0xb5, 0x84, 0x64, 0xbe, 0xd0, 0xfa, 0xd0, 0x3d, 0x84, 0xd1, 0x2c, 0x3e,
  0x5c, 0xa6, 0xa1, 0x3e, 0x8c, 0xc8, 0x76, 0x3e, 0xc4, 0xb6, 0x93, 0xbe,
  0x10, 0x6d, 0x6a, 0x3e, 0x7c, 0x04, 0xad, 0xbd, 0x0c, 0x78, 0x6f, 0x3e,
  0x52, 0x53, 0x92, 0xbe, 0xf0, 0x3b, 0x99, 0x3c, 0x2b, 0xca, 0x18, 0x3f,
  0x44, 0xfa, 0x71, 0xbe, 0x68, 0xb4, 0x04, 0x3e, 0x2c, 0x14, 0xde, 0x3e,
  0x32, 0x43, 0x9b, 0xbe, 0x28, 0x54, 0x46, 0x3e, 0x74, 0x42, 0x9f, 0x3e,
  0x1c, 0xaa, 0xa0, 0xbe, 0x58, 0x03, 0xb7, 0x3e, 0xfa, 0x72, 0xbb, 0x3e,
  0xf6, 0xfb, 0xc7, 0x3e, 0x76, 0xf7, 0x06, 0xbe, 0xfc, 0x9f, 0x2c, 0xbe,
  0x61, 0x60, 0xcb, 0xbe, 0xb6, 0x03, 0xaa, 0xbe, 0xf4, 0x2c, 0x2d, 0x3e,
  0xa8, 0x16, 0xe3, 0xbd, 0x74, 0x34, 0xad, 0xbd, 0xa0, 0xd6, 0x30, 0xbc,
  0x52, 0xa0, 0x06, 0xbe, 0xbc, 0x6b, 0x69, 0xbc, 0x00, 0x64, 0x72, 0xbb,
  0xdc, 0xb3, 0x9f, 0xbe, 0x5c, 0xab, 0x67, 0x3e, 0x8c, 0x9c, 0xe9, 0xbd,
  0x70, 0x16, 0x4e, 0x3d, 0xea, 0x38, 0xad, 0x3e, 0x56, 0x4c, 0xc1, 0x3e,
  0xc8, 0x31, 0x08, 0x3e, 0x20, 0xbc, 0xb8, 0x3c, 0x8b, 0x36, 0x7a, 0xbe,
  0x08, 0xe6, 0x0a, 0xbd, 0x41, 0xcf, 0x3c, 0xbe, 0x19, 0x95, 0xc9, 0x3e,
  0x6a, 0x27, 0x99, 0xbe, 0x25, 0x0d, 0xc2, 0xbe, 0x38, 0xd3, 0xb1, 0x3e,
  0x70, 0xd7, 0xc5, 0xbe, 0xf0, 0xeb, 0x20, 0xbd, 0x60, 0x73, 0x31, 0x3e,
  0x37, 0xe3, 0x8e, 0xbe, 0xbf, 0x73, 0x2a, 0xbe, 0x5d, 0x35, 0x3c, 0xbe,
  0xa8, 0xe2, 0xa3, 0xbe, 0x10, 0xe9, 0x9f, 0xbe, 0x90, 0xeb, 0xcd, 0x3d,
  0x4e, 0xf6, 0x87, 0x3e, 0xb5, 0x93, 0x53, 0xbe, 0xe6, 0xf3, 0xd0, 0xbe,
  0x67, 0xa3, 0x62, 0x3f, 0xac, 0x2e, 0x8d, 0x3e, 0x85, 0xfe, 0x04, 0xbf,
  0xa7, 0xdb, 0x4c, 0xbe, 0x00, 0xb2, 0x14, 0x3d, 0xb4, 0x92, 0xaa, 0xbd,
  0xc8, 0x71, 0x7d, 0xbe, 0x48, 0x26, 0x9c, 0x3e, 0x5c, 0xd3, 0x41, 0x3e,
  0xfc, 0x45, 0xed, 0xbd, 0xd8, 0x6a, 0xae, 0x3e, 0xdd, 0xac, 0x98, 0xbe,
  0xbc, 0x17, 0x3c, 0x3e, 0xc9, 0x5a, 0xbb, 0xbe, 0xea, 0x82, 0xaf, 0x3e,
  0xc0, 0x2e, 0x8c, 0x3e, 0xf7, 0x19, 0xa8, 0xbe, 0xf8, 0xa8, 0xb2, 0x3d,
  0x16, 0x0c, 0x3a, 0xbe, 0xe1, 0x6d, 0xaf, 0xbe, 0x98, 0xac, 0x6a, 0xbd,
  0xc0, 0x76, 0xc3, 0x3d, 0x08, 0xfe, 0x80, 0xbd, 0xb4, 0xf2, 0xc0, 0xbe,
  0x96, 0xf7, 0x3d, 0xbe, 0xcc, 0xdf, 0x85, 0xbe, 0x20, 0xd3, 0xc1, 0x3e,
  0xf4, 0x9d, 0xa9, 0xbd, 0xb4, 0xe2, 0xb7, 0xbe, 0xc4, 0xee, 0x5d, 0x3e,
  0x08, 0x81, 0x5a, 0x3e, 0x84, 0xb8, 0xa8, 0x3d, 0xbc, 0x34, 0xbc, 0x3e,
  0x14, 0xca, 0x12, 0x3e, 0x43, 0x67, 0x7f, 0xbe, 0xba, 0xb1, 0x06, 0xbe,
  0x20, 0x01, 0x95, 0xbe, 0x56, 0xf5, 0x90, 0xbe, 0x22, 0xcc, 0xd0, 0x3e,
  0x60, 0xaf, 0x62, 0xbd, 0xb7, 0x78, 0xad, 0xbe, 0x80, 0x56, 0xb5, 0x3c,
  0xf8, 0x8b, 0xc7, 0x3d, 0xf1, 0xad, 0x24, 0xbe, 0x96, 0xfb, 0x63, 0xbe,
  0x3d, 0xfa, 0x8f, 0xbe, 0x74, 0xd1, 0x93, 0x3d, 0xd6, 0x20, 0x2e, 0xbe,
  0x54, 0x01, 0x40, 0x3e, 0x28, 0x7e, 0x23, 0x3e, 0xec, 0x2d, 0x38, 0xbe,
  0xd3, 0xe1, 0xb7, 0x3e, 0x24, 0x3b, 0x90, 0x3e, 0x30, 0xa4, 0x95, 0x3c,
  0x98, 0x68, 0xf2, 0xbd, 0x74, 0x7f, 0x64, 0x3e, 0xcc, 0x8c, 0x59, 0x3e,
  0xc0, 0x9c, 0x1c, 0x3d, 0x68, 0x7e, 0xe1, 0x3d, 0xa4, 0x4f, 0xbd, 0x3e,
  0xf3, 0x3c, 0x55, 0xbe, 0x6e, 0xab, 0x9d, 0x3e, 0x78, 0xaa, 0x48, 0x3e,
  0x61, 0x0d, 0x07, 0xbf, 0x1d, 0x2b, 0x53, 0x3f, 0xb8, 0xc0, 0xc2, 0xbd,
  0xd2, 0x42, 0xf3, 0xbe, 0x5a, 0x58, 0xa3, 0x3e, 0x00, 0x4d, 0xa6, 0xbd,
  0xa8, 0xd3, 0x4e, 0xbd, 0x5c, 0x85, 0x83, 0xbe, 0xb2, 0xd8, 0x1f, 0xbe,
  0x20, 0x94, 0x53, 0xbd, 0x6e, 0x97, 0x26, 0xbe, 0x38, 0x86, 0x2d, 0xbd,
  0x78, 0x1b, 0x91, 0x3e, 0x47, 0xf2, 0xca, 0xbe, 0x28, 0xfa, 0x91, 0x3e,
  0x38, 0xd0, 0x4f, 0x3e, 0xe1, 0xc0, 0x00, 0x3f, 0x4f, 0xb5, 0x8e, 0x3f,
  0x76, 0x4e, 0xbe, 0x3e, 0x67, 0xc3, 0x7d, 0x3e, 0xbc, 0x8e, 0xb1, 0x3e,
  0x78, 0x98, 0xa9, 0xbe, 0x18, 0xd6, 0xd9, 0x3d, 0x5e, 0x16, 0xc3, 0xbe,
  0xbd, 0xf8, 0x69, 0xbe, 0x28, 0x22, 0x65, 0x3e, 0xb8, 0x67, 0x97, 0x3e,
  0xac, 0x8a, 0x53, 0x3e, 0xfc, 0x57, 0xb9, 0x3e, 0xe4, 0x69, 0x08, 0x3e,
  0x78, 0x2a, 0x3c, 0x3e, 0x20, 0x08, 0x04, 0x3e, 0xa2, 0x7f, 0x0e, 0x3f,
  0xb2, 0x07, 0xc5, 0x3e, 0x84, 0xec, 0x8f, 0x3d, 0xb2, 0xeb, 0xab, 0x3e,
  0x4a, 0xcf, 0x29, 0x3f, 0x0c, 0x0a, 0xa4, 0xbd, 0xf4, 0xc8, 0x94, 0xbe,
  0xf8, 0xd6, 0xa8, 0x3e, 0x9c, 0x21, 0x88, 0xbd, 0x60, 0xc9, 0x85, 0xbd,
  0x98, 0xc0, 0xc0, 0x3e, 0x1a, 0x2a, 0xbf, 0xbe, 0xec, 0xeb, 0x4f, 0x3e,
  0x1e, 0xa8, 0x82, 0xbe, 0x0c, 0xb7, 0xa4, 0xbe, 0x01, 0x03, 0x9e, 0xbe,
  0x78, 0x11, 0xac, 0xbe, 0xc1, 0x6a, 0xc9, 0x3f, 0x20, 0x09, 0x54, 0x3e,
  0x48, 0x9c, 0x47, 0xbe, 0xdc, 0x2d, 0x94, 0xbe, 0x4e, 0xe2, 0xb9, 0x3e,
  0xcd, 0x14, 0x22, 0xbe, 0xb4, 0xad, 0xc7, 0xbe, 0xb8, 0xf1, 0xc6, 0x3e,
  0x84, 0xbd, 0xa0, 0x3e, 0x1e, 0x01, 0x4a, 0xbe, 0x4c, 0x9c, 0xa8, 0xbe,
  0xe0, 0x2e, 0x99, 0x3c, 0x45, 0x20, 0x39, 0xbe, 0x50, 0x14, 0xb7, 0xbc,
  0x0c, 0x79, 0xbf, 0xbd, 0x14, 0x0e, 0x98, 0x3e, 0x78, 0x5e, 0xb2, 0x3d,
  0x20, 0xdc, 0x15, 0x3d, 0x60, 0x1f, 0x13, 0x3c, 0x5e, 0xfc, 0xff, 0xff,
  0x04, 0x00, 0x00, 0x00, 0xc0, 0x00, 0x00, 0x00, 0x11, 0x84, 0xd8, 0x3e,
  0x19, 0x7d, 0x7f, 0xbe, 0x94, 0xd3, 0x89, 0x3f, 0xaa, 0xdf, 0x05, 0xbe,
  0xd2, 0xa5, 0xdd, 0xbe, 0x58, 0x31, 0x83, 0x3e, 0x4c, 0x7d, 0x91, 0xbd,
  0x60, 0xfd, 0xc1, 0x3c, 0xae, 0xcc, 0x2c, 0xbe, 0xcc, 0x2c, 0x99, 0xbe,
  0xb0, 0x88, 0x48, 0xbe, 0x02, 0xa5, 0xfa, 0x3e, 0xca, 0x8c, 0x2b, 0xbe,
  0xb1, 0x4d, 0x9e, 0xbe, 0x03, 0xe0, 0x91, 0xbe, 0x68, 0x01, 0xac, 0x3d,
  0xda, 0x1f, 0xaa, 0xbe, 0x6e, 0xea, 0x72, 0xbe, 0xe3, 0x11, 0xf3, 0xbe,
  0x5e, 0x51, 0x0c, 0xbf, 0x86, 0x03, 0xa1, 0xbe, 0xb0, 0xcc, 0x02, 0xbf,
  0xb0, 0x37, 0xbc, 0xbd, 0x4e, 0x05, 0x7e, 0xbe, 0xd8, 0x82, 0xd0, 0x3d,
  0xf2, 0xea, 0x29, 0xbe, 0xce, 0x7f, 0xf0, 0xbe, 0x40, 0x5a, 0xea, 0xbc,
  0x8f, 0xb7, 0xfc, 0xbe, 0x00, 0x9a, 0x61, 0xbd, 0x25, 0x40, 0x9c, 0xbe,
  0xee, 0xdb, 0xb2, 0xbe, 0x90, 0x73, 0x8b, 0xbe, 0x00, 0x90, 0x9a, 0x3d,
  0x38, 0x06, 0x82, 0xbd, 0xc7, 0x04, 0xab, 0xbe, 0xf6, 0x63, 0xda, 0x3e,
  0x9a, 0xdf, 0x13, 0xbe, 0x9b, 0xab, 0x06, 0xbf, 0x3e, 0xc2, 0x89, 0x3e,
  0x9f, 0x1e, 0xef, 0xbe, 0x99, 0xb9, 0x54, 0x3e, 0x38, 0x75, 0xe0, 0x3d,
  0xce, 0x25, 0x04, 0xbf, 0xd8, 0xc9, 0xea, 0x3d, 0xb8, 0xaf, 0x92, 0x3e,
  0x63, 0xdb, 0x80, 0xbd, 0x1e, 0x3e, 0xf4, 0xbe, 0x2a, 0xfd, 0xff, 0xff,
  0x04, 0x00, 0x00, 0x00, 0x40, 0x00, 0x00, 0x00, 0x3b, 0x96, 0xad, 0x3c,
  0x00, 0x00, 0x00, 0x00, 0x00, 0x00, 0x00, 0x00, 0x00, 0x00, 0x00, 0x00,
  0x00, 0x00, 0x00, 0x00, 0x00, 0x00, 0x00, 0x00, 0x00, 0x00, 0x00, 0x00,
  0x00, 0x00, 0x00, 0x00, 0x00, 0x00, 0x00, 0x00, 0x00, 0x00, 0x00, 0x00,
  0x00, 0x00, 0x00, 0x00, 0x00, 0x00, 0x00, 0x00, 0x3a, 0xcb, 0xac, 0x3c,
  0xe5, 0x5a, 0x6c, 0xbb, 0x00, 0x00, 0x00, 0x00, 0x88, 0x5f, 0xdb, 0x3c,
  0x76, 0xfd, 0xff, 0xff, 0x04, 0x00, 0x00, 0x00, 0x0c, 0x00, 0x00, 0x00,
  0xc9, 0xb6, 0x03, 0xbf, 0xec, 0xff, 0xf8, 0x3e, 0xc5, 0x0e, 0x97, 0x3e,
  0x8e, 0xfd, 0xff, 0xff, 0x04, 0x00, 0x00, 0x00, 0x80, 0x00, 0x00, 0x00,
  0x00, 0x00, 0x00, 0x00, 0x00, 0x00, 0x00, 0x00, 0xef, 0x08, 0x75, 0xbc,
  0xe0, 0x30, 0xf4, 0x3d, 0xd0, 0x2a, 0xf2, 0xbd, 0xf2, 0xd5, 0x9b, 0x3d,
  0x4b, 0x9c, 0xe9, 0x3e, 0x7d, 0xbc, 0xf0, 0xbd, 0x00, 0x00, 0x00, 0x00,
  0xc7, 0xed, 0x66, 0xbd, 0x00, 0x00, 0x00, 0x00, 0x10, 0xa8, 0xc8, 0xb5,
  0x31, 0xf8, 0xf9, 0x3e, 0xe8, 0x10, 0xf4, 0xbd, 0x13, 0xb9, 0x07, 0x3e,
  0x64, 0x20, 0x7b, 0xbc, 0x64, 0x79, 0x6b, 0x3d, 0xe4, 0x80, 0x51, 0x3d,
  0xda, 0x5c, 0x9d, 0xbe, 0xd2, 0x6c, 0xdd, 0xbd, 0x6e, 0x6a, 0x15, 0x3f,
  0x00, 0x0c, 0xa2, 0xbd, 0x0e, 0x74, 0x98, 0x3e, 0xbd, 0xb4, 0x27, 0x3d,
  0x93, 0xff, 0x45, 0xbe, 0xd1, 0x5a, 0x9f, 0x3d, 0x95, 0xf6, 0x12, 0xbe,
  0x06, 0x20, 0xbd, 0x3e, 0xab, 0x6c, 0x06, 0x3f, 0x16, 0x86, 0x15, 0x3e,
  0x66, 0x4d, 0xa8, 0x3e, 0x00, 0x00, 0x00, 0x00, 0x1a, 0xfe, 0xff, 0xff,
  0x04, 0x00, 0x00, 0x00, 0x50, 0x00, 0x00, 0x00, 0x00, 0x00, 0x00, 0x00,
  0x00, 0x00, 0x00, 0x00, 0x6c, 0x43, 0x04, 0x3e, 0x00, 0x00, 0x00, 0x00,
  0x00, 0x00, 0x00, 0x00, 0x00, 0x00, 0x00, 0x00, 0x00, 0x00, 0x00, 0x00,
  0x7d, 0x96, 0x14, 0x3d, 0xb7, 0x13, 0x32, 0x3d, 0x00, 0x00, 0x00, 0x00,
  0xcc, 0x27, 0x03, 0xbc, 0x0e, 0x88, 0xcd, 0xbb, 0x00, 0x00, 0x00, 0x00,
  0x00, 0x00, 0x00, 0x00, 0x00, 0x00, 0x00, 0x00, 0x1f, 0x68, 0xfd, 0xbc,
  0x2b, 0x39, 0xd0, 0xbd, 0x7d, 0xf2, 0xba, 0xbd, 0x9b, 0xfc, 0x64, 0xbd,
  0x00, 0x00, 0x00, 0x00, 0x76, 0xfe, 0xff, 0xff, 0x04, 0x00, 0x00, 0x00,
  0x60, 0x00, 0x00, 0x00, 0x00, 0x00, 0x00, 0x00, 0x2a, 0xcf, 0x8b, 0xbd,
  0xc3, 0x13, 0x79, 0xbd, 0xad, 0x66, 0x67, 0x3d, 0xcf, 0xea, 0x27, 0xbd,
  0x4c, 0x0c, 0xab, 0xbc, 0x7d, 0x46, 0x2c, 0x3d, 0x8a, 0x15, 0x53, 0x3d,
  0xe5, 0x6d, 0x96, 0xbd, 0x00, 0x00, 0x00, 0x00, 0x00, 0x00, 0x00, 0x00,
  0x00, 0x00, 0x00, 0x00, 0x00, 0x00, 0x00, 0x00, 0x00, 0x00, 0x00, 0x00,
  0x00, 0x00, 0x00, 0x00, 0x00, 0x00, 0x00, 0x00, 0xad, 0xe2, 0x5b, 0xbd,
  0xc4, 0x03, 0x02, 0xbd, 0xe4, 0xfa, 0x2d, 0xbd, 0x00, 0x00, 0x00, 0x00,
  0xce, 0xd2, 0x5c, 0x3d, 0x00, 0x00, 0x00, 0x00, 0x32, 0xc7, 0xf2, 0xbc,
  0x58, 0x68, 0x82, 0x3c, 0xe2, 0xfe, 0xff, 0xff, 0x04, 0x00, 0x00, 0x00,
  0x70, 0x00, 0x00, 0x00, 0x00, 0x00, 0x00, 0x00, 0x30, 0x1a, 0xc3, 0xbd,
  0x00, 0x00, 0x00, 0x00, 0xbf, 0xbd, 0x16, 0xbe, 0x96, 0x3e, 0x83, 0xbb,
  0x00, 0x75, 0xfc, 0xbd, 0xb4, 0x25, 0xb1, 0xbb, 0x00, 0x00, 0x00, 0x00,
  0xb6, 0x54, 0xe6, 0xbc, 0x2f, 0x42, 0xf9, 0xbd, 0x00, 0x00, 0x00, 0x00,
  0x54, 0x9d, 0xb3, 0xbd, 0x63, 0x22, 0x04, 0xbd, 0xa7, 0xd7, 0xd2, 0x3d,
  0xf4, 0x00, 0x8a, 0xbc, 0x00, 0x00, 0x00, 0x00, 0x00, 0x00, 0x00, 0x00,
  0x5f, 0x9a, 0x13, 0xbd, 0xc5, 0xa9, 0x3d, 0xbe, 0x7a, 0x3f, 0x20, 0xbd,
  0x72, 0x85, 0x41, 0xbe, 0x52, 0x41, 0x15, 0x3d, 0xe9, 0x71, 0x9d, 0xb8,
  0x00, 0x00, 0x00, 0x00, 0x91, 0xb1, 0x44, 0xbb, 0xea, 0x8e, 0x40, 0xbc,
  0x2f, 0x71, 0xbe, 0xbd, 0x4f, 0xda, 0x9f, 0x3c, 0xdc, 0xf5, 0xff, 0xff,
  0xe0, 0xf5, 0xff, 0xff, 0x0f, 0x00, 0x00, 0x00, 0x4d, 0x4c, 0x49, 0x52,
  0x20, 0x43, 0x6f, 0x6e, 0x76, 0x65, 0x72, 0x74, 0x65, 0x64, 0x2e, 0x00,
  0x01, 0x00, 0x00, 0x00, 0x14, 0x00, 0x00, 0x00, 0x00, 0x00, 0x0e, 0x00,
  0x18, 0x00, 0x14, 0x00, 0x10, 0x00, 0x0c, 0x00, 0x08, 0x00, 0x04, 0x00,
  0x0e, 0x00, 0x00, 0x00, 0x14, 0x00, 0x00, 0x00, 0x1c, 0x00, 0x00, 0x00,
  0xcc, 0x01, 0x00, 0x00, 0xd0, 0x01, 0x00, 0x00, 0xd4, 0x01, 0x00, 0x00,
  0x04, 0x00, 0x00, 0x00, 0x6d, 0x61, 0x69, 0x6e, 0x00, 0x00, 0x00, 0x00,
  0x07, 0x00, 0x00, 0x00, 0x74, 0x01, 0x00, 0x00, 0x2c, 0x01, 0x00, 0x00,
  0xf4, 0x00, 0x00, 0x00, 0xbc, 0x00, 0x00, 0x00, 0x84, 0x00, 0x00, 0x00,
  0x50, 0x00, 0x00, 0x00, 0x14, 0x00, 0x00, 0x00, 0x00, 0x00, 0x0e, 0x00,
  0x1a, 0x00, 0x14, 0x00, 0x10, 0x00, 0x0c, 0x00, 0x0b, 0x00, 0x04, 0x00,
  0x0e, 0x00, 0x00, 0x00, 0x1c, 0x00, 0x00, 0x00, 0x00, 0x00, 0x00, 0x09,
  0x1c, 0x00, 0x00, 0x00, 0x20, 0x00, 0x00, 0x00, 0x01, 0x00, 0x00, 0x00,
  0x00, 0x00, 0x06, 0x00, 0x08, 0x00, 0x04, 0x00, 0x06, 0x00, 0x00, 0x00,
  0x00, 0x00, 0x80, 0x3f, 0x01, 0x00, 0x00, 0x00, 0x13, 0x00, 0x00, 0x00,
  0x01, 0x00, 0x00, 0x00, 0x12, 0x00, 0x00, 0x00, 0xfe, 0xfe, 0xff, 0xff,
  0x10, 0x00, 0x00, 0x00, 0x00, 0x00, 0x00, 0x08, 0x0c, 0x00, 0x00, 0x00,
  0x10, 0x00, 0x00, 0x00, 0xb0, 0xf6, 0xff, 0xff, 0x01, 0x00, 0x00, 0x00,
  0x12, 0x00, 0x00, 0x00, 0x03, 0x00, 0x00, 0x00, 0x11, 0x00, 0x00, 0x00,
  0x0c, 0x00, 0x00, 0x00, 0x05, 0x00, 0x00, 0x00, 0x2e, 0xff, 0xff, 0xff,
  0x10, 0x00, 0x00, 0x00, 0x00, 0x00, 0x00, 0x08, 0x10, 0x00, 0x00, 0x00,
  0x14, 0x00, 0x00, 0x00, 0x1e, 0xff, 0xff, 0xff, 0x00, 0x00, 0x00, 0x01,
  0x01, 0x00, 0x00, 0x00, 0x11, 0x00, 0x00, 0x00, 0x03, 0x00, 0x00, 0x00,
  0x10, 0x00, 0x00, 0x00, 0x0b, 0x00, 0x00, 0x00, 0x04, 0x00, 0x00, 0x00,
  0x62, 0xff, 0xff, 0xff, 0x10, 0x00, 0x00, 0x00, 0x00, 0x00, 0x00, 0x08,
  0x10, 0x00, 0x00, 0x00, 0x14, 0x00, 0x00, 0x00, 0x52, 0xff, 0xff, 0xff,
  0x00, 0x00, 0x00, 0x01, 0x01, 0x00, 0x00, 0x00, 0x10, 0x00, 0x00, 0x00,
  0x03, 0x00, 0x00, 0x00, 0x0f, 0x00, 0x00, 0x00, 0x0a, 0x00, 0x00, 0x00,
  0x01, 0x00, 0x00, 0x00, 0x96, 0xff, 0xff, 0xff, 0x10, 0x00, 0x00, 0x00,
  0x00, 0x00, 0x00, 0x08, 0x10, 0x00, 0x00, 0x00, 0x14, 0x00, 0x00, 0x00,
  0x86, 0xff, 0xff, 0xff, 0x00, 0x00, 0x00, 0x01, 0x01, 0x00, 0x00, 0x00,
  0x0f, 0x00, 0x00, 0x00, 0x03, 0x00, 0x00, 0x00, 0x0e, 0x00, 0x00, 0x00,
  0x09, 0x00, 0x00, 0x00, 0x02, 0x00, 0x00, 0x00, 0xca, 0xff, 0xff, 0xff,
  0x10, 0x00, 0x00, 0x00, 0x00, 0x00, 0x00, 0x08, 0x10, 0x00, 0x00, 0x00,
  0x14, 0x00, 0x00, 0x00, 0xba, 0xff, 0xff, 0xff, 0x00, 0x00, 0x00, 0x01,
  0x01, 0x00, 0x00, 0x00, 0x0e, 0x00, 0x00, 0x00, 0x03, 0x00, 0x00, 0x00,
  0x0d, 0x00, 0x00, 0x00, 0x08, 0x00, 0x00, 0x00, 0x03, 0x00, 0x00, 0x00,
  0x00, 0x00, 0x0e, 0x00, 0x16, 0x00, 0x00, 0x00, 0x10, 0x00, 0x0c, 0x00,
  0x0b, 0x00, 0x04, 0x00, 0x0e, 0x00, 0x00, 0x00, 0x18, 0x00, 0x00, 0x00,
  0x00, 0x00, 0x00, 0x08, 0x18, 0x00, 0x00, 0x00, 0x1c, 0x00, 0x00, 0x00,
  0x00, 0x00, 0x06, 0x00, 0x08, 0x00, 0x07, 0x00, 0x06, 0x00, 0x00, 0x00,
  0x00, 0x00, 0x00, 0x01, 0x01, 0x00, 0x00, 0x00, 0x0d, 0x00, 0x00, 0x00,
  0x03, 0x00, 0x00, 0x00, 0x00, 0x00, 0x00, 0x00, 0x07, 0x00, 0x00, 0x00,
  0x06, 0x00, 0x00, 0x00, 0x01, 0x00, 0x00, 0x00, 0x13, 0x00, 0x00, 0x00,
  0x01, 0x00, 0x00, 0x00, 0x00, 0x00, 0x00, 0x00, 0x14, 0x00, 0x00, 0x00,
  0xdc, 0x07, 0x00, 0x00, 0x6c, 0x07, 0x00, 0x00, 0xfc, 0x06, 0x00, 0x00,
  0xa4, 0x06, 0x00, 0x00, 0x48, 0x06, 0x00, 0x00, 0xec, 0x05, 0x00, 0x00,
  0x94, 0x05, 0x00, 0x00, 0x48, 0x05, 0x00, 0x00, 0xfc, 0x04, 0x00, 0x00,
  0xb0, 0x04, 0x00, 0x00, 0x64, 0x04, 0x00, 0x00, 0x14, 0x04, 0x00, 0x00,
  0xc4, 0x03, 0x00, 0x00, 0x30, 0x03, 0x00, 0x00, 0x9c, 0x02, 0x00, 0x00,
  0x08, 0x02, 0x00, 0x00, 0x74, 0x01, 0x00, 0x00, 0xdc, 0x00, 0x00, 0x00,
  0x60, 0x00, 0x00, 0x00, 0x04, 0x00, 0x00, 0x00, 0x8a, 0xf8, 0xff, 0xff,
  0x00, 0x00, 0x00, 0x01, 0x14, 0x00, 0x00, 0x00, 0x1c, 0x00, 0x00, 0x00,
  0x1c, 0x00, 0x00, 0x00, 0x14, 0x00, 0x00, 0x00, 0x34, 0x00, 0x00, 0x00,
  0x02, 0x00, 0x00, 0x00, 0xff, 0xff, 0xff, 0xff, 0x03, 0x00, 0x00, 0x00,
  0x74, 0xf8, 0xff, 0xff, 0x19, 0x00, 0x00, 0x00, 0x53, 0x74, 0x61, 0x74,
  0x65, 0x66, 0x75, 0x6c, 0x50, 0x61, 0x72, 0x74, 0x69, 0x74, 0x69, 0x6f,
  0x6e, 0x65, 0x64, 0x43, 0x61, 0x6c, 0x6c, 0x3a, 0x30, 0x00, 0x00, 0x00,
  0x02, 0x00, 0x00, 0x00, 0x01, 0x00, 0x00, 0x00, 0x03, 0x00, 0x00, 0x00,
  0xe2, 0xf8, 0xff, 0xff, 0x00, 0x00, 0x00, 0x01, 0x14, 0x00, 0x00, 0x00,
  0x1c, 0x00, 0x00, 0x00, 0x1c, 0x00, 0x00, 0x00, 0x13, 0x00, 0x00, 0x00,
  0x54, 0x00, 0x00, 0x00, 0x02, 0x00, 0x00, 0x00, 0xff, 0xff, 0xff, 0xff,
  0x03, 0x00, 0x00, 0x00, 0xcc, 0xf8, 0xff, 0xff, 0x3a, 0x00, 0x00, 0x00,
  0x73, 0x65, 0x71, 0x75, 0x65, 0x6e, 0x74, 0x69, 0x61, 0x6c, 0x5f, 0x32,
  0x2f, 0x64, 0x65, 0x6e, 0x73, 0x65, 0x5f, 0x31, 0x31, 0x2f, 0x4d, 0x61,
  0x74, 0x4d, 0x75, 0x6c, 0x3b, 0x73, 0x65, 0x71, 0x75, 0x65, 0x6e, 0x74,
  0x69, 0x61, 0x6c, 0x5f, 0x32, 0x2f, 0x64, 0x65, 0x6e, 0x73, 0x65, 0x5f,
  0x31, 0x31, 0x2f, 0x42, 0x69, 0x61, 0x73, 0x41, 0x64, 0x64, 0x00, 0x00,
  0x02, 0x00, 0x00, 0x00, 0x01, 0x00, 0x00, 0x00, 0x03, 0x00, 0x00, 0x00,
  0x5a, 0xf9, 0xff, 0xff, 0x00, 0x00, 0x00, 0x01, 0x14, 0x00, 0x00, 0x00,
  0x1c, 0x00, 0x00, 0x00, 0x1c, 0x00, 0x00, 0x00, 0x12, 0x00, 0x00, 0x00,
  0x70, 0x00, 0x00, 0x00, 0x02, 0x00, 0x00, 0x00, 0xff, 0xff, 0xff, 0xff,
  0x20, 0x00, 0x00, 0x00, 0x44, 0xf9, 0xff, 0xff, 0x55, 0x00, 0x00, 0x00,
  0x73, 0x65, 0x71, 0x75, 0x65, 0x6e, 0x74, 0x69, 0x61, 0x6c, 0x5f, 0x32,
  0x2f, 0x64, 0x65, 0x6e, 0x73, 0x65, 0x5f, 0x31, 0x30, 0x2f, 0x4d, 0x61,
  0x74, 0x4d, 0x75, 0x6c, 0x3b, 0x73, 0x65, 0x71, 0x75, 0x65, 0x6e, 0x74,
  0x69, 0x61, 0x6c, 0x5f, 0x32, 0x2f, 0x64, 0x65, 0x6e, 0x73, 0x65, 0x5f,
  0x31, 0x30, 0x2f, 0x52, 0x65, 0x6c, 0x75, 0x3b, 0x73, 0x65, 0x71, 0x75,
  0x65, 0x6e, 0x74, 0x69, 0x61, 0x6c, 0x5f, 0x32, 0x2f, 0x64, 0x65, 0x6e,
  0x73, 0x65, 0x5f, 0x31, 0x30, 0x2f, 0x42, 0x69, 0x61, 0x73, 0x41, 0x64,
  0x64, 0x00, 0x00, 0x00, 0x02, 0x00, 0x00, 0x00, 0x01, 0x00, 0x00, 0x00,
  0x20, 0x00, 0x00, 0x00, 0xee, 0xf9, 0xff, 0xff, 0x00, 0x00, 0x00, 0x01,
  0x14, 0x00, 0x00, 0x00, 0x1c, 0x00, 0x00, 0x00, 0x1c, 0x00, 0x00, 0x00,
  0x11, 0x00, 0x00, 0x00, 0x6c, 0x00, 0x00, 0x00, 0x02, 0x00, 0x00, 0x00,
  0xff, 0xff, 0xff, 0xff, 0x1c, 0x00, 0x00, 0x00, 0xd8, 0xf9, 0xff, 0xff,
  0x52, 0x00, 0x00, 0x00, 0x73, 0x65, 0x71, 0x75, 0x65, 0x6e, 0x74, 0x69,
  0x61, 0x6c, 0x5f, 0x32, 0x2f, 0x64, 0x65, 0x6e, 0x73, 0x65, 0x5f, 0x39,
  0x2f, 0x4d, 0x61, 0x74, 0x4d, 0x75, 0x6c, 0x3b, 0x73, 0x65, 0x71, 0x75,
  0x65, 0x6e, 0x74, 0x69, 0x61, 0x6c, 0x5f, 0x32, 0x2f, 0x64, 0x65, 0x6e,
  0x73, 0x65, 0x5f, 0x39, 0x2f, 0x52, 0x65, 0x6c, 0x75, 0x3b, 0x73, 0x65,
  0x71, 0x75, 0x65, 0x6e, 0x74, 0x69, 0x61, 0x6c, 0x5f, 0x32, 0x2f, 0x64,
  0x65, 0x6e, 0x73, 0x65, 0x5f, 0x39, 0x2f, 0x42, 0x69, 0x61, 0x73, 0x41,
  0x64, 0x64, 0x00, 0x00, 0x02, 0x00, 0x00, 0x00, 0x01, 0x00, 0x00, 0x00,
  0x1c, 0x00, 0x00, 0x00, 0x7e, 0xfa, 0xff, 0xff, 0x00, 0x00, 0x00, 0x01,
  0x14, 0x00, 0x00, 0x00, 0x1c, 0x00, 0x00, 0x00, 0x1c, 0x00, 0x00, 0x00,
  0x10, 0x00, 0x00, 0x00, 0x6c, 0x00, 0x00, 0x00, 0x02, 0x00, 0x00, 0x00,
  0xff, 0xff, 0xff, 0xff, 0x18, 0x00, 0x00, 0x00, 0x68, 0xfa, 0xff, 0xff,
  0x52, 0x00, 0x00, 0x00, 0x73, 0x65, 0x71, 0x75, 0x65, 0x6e, 0x74, 0x69,
  0x61, 0x6c, 0x5f, 0x32, 0x2f, 0x64, 0x65, 0x6e, 0x73, 0x65, 0x5f, 0x38,
  0x2f, 0x4d, 0x61, 0x74, 0x4d, 0x75, 0x6c, 0x3b, 0x73, 0x65, 0x71, 0x75,
  0x65, 0x6e, 0x74, 0x69, 0x61, 0x6c, 0x5f, 0x32, 0x2f, 0x64, 0x65, 0x6e,
  0x73, 0x65, 0x5f, 0x38, 0x2f, 0x52, 0x65, 0x6c, 0x75, 0x3b, 0x73, 0x65,
  0x71, 0x75, 0x65, 0x6e, 0x74, 0x69, 0x61, 0x6c, 0x5f, 0x32, 0x2f, 0x64,
  0x65, 0x6e, 0x73, 0x65, 0x5f, 0x38, 0x2f, 0x42, 0x69, 0x61, 0x73, 0x41,
  0x64, 0x64, 0x00, 0x00, 0x02, 0x00, 0x00, 0x00, 0x01, 0x00, 0x00, 0x00,
  0x18, 0x00, 0x00, 0x00, 0x0e, 0xfb, 0xff, 0xff, 0x00, 0x00, 0x00, 0x01,
  0x14, 0x00, 0x00, 0x00, 0x1c, 0x00, 0x00, 0x00, 0x1c, 0x00, 0x00, 0x00,
  0x0f, 0x00, 0x00, 0x00, 0x6c, 0x00, 0x00, 0x00, 0x02, 0x00, 0x00, 0x00,
  0xff, 0xff, 0xff, 0xff, 0x14, 0x00, 0x00, 0x00, 0xf8, 0xfa, 0xff, 0xff,
  0x52, 0x00, 0x00, 0x00, 0x73, 0x65, 0x71, 0x75, 0x65, 0x6e, 0x74, 0x69,
  0x61, 0x6c, 0x5f, 0x32, 0x2f, 0x64, 0x65, 0x6e, 0x73, 0x65, 0x5f, 0x37,
  0x2f, 0x4d, 0x61, 0x74, 0x4d, 0x75, 0x6c, 0x3b, 0x73, 0x65, 0x71, 0x75,
  0x65, 0x6e, 0x74, 0x69, 0x61, 0x6c, 0x5f, 0x32, 0x2f, 0x64, 0x65, 0x6e,
  0x73, 0x65, 0x5f, 0x37, 0x2f, 0x52, 0x65, 0x6c, 0x75, 0x3b, 0x73, 0x65,
  0x71, 0x75, 0x65, 0x6e, 0x74, 0x69, 0x61, 0x6c, 0x5f, 0x32, 0x2f, 0x64,
  0x65, 0x6e, 0x73, 0x65, 0x5f, 0x37, 0x2f, 0x42, 0x69, 0x61, 0x73, 0x41,
  0x64, 0x64, 0x00, 0x00, 0x02, 0x00, 0x00, 0x00, 0x01, 0x00, 0x00, 0x00,
  0x14, 0x00, 0x00, 0x00, 0x9e, 0xfb, 0xff, 0xff, 0x00, 0x00, 0x00, 0x01,
  0x14, 0x00, 0x00, 0x00, 0x1c, 0x00, 0x00, 0x00, 0x1c, 0x00, 0x00, 0x00,
  0x0e, 0x00, 0x00, 0x00, 0x6c, 0x00, 0x00, 0x00, 0x02, 0x00, 0x00, 0x00,
  0xff, 0xff, 0xff, 0xff, 0x10, 0x00, 0x00, 0x00, 0x88, 0xfb, 0xff, 0xff,
  0x52, 0x00, 0x00, 0x00, 0x73, 0x65, 0x71, 0x75, 0x65, 0x6e, 0x74, 0x69,
  0x61, 0x6c, 0x5f, 0x32, 0x2f, 0x64, 0x65, 0x6e, 0x73, 0x65, 0x5f, 0x36,
  0x2f, 0x4d, 0x61, 0x74, 0x4d, 0x75, 0x6c, 0x3b, 0x73, 0x65, 0x71, 0x75,
  0x65, 0x6e, 0x74, 0x69, 0x61, 0x6c, 0x5f, 0x32, 0x2f, 0x64, 0x65, 0x6e,
  0x73, 0x65, 0x5f, 0x36, 0x2f, 0x52, 0x65, 0x6c, 0x75, 0x3b, 0x73, 0x65,
  0x71, 0x75, 0x65, 0x6e, 0x74, 0x69, 0x61, 0x6c, 0x5f, 0x32, 0x2f, 0x64,
  0x65, 0x6e, 0x73, 0x65, 0x5f, 0x36, 0x2f, 0x42, 0x69, 0x61, 0x73, 0x41,
  0x64, 0x64, 0x00, 0x00, 0x02, 0x00, 0x00, 0x00, 0x01, 0x00, 0x00, 0x00,
  0x10, 0x00, 0x00, 0x00, 0x9a, 0xfc, 0xff, 0xff, 0x00, 0x00, 0x00, 0x01,
  0x10, 0x00, 0x00, 0x00, 0x10, 0x00, 0x00, 0x00, 0x0d, 0x00, 0x00, 0x00,
  0x2c, 0x00, 0x00, 0x00, 0x08, 0xfc, 0xff, 0xff, 0x1c, 0x00, 0x00, 0x00,
  0x73, 0x65, 0x71, 0x75, 0x65, 0x6e, 0x74, 0x69, 0x61, 0x6c, 0x5f, 0x32,
  0x2f, 0x64, 0x65, 0x6e, 0x73, 0x65, 0x5f, 0x31, 0x31, 0x2f, 0x4d, 0x61,
  0x74, 0x4d, 0x75, 0x6c, 0x00, 0x00, 0x00, 0x00, 0x02, 0x00, 0x00, 0x00,
  0x03, 0x00, 0x00, 0x00, 0x20, 0x00, 0x00, 0x00, 0xe6, 0xfc, 0xff, 0xff,
  0x00, 0x00, 0x00, 0x01, 0x10, 0x00, 0x00, 0x00, 0x10, 0x00, 0x00, 0x00,
  0x0c, 0x00, 0x00, 0x00, 0x2c, 0x00, 0x00, 0x00, 0x54, 0xfc, 0xff, 0xff,
  0x1c, 0x00, 0x00, 0x00, 0x73, 0x65, 0x71, 0x75, 0x65, 0x6e, 0x74, 0x69,
  0x61, 0x6c, 0x5f, 0x32, 0x2f, 0x64, 0x65, 0x6e, 0x73, 0x65, 0x5f, 0x31,
  0x30, 0x2f, 0x4d, 0x61, 0x74, 0x4d, 0x75, 0x6c, 0x00, 0x00, 0x00, 0x00,
  0x02, 0x00, 0x00, 0x00, 0x20, 0x00, 0x00, 0x00, 0x1c, 0x00, 0x00, 0x00,
  0x32, 0xfd, 0xff, 0xff, 0x00, 0x00, 0x00, 0x01, 0x10, 0x00, 0x00, 0x00,
  0x10, 0x00, 0x00, 0x00, 0x0b, 0x00, 0x00, 0x00, 0x28, 0x00, 0x00, 0x00,
  0xa0, 0xfc, 0xff, 0xff, 0x1b, 0x00, 0x00, 0x00, 0x73, 0x65, 0x71, 0x75,
  0x65, 0x6e, 0x74, 0x69, 0x61, 0x6c, 0x5f, 0x32, 0x2f, 0x64, 0x65, 0x6e,
  0x73, 0x65, 0x5f, 0x39, 0x2f, 0x4d, 0x61, 0x74, 0x4d, 0x75, 0x6c, 0x00,
  0x02, 0x00, 0x00, 0x00, 0x1c, 0x00, 0x00, 0x00, 0x18, 0x00, 0x00, 0x00,
  0x7a, 0xfd, 0xff, 0xff, 0x00, 0x00, 0x00, 0x01, 0x10, 0x00, 0x00, 0x00,
  0x10, 0x00, 0x00, 0x00, 0x0a, 0x00, 0x00, 0x00, 0x28, 0x00, 0x00, 0x00,
  0xe8, 0xfc, 0xff, 0xff, 0x1b, 0x00, 0x00, 0x00, 0x73, 0x65, 0x71, 0x75,
  0x65, 0x6e, 0x74, 0x69, 0x61, 0x6c, 0x5f, 0x32, 0x2f, 0x64, 0x65, 0x6e,
  0x73, 0x65, 0x5f, 0x38, 0x2f, 0x4d, 0x61, 0x74, 0x4d, 0x75, 0x6c, 0x00,
  0x02, 0x00, 0x00, 0x00, 0x18, 0x00, 0x00, 0x00, 0x14, 0x00, 0x00, 0x00,
  0xc2, 0xfd, 0xff, 0xff, 0x00, 0x00, 0x00, 0x01, 0x10, 0x00, 0x00, 0x00,
  0x10, 0x00, 0x00, 0x00, 0x09, 0x00, 0x00, 0x00, 0x28, 0x00, 0x00, 0x00,
  0x30, 0xfd, 0xff, 0xff, 0x1b, 0x00, 0x00, 0x00, 0x73, 0x65, 0x71, 0x75,
  0x65, 0x6e, 0x74, 0x69, 0x61, 0x6c, 0x5f, 0x32, 0x2f, 0x64, 0x65, 0x6e,
  0x73, 0x65, 0x5f, 0x37, 0x2f, 0x4d, 0x61, 0x74, 0x4d, 0x75, 0x6c, 0x00,
  0x02, 0x00, 0x00, 0x00, 0x14, 0x00, 0x00, 0x00, 0x10, 0x00, 0x00, 0x00,
  0x0a, 0xfe, 0xff, 0xff, 0x00, 0x00, 0x00, 0x01, 0x10, 0x00, 0x00, 0x00,
  0x10, 0x00, 0x00, 0x00, 0x08, 0x00, 0x00, 0x00, 0x28, 0x00, 0x00, 0x00,
  0x78, 0xfd, 0xff, 0xff, 0x1b, 0x00, 0x00, 0x00, 0x73, 0x65, 0x71, 0x75,
  0x65, 0x6e, 0x74, 0x69, 0x61, 0x6c, 0x5f, 0x32, 0x2f, 0x64, 0x65, 0x6e,
  0x73, 0x65, 0x5f, 0x36, 0x2f, 0x4d, 0x61, 0x74, 0x4d, 0x75, 0x6c, 0x00,
  0x02, 0x00, 0x00, 0x00, 0x10, 0x00, 0x00, 0x00, 0x03, 0x00, 0x00, 0x00,
  0x52, 0xfe, 0xff, 0xff, 0x00, 0x00, 0x00, 0x01, 0x10, 0x00, 0x00, 0x00,
  0x10, 0x00, 0x00, 0x00, 0x07, 0x00, 0x00, 0x00, 0x38, 0x00, 0x00, 0x00,
  0xc0, 0xfd, 0xff, 0xff, 0x2b, 0x00, 0x00, 0x00, 0x73, 0x65, 0x71, 0x75,
  0x65, 0x6e, 0x74, 0x69, 0x61, 0x6c, 0x5f, 0x32, 0x2f, 0x64, 0x65, 0x6e,
  0x73, 0x65, 0x5f, 0x36, 0x2f, 0x42, 0x69, 0x61, 0x73, 0x41, 0x64, 0x64,
  0x2f, 0x52, 0x65, 0x61, 0x64, 0x56, 0x61, 0x72, 0x69, 0x61, 0x62, 0x6c,
  0x65, 0x4f, 0x70, 0x00, 0x01, 0x00, 0x00, 0x00, 0x10, 0x00, 0x00, 0x00,
  0xa6, 0xfe, 0xff, 0xff, 0x00, 0x00, 0x00, 0x01, 0x10, 0x00, 0x00, 0x00,
  0x10, 0x00, 0x00, 0x00, 0x06, 0x00, 0x00, 0x00, 0x3c, 0x00, 0x00, 0x00,
  0x14, 0xfe, 0xff, 0xff, 0x2c, 0x00, 0x00, 0x00, 0x73, 0x65, 0x71, 0x75,
  0x65, 0x6e, 0x74, 0x69, 0x61, 0x6c, 0x5f, 0x32, 0x2f, 0x64, 0x65, 0x6e,
  0x73, 0x65, 0x5f, 0x31, 0x31, 0x2f, 0x42, 0x69, 0x61, 0x73, 0x41, 0x64,
  0x64, 0x2f, 0x52, 0x65, 0x61, 0x64, 0x56, 0x61, 0x72, 0x69, 0x61, 0x62,
  0x6c, 0x65, 0x4f, 0x70, 0x00, 0x00, 0x00, 0x00, 0x01, 0x00, 0x00, 0x00,
  0x03, 0x00, 0x00, 0x00, 0xfe, 0xfe, 0xff, 0xff, 0x00, 0x00, 0x00, 0x01,
  0x10, 0x00, 0x00, 0x00, 0x10, 0x00, 0x00, 0x00, 0x05, 0x00, 0x00, 0x00,
  0x3c, 0x00, 0x00, 0x00, 0x6c, 0xfe, 0xff, 0xff, 0x2c, 0x00, 0x00, 0x00,
  0x73, 0x65, 0x71, 0x75, 0x65, 0x6e, 0x74, 0x69, 0x61, 0x6c, 0x5f, 0x32,
  0x2f, 0x64, 0x65, 0x6e, 0x73, 0x65, 0x5f, 0x31, 0x30, 0x2f, 0x42, 0x69,
  0x61, 0x73, 0x41, 0x64, 0x64, 0x2f, 0x52, 0x65, 0x61, 0x64, 0x56, 0x61,
  0x72, 0x69, 0x61, 0x62, 0x6c, 0x65, 0x4f, 0x70, 0x00, 0x00, 0x00, 0x00,
  0x01, 0x00, 0x00, 0x00, 0x20, 0x00, 0x00, 0x00, 0x56, 0xff, 0xff, 0xff,
  0x00, 0x00, 0x00, 0x01, 0x10, 0x00, 0x00, 0x00, 0x10, 0x00, 0x00, 0x00,
  0x04, 0x00, 0x00, 0x00, 0x38, 0x00, 0x00, 0x00, 0xc4, 0xfe, 0xff, 0xff,
  0x2b, 0x00, 0x00, 0x00, 0x73, 0x65, 0x71, 0x75, 0x65, 0x6e, 0x74, 0x69,
  0x61, 0x6c, 0x5f, 0x32, 0x2f, 0x64, 0x65, 0x6e, 0x73, 0x65, 0x5f, 0x37,
  0x2f, 0x42, 0x69, 0x61, 0x73, 0x41, 0x64, 0x64, 0x2f, 0x52, 0x65, 0x61,
  0x64, 0x56, 0x61, 0x72, 0x69, 0x61, 0x62, 0x6c, 0x65, 0x4f, 0x70, 0x00,
  0x01, 0x00, 0x00, 0x00, 0x14, 0x00, 0x00, 0x00, 0xaa, 0xff, 0xff, 0xff,
  0x00, 0x00, 0x00, 0x01, 0x10, 0x00, 0x00, 0x00, 0x10, 0x00, 0x00, 0x00,
  0x03, 0x00, 0x00, 0x00, 0x38, 0x00, 0x00, 0x00, 0x18, 0xff, 0xff, 0xff,
  0x2b, 0x00, 0x00, 0x00, 0x73, 0x65, 0x71, 0x75, 0x65, 0x6e, 0x74, 0x69,
  0x61, 0x6c, 0x5f, 0x32, 0x2f, 0x64, 0x65, 0x6e, 0x73, 0x65, 0x5f, 0x38,
  0x2f, 0x42, 0x69, 0x61, 0x73, 0x41, 0x64, 0x64, 0x2f, 0x52, 0x65, 0x61,
  0x64, 0x56, 0x61, 0x72, 0x69, 0x61, 0x62, 0x6c, 0x65, 0x4f, 0x70, 0x00,
  0x01, 0x00, 0x00, 0x00, 0x18, 0x00, 0x00, 0x00, 0x00, 0x00, 0x16, 0x00,
  0x18, 0x00, 0x14, 0x00, 0x00, 0x00, 0x10, 0x00, 0x0c, 0x00, 0x08, 0x00,
  0x00, 0x00, 0x00, 0x00, 0x00, 0x00, 0x07, 0x00, 0x16, 0x00, 0x00, 0x00,
  0x00, 0x00, 0x00, 0x01, 0x10, 0x00, 0x00, 0x00, 0x10, 0x00, 0x00, 0x00,
  0x02, 0x00, 0x00, 0x00, 0x38, 0x00, 0x00, 0x00, 0x84, 0xff, 0xff, 0xff,
  0x2b, 0x00, 0x00, 0x00, 0x73, 0x65, 0x71, 0x75, 0x65, 0x6e, 0x74, 0x69,
  0x61, 0x6c, 0x5f, 0x32, 0x2f, 0x64, 0x65, 0x6e, 0x73, 0x65, 0x5f, 0x39,
  0x2f, 0x42, 0x69, 0x61, 0x73, 0x41, 0x64, 0x64, 0x2f, 0x52, 0x65, 0x61,
  0x64, 0x56, 0x61, 0x72, 0x69, 0x61, 0x62, 0x6c, 0x65, 0x4f, 0x70, 0x00,
  0x01, 0x00, 0x00, 0x00, 0x1c, 0x00, 0x00, 0x00, 0x00, 0x00, 0x16, 0x00,
  0x1c, 0x00, 0x18, 0x00, 0x00, 0x00, 0x14, 0x00, 0x10, 0x00, 0x0c, 0x00,
  0x00, 0x00, 0x00, 0x00, 0x08, 0x00, 0x07, 0x00, 0x16, 0x00, 0x00, 0x00,
  0x00, 0x00, 0x00, 0x01, 0x14, 0x00, 0x00, 0x00, 0x20, 0x00, 0x00, 0x00,
  0x20, 0x00, 0x00, 0x00, 0x01, 0x00, 0x00, 0x00, 0x38, 0x00, 0x00, 0x00,
  0x02, 0x00, 0x00, 0x00, 0xff, 0xff, 0xff, 0xff, 0x03, 0x00, 0x00, 0x00,
  0x04, 0x00, 0x04, 0x00, 0x04, 0x00, 0x00, 0x00, 0x19, 0x00, 0x00, 0x00,
  0x73, 0x65, 0x72, 0x76, 0x69, 0x6e, 0x67, 0x5f, 0x64, 0x65, 0x66, 0x61,
  0x75, 0x6c, 0x74, 0x5f, 0x69, 0x6e, 0x70, 0x75, 0x74, 0x5f, 0x33, 0x3a,
  0x30, 0x00, 0x00, 0x00, 0x02, 0x00, 0x00, 0x00, 0x01, 0x00, 0x00, 0x00,
  0x03, 0x00, 0x00, 0x00, 0x02, 0x00, 0x00, 0x00, 0x20, 0x00, 0x00, 0x00,
  0x04, 0x00, 0x00, 0x00, 0xf4, 0xff, 0xff, 0xff, 0x19, 0x00, 0x00, 0x00,
  0x00, 0x00, 0x00, 0x19, 0x0c, 0x00, 0x0c, 0x00, 0x0b, 0x00, 0x00, 0x00,
  0x00, 0x00, 0x04, 0x00, 0x0c, 0x00, 0x00, 0x00, 0x09, 0x00, 0x00, 0x00,
  0x00, 0x00, 0x00, 0x09
};
