const unsigned char model[] = {
  0x1c, 0x00, 0x00, 0x00, 0x54, 0x46, 0x4c, 0x33, 0x14, 0x00, 0x20, 0x00,
  0x1c, 0x00, 0x18, 0x00, 0x14, 0x00, 0x10, 0x00, 0x0c, 0x00, 0x00, 0x00,
  0x08, 0x00, 0x04, 0x00, 0x14, 0x00, 0x00, 0x00, 0x1c, 0x00, 0x00, 0x00,
  0x8c, 0x00, 0x00, 0x00, 0xe4, 0x00, 0x00, 0x00, 0x84, 0x11, 0x00, 0x00,
  0x94, 0x11, 0x00, 0x00, 0x68, 0x17, 0x00, 0x00, 0x03, 0x00, 0x00, 0x00,
  0x01, 0x00, 0x00, 0x00, 0x10, 0x00, 0x00, 0x00, 0x00, 0x00, 0x0a, 0x00,
  0x10, 0x00, 0x0c, 0x00, 0x08, 0x00, 0x04, 0x00, 0x0a, 0x00, 0x00, 0x00,
  0x0c, 0x00, 0x00, 0x00, 0x1c, 0x00, 0x00, 0x00, 0x38, 0x00, 0x00, 0x00,
  0x0f, 0x00, 0x00, 0x00, 0x73, 0x65, 0x72, 0x76, 0x69, 0x6e, 0x67, 0x5f,
  0x64, 0x65, 0x66, 0x61, 0x75, 0x6c, 0x74, 0x00, 0x01, 0x00, 0x00, 0x00,
  0x04, 0x00, 0x00, 0x00, 0x9c, 0xff, 0xff, 0xff, 0x0a, 0x00, 0x00, 0x00,
  0x04, 0x00, 0x00, 0x00, 0x07, 0x00, 0x00, 0x00, 0x64, 0x65, 0x6e, 0x73,
  0x65, 0x5f, 0x35, 0x00, 0x01, 0x00, 0x00, 0x00, 0x04, 0x00, 0x00, 0x00,
  0x5e, 0xee, 0xff, 0xff, 0x04, 0x00, 0x00, 0x00, 0x07, 0x00, 0x00, 0x00,
  0x69, 0x6e, 0x70, 0x75, 0x74, 0x5f, 0x32, 0x00, 0x02, 0x00, 0x00, 0x00,
  0x34, 0x00, 0x00, 0x00, 0x04, 0x00, 0x00, 0x00, 0xdc, 0xff, 0xff, 0xff,
  0x0d, 0x00, 0x00, 0x00, 0x04, 0x00, 0x00, 0x00, 0x13, 0x00, 0x00, 0x00,
  0x43, 0x4f, 0x4e, 0x56, 0x45, 0x52, 0x53, 0x49, 0x4f, 0x4e, 0x5f, 0x4d,
  0x45, 0x54, 0x41, 0x44, 0x41, 0x54, 0x41, 0x00, 0x08, 0x00, 0x0c, 0x00,
  0x08, 0x00, 0x04, 0x00, 0x08, 0x00, 0x00, 0x00, 0x0c, 0x00, 0x00, 0x00,
  0x04, 0x00, 0x00, 0x00, 0x13, 0x00, 0x00, 0x00, 0x6d, 0x69, 0x6e, 0x5f,
  0x72, 0x75, 0x6e, 0x74, 0x69, 0x6d, 0x65, 0x5f, 0x76, 0x65, 0x72, 0x73,
  0x69, 0x6f, 0x6e, 0x00, 0x0e, 0x00, 0x00, 0x00, 0x9c, 0x10, 0x00, 0x00,
  0x94, 0x10, 0x00, 0x00, 0x78, 0x10, 0x00, 0x00, 0x08, 0x10, 0x00, 0x00,
  0x78, 0x0f, 0x00, 0x00, 0xe8, 0x0d, 0x00, 0x00, 0xd8, 0x01, 0x00, 0x00,
  0xa8, 0x00, 0x00, 0x00, 0xa0, 0x00, 0x00, 0x00, 0x98, 0x00, 0x00, 0x00,
  0x90, 0x00, 0x00, 0x00, 0x88, 0x00, 0x00, 0x00, 0x68, 0x00, 0x00, 0x00,
  0x04, 0x00, 0x00, 0x00, 0x0a, 0xef, 0xff, 0xff, 0x04, 0x00, 0x00, 0x00,
  0x54, 0x00, 0x00, 0x00, 0x0c, 0x00, 0x00, 0x00, 0x08, 0x00, 0x0e, 0x00,
  0x08, 0x00, 0x04, 0x00, 0x08, 0x00, 0x00, 0x00, 0x10, 0x00, 0x00, 0x00,
  0x24, 0x00, 0x00, 0x00, 0x00, 0x00, 0x06, 0x00, 0x08, 0x00, 0x04, 0x00,
  0x06, 0x00, 0x00, 0x00, 0x04, 0x00, 0x00, 0x00, 0x00, 0x00, 0x00, 0x00,
  0x00, 0x00, 0x0a, 0x00, 0x10, 0x00, 0x0c, 0x00, 0x08, 0x00, 0x04, 0x00,
  0x0a, 0x00, 0x00, 0x00, 0x02, 0x00, 0x00, 0x00, 0x02, 0x00, 0x00, 0x00,
  0x04, 0x00, 0x00, 0x00, 0x06, 0x00, 0x00, 0x00, 0x32, 0x2e, 0x31, 0x35,
  0x2e, 0x30, 0x00, 0x00, 0x6a, 0xef, 0xff, 0xff, 0x04, 0x00, 0x00, 0x00,
  0x10, 0x00, 0x00, 0x00, 0x31, 0x2e, 0x35, 0x2e, 0x30, 0x00, 0x00, 0x00,
  0x00, 0x00, 0x00, 0x00, 0x00, 0x00, 0x00, 0x00, 0x5c, 0xea, 0xff, 0xff,
  0x60, 0xea, 0xff, 0xff, 0x64, 0xea, 0xff, 0xff, 0x68, 0xea, 0xff, 0xff,
  0x96, 0xef, 0xff, 0xff, 0x04, 0x00, 0x00, 0x00, 0x20, 0x01, 0x00, 0x00,
  0xf8, 0x7f, 0xe1, 0xbd, 0xde, 0xe8, 0xdc, 0xbf, 0xbb, 0x09, 0x11, 0xbd,
  0x8b, 0x0d, 0xe3, 0x3d, 0x16, 0x06, 0x54, 0xc0, 0xf0, 0xd6, 0xab, 0xbd,
  0x62, 0x4b, 0x23, 0x3e, 0x35, 0x4d, 0x2e, 0xc0, 0x06, 0xa7, 0xbc, 0xbe,
  0x7d, 0x52, 0x90, 0x3e, 0x47, 0x50, 0x83, 0x3f, 0x6b, 0x48, 0x77, 0xbe,
  0x0a, 0xb3, 0x23, 0xbe, 0xe2, 0x19, 0x97, 0x3f, 0xad, 0xea, 0xad, 0x3f,
  0xd4, 0x6b, 0xcf, 0xbd, 0x6f, 0xb2, 0xc2, 0x3e, 0x18, 0x1e, 0xe3, 0xbd,
  0x9f, 0x68, 0x49, 0xc0, 0x91, 0xb0, 0xca, 0x3d, 0xa2, 0xc3, 0x6b, 0x3d,
  0x38, 0x18, 0xea, 0xbf, 0xce, 0x8f, 0x93, 0x3f, 0x28, 0xd7, 0x56, 0xc0,
  0x1e, 0xf7, 0x96, 0xbe, 0x6b, 0xe3, 0x1c, 0xbf, 0xd3, 0x67, 0x09, 0x3c,
  0xf3, 0xcf, 0xe0, 0x3d, 0x09, 0x6a, 0xa8, 0x3f, 0xa9, 0x07, 0xdf, 0xbe,
  0xee, 0xef, 0xc8, 0xbe, 0x4a, 0x6d, 0x93, 0x3f, 0xd8, 0x67, 0x5f, 0x3d,
  0xab, 0x4c, 0xdb, 0xbe, 0x3f, 0x94, 0xa4, 0xbf, 0x4f, 0x6b, 0xf4, 0xbc,
  0x88, 0x04, 0x2b, 0x3d, 0x12, 0x11, 0x18, 0x3f, 0x72, 0x12, 0x61, 0x3f,
  0xa0, 0x2f, 0x89, 0xbc, 0x55, 0x1d, 0xf0, 0x3d, 0x24, 0x39, 0xd8, 0x3d,
  0x2b, 0x5d, 0x80, 0x3f, 0x27, 0xf4, 0xdd, 0xbf, 0x42, 0x4e, 0xe0, 0x3e,
  0x57, 0x46, 0xcb, 0x3f, 0xa7, 0x7a, 0x9d, 0x3f, 0x77, 0x17, 0x62, 0x3f,
  0x34, 0x17, 0xab, 0x3e, 0x23, 0x9a, 0xbe, 0x3f, 0x23, 0x8a, 0x30, 0x3e,
  0xb3, 0xbc, 0x08, 0xbe, 0xc1, 0xbe, 0xc6, 0x3e, 0x31, 0xc6, 0xd5, 0x3e,
  0x66, 0xe4, 0x78, 0xbe, 0x53, 0xb8, 0x25, 0x3e, 0x6f, 0x57, 0xd2, 0x3e,
  0x63, 0x8f, 0xa2, 0x3e, 0xa1, 0x99, 0xef, 0x3e, 0x5a, 0xef, 0xe3, 0xbe,
  0x84, 0x0a, 0xb3, 0xbe, 0x75, 0x1c, 0xb2, 0xbf, 0x1f, 0x27, 0xac, 0xbf,
  0xb2, 0x89, 0x3d, 0x3e, 0x85, 0x17, 0xc7, 0x3d, 0x70, 0x56, 0xbf, 0x3c,
  0x62, 0x41, 0x2c, 0x3f, 0x37, 0xaf, 0x3b, 0x3f, 0x70, 0x3c, 0x56, 0xbe,
  0xf5, 0x97, 0xec, 0xbf, 0xf9, 0xa4, 0xbb, 0xbf, 0xc7, 0x0c, 0x41, 0x3f,
  0xc2, 0xf0, 0xff, 0xff, 0x04, 0x00, 0x00, 0x00, 0x00, 0x0c, 0x00, 0x00,
  0x8d, 0xc3, 0x99, 0xbe, 0xfc, 0x88, 0x3f, 0x3e, 0x68, 0x7f, 0x82, 0x3e,
  0x62, 0xed, 0x8f, 0x3e, 0x5d, 0x35, 0xe5, 0x3d, 0xa7, 0x1c, 0x44, 0x3e,
  0x2f, 0xa7, 0x4a, 0xbe, 0x46, 0x13, 0x9d, 0xbe, 0x9f, 0x28, 0x97, 0xbe,
  0xde, 0x1e, 0xef, 0xbd, 0xa8, 0x00, 0xf6, 0xbd, 0x4c, 0x57, 0x4b, 0x3e,
  0xa9, 0xbe, 0x0e, 0xbe, 0xff, 0x61, 0x01, 0xbe, 0x20, 0x88, 0x7a, 0xbc,
  0xf8, 0x89, 0x5e, 0x3e, 0xc6, 0xa0, 0xf8, 0xbd, 0xb2, 0x06, 0x86, 0xbe,
  0x08, 0x44, 0x5e, 0x3e, 0xf0, 0x81, 0xc5, 0x3d, 0xa9, 0x3e, 0x45, 0xbe,
  0x24, 0xcb, 0x34, 0x3e, 0x20, 0x99, 0x37, 0x3e, 0x19, 0x79, 0x8b, 0xbe,
  0xb5, 0x22, 0xa5, 0x3d, 0xf4, 0xe9, 0xaf, 0xbd, 0xed, 0x9d, 0xb6, 0x3d,
  0x2a, 0xff, 0x84, 0xbe, 0xfc, 0xbd, 0x1b, 0xbe, 0x4b, 0x40, 0xa7, 0x3d,
  0x08, 0x1d, 0xd9, 0xbd, 0x00, 0xd9, 0xd3, 0xbc, 0x86, 0x6a, 0x89, 0xbe,
  0xa4, 0x48, 0xf3, 0xbd, 0xc1, 0xef, 0x0d, 0x3e, 0xe9, 0x3f, 0x3d, 0xbe,
  0x67, 0x74, 0xa5, 0x3e, 0x64, 0xa7, 0x1d, 0xbf, 0x71, 0xf1, 0x4b, 0x3f,
  0x86, 0x82, 0x16, 0x3e, 0x1e, 0x16, 0xb2, 0xbe, 0x62, 0xe5, 0x01, 0x3e,
  0x00, 0xbf, 0xdf, 0xbd, 0x4c, 0x10, 0x58, 0x3e, 0xf9, 0x68, 0x4e, 0x3d,
  0x14, 0xaf, 0x5a, 0x3e, 0x70, 0x65, 0x8e, 0xbe, 0xf8, 0x5a, 0x7b, 0xbe,
  0x2d, 0xdc, 0xd1, 0x3d, 0x76, 0xf6, 0x26, 0x3e, 0xb5, 0x51, 0xc9, 0x3d,
  0x8e, 0x2f, 0x9d, 0x3e, 0x3a, 0x51, 0x04, 0xbe, 0x43, 0x71, 0x83, 0xbf,
  0xb6, 0xab, 0x15, 0x3e, 0xb0, 0x3a, 0x62, 0x3e, 0x07, 0xee, 0xb7, 0x3e,
  0xdc, 0x2a, 0x60, 0x3f, 0x4d, 0x02, 0x92, 0x3f, 0x77, 0x21, 0xb1, 0x3e,
  0x54, 0x8f, 0x24, 0x3e, 0x55, 0x5f, 0x60, 0xbf, 0x23, 0x85, 0x3f, 0xbf,
  0x60, 0x24, 0x54, 0x3c, 0x85, 0xfd, 0x81, 0xbe, 0x93, 0x8f, 0x66, 0xbe,
  0xba, 0xcf, 0x04, 0xbe, 0x40, 0xa3, 0x1f, 0x3e, 0x2d, 0x24, 0x61, 0xbe,
  0x7f, 0xe0, 0xe8, 0xbd, 0x56, 0x0f, 0xd5, 0x3c, 0xdb, 0x04, 0x0d, 0xbe,
  0xdd, 0xbd, 0xba, 0xbd, 0x5f, 0x85, 0x89, 0xbe, 0x8b, 0x59, 0xc2, 0x3d,
  0x84, 0x8b, 0x27, 0x3e, 0xc8, 0xae, 0x7b, 0x3d, 0xec, 0xf2, 0x53, 0xbe,
  0x66, 0xae, 0x8a, 0x3e, 0xa3, 0x3c, 0x8b, 0xbe, 0x7b, 0x05, 0x9f, 0x3d,
  0x24, 0xcf, 0x81, 0x3e, 0x0a, 0x58, 0x9e, 0xbd, 0x1e, 0x7e, 0x86, 0x3e,
  0x64, 0x5d, 0x98, 0x3e, 0xc4, 0x0e, 0x86, 0x3e, 0xe0, 0xf7, 0x4f, 0x3d,
  0x78, 0x65, 0x48, 0x3e, 0x4a, 0x30, 0x9c, 0xbe, 0x72, 0x5f, 0x99, 0x3e,
  0x30, 0x58, 0x73, 0xbd, 0x5f, 0xdf, 0x39, 0x3e, 0x00, 0x56, 0xf6, 0xbc,
  0x17, 0x9f, 0x98, 0xbb, 0x9e, 0xae, 0x48, 0x3e, 0x54, 0x17, 0x26, 0x3e,
  0xe6, 0x6e, 0x8b, 0xbe, 0x68, 0xc7, 0xbe, 0x3d, 0x50, 0x90, 0x59, 0x3d,
  0xc4, 0x43, 0xfa, 0x3d, 0x7c, 0xcf, 0xa6, 0x3e, 0x59, 0xc4, 0xa6, 0xbe,
  0x0c, 0xc4, 0x7f, 0x3e, 0x38, 0x1a, 0x6e, 0xbd, 0x94, 0xa9, 0xec, 0xbd,
  0xde, 0x2e, 0x95, 0x3e, 0xa0, 0x20, 0xf6, 0xbc, 0xd4, 0xb7, 0x97, 0xbd,
  0x47, 0x16, 0x83, 0xbe, 0x99, 0x71, 0x23, 0xbe, 0x58, 0x9f, 0x10, 0xbe,
  0x6c, 0x7f, 0x52, 0x3e, 0x33, 0x16, 0x09, 0xbe, 0x80, 0xf8, 0x7b, 0xbb,
  0x8d, 0xc7, 0x52, 0xbc, 0x14, 0xe1, 0xbf, 0x3d, 0x15, 0xc2, 0x97, 0x3e,
  0x85, 0x96, 0x09, 0x3e, 0xbe, 0x9d, 0xc4, 0xbd, 0x16, 0x34, 0x3f, 0xbe,
  0x21, 0x47, 0x30, 0xbe, 0xa8, 0x9a, 0x18, 0xbe, 0xae, 0xd6, 0x62, 0xbe,
  0xe6, 0x76, 0x0e, 0xbe, 0x96, 0x71, 0x20, 0xbe, 0x1d, 0x5e, 0xe4, 0x3c,
  0xb6, 0x21, 0x85, 0xbe, 0xfc, 0xd3, 0x9c, 0x3d, 0xc9, 0x26, 0x20, 0x3e,
  0x08, 0x6f, 0x8b, 0x3d, 0x31, 0xff, 0x8f, 0xbe, 0xdf, 0xd9, 0x46, 0xbe,
  0x6c, 0xe9, 0xaf, 0x3e, 0x11, 0xcc, 0x01, 0xbd, 0x03, 0x48, 0x33, 0x3f,
  0x28, 0xa5, 0x36, 0x3d, 0x4d, 0x4e, 0xcf, 0x3f, 0xfd, 0x62, 0x96, 0xbd,
  0xd6, 0x2b, 0x98, 0x3f, 0x84, 0x1a, 0x47, 0x3e, 0x4e, 0x1b, 0x12, 0xbe,
  0x0e, 0x49, 0x98, 0x3e, 0x2e, 0xba, 0xc4, 0xbd, 0x4c, 0x6d, 0x01, 0x40,
  0xea, 0x82, 0xf4, 0xbe, 0xe4, 0x3d, 0x93, 0xbd, 0xd1, 0x32, 0xa2, 0x3d,
  0x42, 0xed, 0x8f, 0xbe, 0xfd, 0x6a, 0x67, 0xbf, 0xd7, 0x1b, 0x1c, 0xbe,
  0x40, 0x6f, 0x94, 0x3d, 0x56, 0x52, 0x88, 0x3e, 0x36, 0x3b, 0xc3, 0x3e,
  0x54, 0xf6, 0x11, 0x40, 0x27, 0xa4, 0xe1, 0x3f, 0x21, 0x0e, 0x4b, 0x3f,
  0x5d, 0xc7, 0x96, 0xbe, 0x36, 0xfc, 0x7a, 0xbf, 0x1d, 0x29, 0xf7, 0x3f,
  0xde, 0xeb, 0x85, 0xbe, 0x44, 0xd2, 0x2b, 0x3e, 0xd1, 0xef, 0x34, 0xbe,
  0xb8, 0x1e, 0xab, 0x3d, 0x9a, 0xa6, 0x23, 0xbe, 0xc0, 0xa2, 0xf4, 0x3d,
  0x7a, 0xf2, 0x65, 0xbe, 0x40, 0xb2, 0x68, 0xbe, 0xaf, 0x96, 0x15, 0xbe,
  0x30, 0xfd, 0x6e, 0x3e, 0x18, 0xd4, 0xb6, 0x3d, 0x0f, 0x53, 0x3b, 0xbe,
  0x9f, 0x87, 0x81, 0xbe, 0x5e, 0x61, 0x93, 0xbe, 0x3c, 0xdf, 0x89, 0x3e,
  0xe0, 0xb0, 0xe8, 0x3c, 0xca, 0x46, 0x85, 0x3e, 0x00, 0xfb, 0x01, 0x3e,
  0xb0, 0x62, 0xbd, 0xbc, 0x60, 0x73, 0x26, 0xbc, 0x0c, 0x30, 0x83, 0x3e,
  0x0b, 0xd3, 0x98, 0xbe, 0x00, 0xf2, 0x7e, 0x3c, 0xd8, 0x19, 0x35, 0x3e,
  0xcc, 0x57, 0x17, 0x3e, 0xde, 0xe9, 0x1f, 0x3e, 0x9d, 0x00, 0x35, 0xbe,
  0x20, 0x67, 0x2f, 0x3e, 0x32, 0x5b, 0x86, 0xbe, 0xd8, 0xb0, 0x2e, 0xbe,
  0x00, 0x72, 0x6b, 0xbb, 0xb4, 0x4e, 0xb9, 0x3d, 0x64, 0xd1, 0x56, 0x3e,
  0xf0, 0x24, 0xba, 0x3d, 0x10, 0x10, 0x98, 0x3e, 0xb7, 0x1f, 0x4b, 0xbe,
  0xd0, 0x9a, 0x4e, 0x3e, 0x1a, 0x57, 0x2c, 0xbd, 0xc4, 0xb7, 0x14, 0xbb,
  0x52, 0xc2, 0x8a, 0xbe, 0xb0, 0xf8, 0xea, 0xbd, 0xed, 0x6a, 0xa3, 0xbd,
  0x53, 0x00, 0x8b, 0xbe, 0xa1, 0x5a, 0x95, 0x3e, 0x40, 0xc5, 0x54, 0xbe,
  0x48, 0x37, 0x14, 0xbd, 0x28, 0x9d, 0x0a, 0xbe, 0xd8, 0xe2, 0x47, 0x3e,
  0x71, 0x0d, 0x6a, 0x3e, 0x94, 0x5e, 0x5d, 0xbe, 0x2b, 0xa6, 0x8c, 0xbe,
  0x28, 0xe8, 0xaa, 0xbe, 0xd8, 0x82, 0x8d, 0x3e, 0x74, 0xae, 0x82, 0x3d,
  0x9b, 0x4b, 0x91, 0x3e, 0x30, 0x08, 0xad, 0x3c, 0xf4, 0xee, 0x80, 0xbe,
  0x26, 0x70, 0x88, 0xbd, 0xd5, 0xa2, 0x43, 0xbe, 0xd7, 0x43, 0x01, 0xbe,
  0x3a, 0x3e, 0xc9, 0x3c, 0x80, 0x20, 0xc8, 0x3b, 0x65, 0xb6, 0x6b, 0xbe,
  0xb5, 0xba, 0x8c, 0x3e, 0xa2, 0x4e, 0x88, 0x3e, 0x9e, 0xf1, 0x28, 0xbe,
  0x58, 0xf4, 0x33, 0x3e, 0xdc, 0x61, 0xb5, 0xbd, 0xec, 0x21, 0xa4, 0xbd,
  0x8d, 0x72, 0x6f, 0xbe, 0x24, 0xdd, 0xbe, 0x3e, 0x50, 0xab, 0x12, 0x3f,
  0x01, 0x0f, 0x92, 0xbe, 0x0a, 0x7c, 0xbc, 0x3f, 0x3b, 0x13, 0x11, 0x3e,
  0x2b, 0x25, 0x82, 0x3f, 0x5b, 0x8c, 0x6d, 0xbe, 0xea, 0x92, 0x42, 0x3e,
  0xa0, 0x27, 0x16, 0xbd, 0x30, 0x79, 0x0c, 0x3d, 0xb5, 0xd2, 0x0c, 0x40,
  0x3a, 0xc2, 0x72, 0xbe, 0x79, 0xd3, 0x10, 0xbe, 0x2f, 0x18, 0x18, 0x3d,
  0x78, 0xc6, 0xe8, 0x3d, 0x71, 0x8a, 0xe5, 0xbe, 0x72, 0x10, 0xfd, 0xbd,
  0x78, 0x38, 0x40, 0x3e, 0x16, 0x10, 0xa4, 0xbd, 0x8d, 0xee, 0x00, 0x3f,
  0x35, 0x7e, 0xf3, 0x3f, 0xa1, 0x5c, 0xf5, 0x3f, 0xf1, 0x1a, 0x95, 0x3f,
  0x77, 0xb1, 0x27, 0xbe, 0x56, 0x19, 0x89, 0xbf, 0x3f, 0xfb, 0xb7, 0x3f,
  0xe0, 0x58, 0x46, 0xbc, 0xab, 0x57, 0x55, 0xbe, 0x50, 0x94, 0xa3, 0xbd,
  0x28, 0xc1, 0xf8, 0x3d, 0x58, 0x23, 0x7d, 0x3e, 0x83, 0x7d, 0x9b, 0xbe,
  0x5e, 0x34, 0x9d, 0x3e, 0x88, 0xd0, 0x74, 0xbe, 0x86, 0xe2, 0x86, 0x3e,
  0x1b, 0x1f, 0x36, 0xbe, 0x82, 0xb2, 0x15, 0x3e, 0x90, 0x21, 0x86, 0x3d,
  0x70, 0x49, 0x10, 0x3d, 0xa8, 0x87, 0x65, 0x3d, 0x00, 0x33, 0xdc, 0xbb,
  0xa0, 0x96, 0x73, 0x3e, 0x68, 0xdd, 0x32, 0x3e, 0xe6, 0x3e, 0x9c, 0x3e,
  0x0c, 0xb8, 0x3a, 0x3e, 0x4c, 0xbc, 0x74, 0xbe, 0x42, 0xd5, 0x89, 0x3e,
  0xa0, 0xef, 0x40, 0xbc, 0x26, 0xa0, 0x18, 0x3e, 0x53, 0x40, 0x4f, 0xbe,
  0x71, 0xd0, 0x89, 0xbe, 0x50, 0xcd, 0x79, 0xbe, 0x53, 0xb2, 0x25, 0xbe,
  0x34, 0x4b, 0x70, 0x3e, 0x40, 0xa3, 0xfa, 0xbc, 0x50, 0x13, 0x2c, 0xbd,
  0x00, 0xfd, 0xa3, 0x3c, 0xa8, 0x65, 0xe8, 0xbd, 0x10, 0x04, 0x71, 0xbe,
  0xf0, 0x8c, 0xff, 0x3d, 0xb4, 0x33, 0xe1, 0x3d, 0x90, 0xa8, 0xd9, 0xbd,
  0x88, 0xf7, 0x84, 0x3d, 0xe8, 0x12, 0xac, 0x3d, 0x28, 0x83, 0x9b, 0x3e,
  0x4a, 0xea, 0x03, 0x3e, 0x8c, 0x50, 0x6a, 0xbe, 0xf9, 0x0c, 0xa1, 0xbe,
  0x00, 0x41, 0xd6, 0xbc, 0x26, 0x1e, 0x23, 0xbe, 0x12, 0xce, 0x8d, 0xbe,
  0x8a, 0x8c, 0xa4, 0xbe, 0x8d, 0x0d, 0x2e, 0xbe, 0xe0, 0xae, 0x3d, 0x3e,
  0x46, 0xe6, 0x62, 0xbe, 0x18, 0x35, 0x69, 0x3e, 0x84, 0x81, 0x5a, 0x3e,
  0xe0, 0xf0, 0x36, 0x3d, 0x10, 0x36, 0xab, 0xbc, 0x78, 0x26, 0x49, 0x3e,
  0x55, 0x08, 0x76, 0xbe, 0xf2, 0xac, 0x88, 0x3e, 0x42, 0xcd, 0x78, 0xbe,
  0x16, 0xcd, 0x77, 0xbe, 0x3e, 0x7c, 0x96, 0xbe, 0x3e, 0xae, 0x86, 0x3e,
  0x18, 0x92, 0xe8, 0xbd, 0x1c, 0xab, 0x84, 0xbd, 0x00, 0x88, 0xc8, 0x3c,
  0xfa, 0xe4, 0x21, 0x3e, 0x91, 0xde, 0x86, 0xbe, 0xf0, 0x5f, 0xcd, 0xbd,
  0x81, 0xea, 0xa6, 0xbe, 0x7c, 0x52, 0x4b, 0x3e, 0x28, 0x82, 0x45, 0xbe,
  0x57, 0xc9, 0x61, 0x3f, 0x03, 0x7f, 0x90, 0x3e, 0x8e, 0xc3, 0x03, 0x3f,
  0x7d, 0x27, 0x80, 0xbe, 0x54, 0x15, 0xb8, 0xbf, 0x63, 0x6a, 0x1f, 0xbe,
  0xce, 0xa3, 0x21, 0xbf, 0x00, 0x35, 0xca, 0xba, 0x9a, 0x2f, 0xf8, 0x3e,
  0x48, 0x8d, 0x74, 0xbd, 0x9f, 0x82, 0x08, 0xbe, 0x2e, 0xb1, 0xa3, 0xbf,
  0x92, 0x54, 0xa2, 0x3f, 0xd8, 0x9c, 0x4e, 0x3e, 0x07, 0x83, 0x2d, 0x3f,
  0x84, 0x5a, 0xfa, 0x3d, 0x1d, 0x88, 0xcb, 0x3f, 0x3f, 0x45, 0x29, 0xbe,
  0xb8, 0x4b, 0x7a, 0xbe, 0x89, 0x8e, 0x72, 0xbe, 0x2f, 0xd6, 0xca, 0x3e,
  0x74, 0xea, 0x2d, 0xbf, 0x3b, 0x09, 0xef, 0xbe, 0xa5, 0xce, 0x1e, 0xbd,
  0xe8, 0xce, 0xa4, 0xbe, 0xe6, 0x85, 0xb1, 0x3f, 0xeb, 0xd0, 0xd1, 0xbf,
  0xeb, 0xdd, 0x67, 0xbe, 0x80, 0x63, 0xa1, 0x3e, 0x54, 0xc1, 0x5e, 0xbe,
  0x2e, 0x6f, 0x96, 0x3e, 0x00, 0x47, 0xc2, 0xbc, 0x27, 0xe9, 0x14, 0xbe,
  0xc0, 0xfc, 0x23, 0xbe, 0x3f, 0x41, 0x59, 0x3e, 0x64, 0x98, 0x86, 0xbd,
  0x7d, 0x50, 0x61, 0xbd, 0x83, 0xa2, 0xe7, 0x3d, 0x83, 0x5b, 0xa5, 0xbe,
  0xa0, 0xd4, 0x3a, 0x3e, 0xde, 0x0d, 0x80, 0x3e, 0x9c, 0x6a, 0xe8, 0xbd,
  0xec, 0xf9, 0x41, 0x3e, 0x2a, 0xd3, 0xed, 0xbd, 0xd9, 0xfd, 0x01, 0xbd,
  0xbc, 0xa6, 0xc3, 0xbd, 0x98, 0x14, 0x97, 0xbe, 0x18, 0xb7, 0x71, 0x3e,
  0xd9, 0x14, 0x94, 0x3e, 0x6f, 0x97, 0x8f, 0x3d, 0x38, 0x00, 0x27, 0xbe,
  0xec, 0x44, 0x95, 0x3e, 0xc0, 0xe4, 0xad, 0xbd, 0xac, 0x1f, 0x0c, 0x3d,
  0x1b, 0x21, 0xe1, 0x3c, 0x26, 0x03, 0xbf, 0x3d, 0x4c, 0x51, 0x4c, 0x3e,
  0xf1, 0xa0, 0xe0, 0xbd, 0x61, 0xce, 0x3c, 0x3e, 0x80, 0xdc, 0x9d, 0xbb,
  0x58, 0x44, 0x59, 0x3e, 0x60, 0x42, 0xbc, 0xbd, 0x98, 0x71, 0xc8, 0xbd,
  0xb2, 0xf3, 0x39, 0xbe, 0x20, 0x7d, 0x09, 0x3e, 0x1c, 0xc1, 0x9b, 0x3d,
  0x50, 0xc3, 0x1f, 0xbd, 0x11, 0x0c, 0x2d, 0xbe, 0x98, 0xdc, 0x50, 0xbd,
  0x78, 0x90, 0x98, 0xbd, 0x58, 0x37, 0xcd, 0x3d, 0xf8, 0xef, 0xde, 0x3d,
  0xe4, 0xd3, 0x36, 0xbe, 0x60, 0xef, 0x36, 0xbd, 0x88, 0x15, 0x4f, 0xbd,
  0x80, 0xc3, 0xa6, 0xbe, 0xe0, 0xbc, 0xc8, 0x3d, 0x48, 0xe4, 0x9b, 0xbe,
  0x71, 0x6b, 0x29, 0xbe, 0xa4, 0xfd, 0x22, 0x3e, 0x50, 0x5d, 0x41, 0xbd,
  0xb0, 0x93, 0xd0, 0xbc, 0xa0, 0xf0, 0x4c, 0x3e, 0x15, 0xbe, 0x07, 0xbe,
  0x4a, 0xa1, 0x1c, 0x3e, 0x5a, 0xe7, 0x02, 0xbe, 0xe0, 0xf4, 0xbe, 0xbd,
  0xa8, 0xe3, 0x3f, 0xbe, 0x36, 0xbd, 0x8e, 0x3e, 0x8c, 0x28, 0xb7, 0x3d,
  0xd4, 0xf0, 0xce, 0xbd, 0x24, 0x5a, 0x41, 0x3e, 0x92, 0xdf, 0x23, 0xbe,
  0xaa, 0x09, 0x26, 0x3e, 0x22, 0xe0, 0xa0, 0xbe, 0x80, 0x86, 0x0f, 0x3e,
  0x64, 0xea, 0xc6, 0xbd, 0xe4, 0x9a, 0x02, 0x3f, 0x18, 0x13, 0x38, 0xbf,
  0x4e, 0x44, 0x14, 0x3e, 0xfe, 0xf4, 0x57, 0x3f, 0x6b, 0x06, 0x07, 0x3e,
  0x48, 0x0d, 0xf5, 0x3a, 0x5a, 0xf8, 0xd2, 0xbd, 0xd2, 0x99, 0xc0, 0x3e,
  0xe2, 0x0b, 0x90, 0xbe, 0xbf, 0x30, 0x25, 0xbe, 0x13, 0xd0, 0x97, 0x3f,
  0x96, 0x82, 0xee, 0xbe, 0xa4, 0xb8, 0x4e, 0x3e, 0xcc, 0xad, 0xa3, 0x3d,
  0x84, 0xdd, 0xf5, 0xbd, 0x9c, 0x56, 0x10, 0x3d, 0xe8, 0x13, 0xc3, 0x3f,
  0xe6, 0xd7, 0x8f, 0xbe, 0x5f, 0x03, 0x7b, 0xbe, 0x99, 0xff, 0x61, 0x3e,
  0x7d, 0xbc, 0x37, 0xbf, 0xda, 0xc2, 0x9c, 0xbf, 0x6b, 0xf1, 0xb0, 0xbe,
  0xbc, 0x93, 0xc6, 0x3d, 0x8c, 0xc0, 0x35, 0x3e, 0x10, 0xaa, 0xa2, 0x3f,
  0x93, 0x38, 0x59, 0xbe, 0x65, 0x47, 0x0a, 0x3e, 0xae, 0x67, 0x16, 0x3e,
  0x86, 0x04, 0xa0, 0x3e, 0x3c, 0xc1, 0xec, 0x3d, 0x70, 0xa5, 0x67, 0x3d,
  0x2d, 0xea, 0x43, 0x3f, 0x46, 0x37, 0xc9, 0xbe, 0xae, 0x5a, 0x09, 0x3e,
  0xf3, 0xaa, 0x92, 0x3f, 0x5f, 0x94, 0xee, 0x3c, 0xb6, 0xc8, 0x5e, 0x3e,
  0x24, 0x90, 0x8e, 0x3e, 0xe1, 0xc1, 0xb5, 0x3e, 0x70, 0xef, 0x32, 0xbd,
  0xa0, 0xda, 0x62, 0xbc, 0x82, 0x42, 0x50, 0x3f, 0xc2, 0x42, 0x1e, 0xbf,
  0x10, 0x00, 0x7e, 0x3d, 0xe6, 0xff, 0x05, 0x3e, 0x08, 0x19, 0x83, 0xbd,
  0x76, 0x4b, 0xb0, 0xbe, 0x59, 0xbd, 0xd9, 0x3f, 0x78, 0x58, 0x67, 0x3d,
  0x50, 0x7c, 0x74, 0x3e, 0xcc, 0xd9, 0x04, 0xbd, 0xcf, 0xc3, 0x72, 0xbf,
  0x67, 0x83, 0xa4, 0xbf, 0x24, 0xdf, 0x94, 0xbd, 0x94, 0xbe, 0xa3, 0x3e,
  0xfc, 0xda, 0x4e, 0x3f, 0xb9, 0x58, 0xb6, 0x3f, 0xf3, 0xf2, 0x9e, 0xbe,
  0xdc, 0x33, 0x1c, 0x3e, 0x1a, 0xf8, 0x15, 0xbe, 0x00, 0x5a, 0x0b, 0xbe,
  0x77, 0x0d, 0xa4, 0xbe, 0xfc, 0x0d, 0x44, 0xbe, 0x5b, 0x8a, 0x8e, 0xbe,
  0x78, 0x5d, 0xb1, 0xbd, 0xea, 0x30, 0x9b, 0xbe, 0xcd, 0x29, 0x0b, 0xbe,
  0x3e, 0x5c, 0xa9, 0xbd, 0x3d, 0x8d, 0x10, 0xbe, 0xfb, 0xa2, 0xa4, 0xbe,
  0xa8, 0xd1, 0x80, 0x3e, 0x90, 0x63, 0x3b, 0x3e, 0x60, 0x98, 0xec, 0xbc,
  0x62, 0xa8, 0x27, 0xbe, 0xb0, 0xc1, 0x99, 0xbe, 0x88, 0x81, 0x35, 0x3d,
  0x02, 0x17, 0xef, 0xbd, 0x0c, 0xa7, 0xb6, 0xbd, 0xe5, 0x35, 0x09, 0xbe,
  0x68, 0xbe, 0x1f, 0x3d, 0xe0, 0x63, 0x54, 0x3e, 0x70, 0xfa, 0x92, 0x3e,
  0x67, 0x10, 0x73, 0xbe, 0xbc, 0xd2, 0xec, 0x3d, 0x8c, 0xe7, 0x1a, 0x3e,
  0xc3, 0xf6, 0x31, 0xbe, 0xdc, 0x1d, 0xfc, 0x3d, 0x00, 0x9e, 0x20, 0xbe,
  0x92, 0xa2, 0x0f, 0x3e, 0xc0, 0x19, 0x50, 0x3e, 0x3e, 0x0d, 0x91, 0x3e,
  0xb4, 0xe3, 0x2a, 0x3e, 0xd4, 0x1c, 0x91, 0x3d, 0x32, 0xf8, 0x1c, 0xbe,
  0x85, 0x93, 0x8b, 0xbd, 0x9f, 0x98, 0x96, 0x3c, 0x5b, 0x06, 0x77, 0x3d,
  0x8a, 0x87, 0x4f, 0xbe, 0x0b, 0xed, 0x00, 0x3e, 0xa0, 0xfd, 0xbd, 0xbd,
  0x50, 0x7d, 0x5b, 0x3e, 0x48, 0x0d, 0xa6, 0x3e, 0xe0, 0xe8, 0x3a, 0xbe,
  0x88, 0xa4, 0x45, 0x3e, 0xe0, 0xbc, 0x87, 0x3e, 0xb0, 0x7a, 0xff, 0x3d,
  0x51, 0xc7, 0xa1, 0xbe, 0x20, 0xd5, 0xb3, 0x3d, 0x29, 0xec, 0x12, 0xbd,
  0xf8, 0xfd, 0x8b, 0x3e, 0xeb, 0x07, 0x7a, 0x3e, 0x17, 0x32, 0x7c, 0x3d,
  0xdc, 0x24, 0x88, 0xbd, 0x10, 0x27, 0x10, 0x3d, 0xde, 0xb3, 0xe5, 0xbc,
  0x3b, 0xbe, 0x6c, 0xbe, 0xf6, 0x2d, 0x81, 0x3e, 0x33, 0xbd, 0x06, 0xbe,
  0xe4, 0xe4, 0x7c, 0x3e, 0x5b, 0xd4, 0x6c, 0xbe, 0x4c, 0xaf, 0x1c, 0x3e,
  0x26, 0xc0, 0x13, 0xbe, 0xa6, 0xa7, 0x08, 0x3e, 0x42, 0x5a, 0x8b, 0x3e,
  0xd0, 0xcd, 0x7a, 0xbe, 0x1c, 0xc3, 0x83, 0x3d, 0x9c, 0x5e, 0x8a, 0x3d,
  0xb4, 0x78, 0x89, 0xbd, 0xbc, 0xd3, 0x94, 0x3d, 0x34, 0x60, 0x7d, 0x3e,
  0x00, 0x9d, 0x45, 0x3b, 0xa8, 0x41, 0x00, 0x3d, 0xb0, 0x4c, 0x1f, 0x3e,
  0x10, 0xe7, 0x9d, 0x3e, 0x18, 0x4b, 0x80, 0xbe, 0x56, 0xf8, 0x35, 0xbe,
  0x2e, 0x6d, 0xdc, 0xbd, 0x59, 0x1c, 0xa1, 0xbe, 0x80, 0xd3, 0xa0, 0x3d,
  0x60, 0x87, 0x49, 0x3d, 0x10, 0x3a, 0xa8, 0xbd, 0x3a, 0xcf, 0xb2, 0xbd,
  0xfe, 0x25, 0x9c, 0xbe, 0x08, 0xb8, 0x45, 0x3d, 0x6c, 0xa2, 0x97, 0x3d,
  0xb0, 0xb6, 0xd2, 0x3d, 0x87, 0xa3, 0x7e, 0xbe, 0x97, 0x66, 0x4a, 0xbe,
  0x9f, 0x17, 0x19, 0xbe, 0x94, 0xee, 0x72, 0x3e, 0x58, 0xc8, 0x44, 0x3e,
  0x94, 0x44, 0xb3, 0x3d, 0xbc, 0x0a, 0xdb, 0x3d, 0xc0, 0xd6, 0x70, 0x3e,
  0x5f, 0x43, 0xb0, 0xbe, 0x2c, 0x27, 0xc4, 0xbd, 0x6a, 0x9f, 0x8a, 0x3e,
  0xe0, 0xe9, 0x5b, 0x3c, 0xa4, 0x1d, 0xca, 0x3e, 0x21, 0x36, 0x76, 0x3e,
  0x5c, 0x2c, 0x5c, 0x3f, 0x90, 0xfa, 0xd7, 0xbc, 0x84, 0xd3, 0x88, 0x3f,
  0xc6, 0xa1, 0x42, 0xbd, 0x48, 0x1c, 0x4a, 0x3f, 0xa5, 0xdd, 0x1c, 0xbe,
  0xf8, 0x3d, 0x0e, 0x3c, 0x4c, 0x8d, 0x82, 0x3e, 0x18, 0x06, 0x5b, 0x3d,
  0xe9, 0x2f, 0xf0, 0x3f, 0x72, 0xff, 0xaf, 0xbc, 0xf0, 0x69, 0xab, 0x3c,
  0x05, 0x52, 0xd0, 0xbe, 0x70, 0x2d, 0x68, 0x3e, 0x59, 0xb5, 0x98, 0xbe,
  0xbe, 0x41, 0x60, 0xbe, 0x28, 0x87, 0x6b, 0x3e, 0x60, 0xda, 0x01, 0xbc,
  0xa3, 0x72, 0xd4, 0x3e, 0x4a, 0x36, 0x00, 0x40, 0x35, 0xf3, 0x08, 0x40,
  0xb7, 0xd7, 0x70, 0x3f, 0x00, 0xee, 0x5c, 0x3b, 0x49, 0x1c, 0xa5, 0xbf,
  0x79, 0x8f, 0xdb, 0x3f, 0x78, 0xa2, 0x80, 0xbd, 0x95, 0x66, 0x7a, 0xbe,
  0x10, 0x12, 0x0a, 0xbe, 0xde, 0x5d, 0x89, 0x3d, 0xbc, 0x5f, 0x9f, 0x3e,
  0xab, 0x5f, 0x22, 0x3f, 0xfe, 0x3b, 0x02, 0xbf, 0xa0, 0x04, 0x55, 0x3f,
  0x0b, 0x99, 0x5a, 0xbe, 0xb8, 0x7e, 0xac, 0xbf, 0x6c, 0xaf, 0x9c, 0xbe,
  0x84, 0xa5, 0x45, 0xbe, 0x62, 0x5b, 0x92, 0xbe, 0x8d, 0x02, 0x5e, 0x3e,
  0xfc, 0x8f, 0x1e, 0xbe, 0x50, 0x8b, 0x73, 0x3e, 0xb6, 0x33, 0xbd, 0xbf,
  0x59, 0xa7, 0x83, 0x3f, 0x27, 0xd0, 0x6d, 0xbe, 0x42, 0xec, 0xe9, 0x3e,
  0x5c, 0xdf, 0xf5, 0x3d, 0x87, 0xa5, 0x0c, 0x3f, 0x03, 0x7e, 0x35, 0xbf,
  0xd8, 0x82, 0x08, 0xbe, 0x8e, 0x44, 0x1e, 0xbe, 0x10, 0xb1, 0xeb, 0xbd,
  0xb2, 0x14, 0x1d, 0x3f, 0xff, 0xa7, 0xdd, 0x3e, 0xeb, 0xcc, 0xe9, 0x3d,
  0x52, 0xb7, 0x84, 0x3e, 0xe6, 0x00, 0x63, 0xbe, 0x30, 0x90, 0x5f, 0xbf,
  0xec, 0x7d, 0xe5, 0x3d, 0x18, 0xcd, 0x05, 0x3d, 0x44, 0x0e, 0x93, 0xbd,
  0x90, 0xb6, 0x91, 0x3e, 0xe5, 0x73, 0x9b, 0xbe, 0x7f, 0x4c, 0xe9, 0xbd,
  0xef, 0x16, 0xf9, 0x3d, 0x2e, 0x26, 0x10, 0x3e, 0xda, 0xb3, 0x6e, 0xbe,
  0x77, 0x8d, 0x04, 0x3e, 0xc1, 0x45, 0x01, 0x3e, 0x1c, 0xab, 0xb9, 0x3d,
  0xc8, 0x3c, 0x60, 0x3e, 0x41, 0x3b, 0x93, 0x3d, 0x48, 0x2e, 0xa3, 0x3e,
  0x18, 0xe5, 0x89, 0xbd, 0xdf, 0x63, 0x50, 0xbe, 0x91, 0xb8, 0x35, 0x3d,
  0xe4, 0x4b, 0xc2, 0xbd, 0x0e, 0xd6, 0x18, 0xbe, 0x60, 0x4d, 0x33, 0x3d,
  0x71, 0x7b, 0xb4, 0xbd, 0x44, 0x86, 0x6c, 0xbe, 0x68, 0x4a, 0x7f, 0xbd,
  0xac, 0x0f, 0x55, 0x3e, 0x88, 0x47, 0xb3, 0xbb, 0x5c, 0x0a, 0xd4, 0x3d,
  0x31, 0xe9, 0xa1, 0x3d, 0x09, 0x78, 0x34, 0xbe, 0x28, 0x67, 0x7e, 0x3d,
  0xb8, 0x1a, 0x00, 0xbe, 0xfd, 0x24, 0x26, 0xbe, 0x98, 0xaf, 0x7b, 0x3d,
  0x40, 0x5d, 0xfd, 0x3a, 0x2c, 0x9d, 0x54, 0x3e, 0xbe, 0x02, 0x87, 0xbe,
  0x60, 0x77, 0xf8, 0x3d, 0x35, 0xdc, 0x34, 0xbe, 0xa5, 0x63, 0xea, 0x3d,
  0x44, 0xe4, 0x00, 0xbd, 0x92, 0x75, 0x89, 0x3e, 0xec, 0xfa, 0x8e, 0x3f,
  0x03, 0x3d, 0x6e, 0x3e, 0xd3, 0x35, 0x11, 0x3f, 0x85, 0x4d, 0x86, 0xbe,
  0xcf, 0x20, 0x35, 0x3e, 0xff, 0xbf, 0x8d, 0xbe, 0x28, 0x22, 0xab, 0x3d,
  0x59, 0xdf, 0xc9, 0x3f, 0xce, 0x38, 0x7b, 0xbf, 0x40, 0xeb, 0x93, 0x3b,
  0x02, 0xf9, 0x2c, 0xbd, 0x98, 0xd7, 0x0a, 0xbd, 0x56, 0xcf, 0x8f, 0xbf,
  0xea, 0x97, 0x2a, 0x3f, 0x68, 0xa2, 0x91, 0x3e, 0xa4, 0xfc, 0x2e, 0xbe,
  0xd7, 0xca, 0xd9, 0x3e, 0x27, 0x60, 0xad, 0x3e, 0x46, 0xd1, 0xdb, 0x3e,
  0xe0, 0x61, 0x28, 0x3f, 0x06, 0xbf, 0xe5, 0xbd, 0xd1, 0x62, 0x73, 0xbf,
  0xaf, 0xfd, 0xc2, 0x3f, 0xea, 0xe8, 0x91, 0xbe, 0xca, 0x6a, 0x7f, 0xbe,
  0x20, 0xc0, 0x57, 0x3e, 0x27, 0x12, 0xd6, 0x3c, 0x4c, 0xf8, 0x72, 0x3e,
  0xfe, 0x11, 0xc3, 0x3c, 0x67, 0x0f, 0x44, 0x3f, 0x5c, 0x73, 0x12, 0xbf,
  0xac, 0x70, 0x46, 0x3e, 0x3a, 0xcf, 0x59, 0x3f, 0xd9, 0xdd, 0xe0, 0x3d,
  0xeb, 0x12, 0x5d, 0x3d, 0x05, 0xb5, 0x89, 0xbe, 0x91, 0xbd, 0xa1, 0x3e,
  0xf9, 0x61, 0x9c, 0xbe, 0xe8, 0x83, 0x4a, 0xbe, 0x28, 0x34, 0xa3, 0x3f,
  0xcd, 0x8a, 0x84, 0xbe, 0xf0, 0x55, 0x79, 0x3e, 0x3b, 0x86, 0x37, 0x3b,
  0x34, 0x7e, 0xa9, 0x3d, 0x60, 0xa3, 0x94, 0xbe, 0x96, 0xc9, 0xb2, 0x3f,
  0xbc, 0x04, 0x84, 0x3d, 0xbc, 0xd6, 0x32, 0x3e, 0xea, 0xbd, 0x8e, 0x3b,
  0xc0, 0x6a, 0x1e, 0xbf, 0xb3, 0x9f, 0xbd, 0xbe, 0x5f, 0xb4, 0x33, 0x3e,
  0x5e, 0xff, 0x80, 0x3e, 0x71, 0x66, 0x5d, 0xbe, 0x03, 0xf8, 0xbc, 0x3f,
  0x80, 0xf5, 0x7d, 0xbd, 0xcc, 0xd2, 0xad, 0xbd, 0x28, 0xe3, 0xed, 0x3d,
  0xd0, 0x24, 0x89, 0xbe, 0xd0, 0x51, 0xa1, 0x3e, 0x80, 0x0a, 0xd3, 0x3e,
  0x4d, 0x97, 0x30, 0x3d, 0x6d, 0xa5, 0x62, 0x3f, 0x82, 0x8e, 0x08, 0x3e,
  0xa5, 0x2f, 0xae, 0x3f, 0xb2, 0xd3, 0xa2, 0xbd, 0x2d, 0x30, 0x98, 0x3f,
  0x1e, 0x9f, 0x12, 0x3e, 0x7a, 0x3c, 0xd6, 0xbb, 0xd8, 0xe6, 0x50, 0x3e,
  0x28, 0x25, 0x8c, 0xbd, 0x85, 0x10, 0xdc, 0x3f, 0x0c, 0x28, 0x9c, 0xbd,
  0xa0, 0xa2, 0x80, 0x3e, 0x72, 0x76, 0xb5, 0xbe, 0x08, 0x69, 0x9b, 0xbe,
  0x46, 0x10, 0xc4, 0xbe, 0x20, 0xe5, 0x59, 0xbf, 0xd1, 0xbe, 0x49, 0xbe,
  0x28, 0x9a, 0x32, 0x3e, 0x40, 0x3c, 0x54, 0x3e, 0xf6, 0xcb, 0xf4, 0x3f,
  0x31, 0x5b, 0xe7, 0x3f, 0xa7, 0xc6, 0x7a, 0x3f, 0x14, 0x6f, 0x99, 0x3e,
  0xca, 0x82, 0x96, 0xbf, 0x8f, 0x12, 0xae, 0x3f, 0xc8, 0xe7, 0x31, 0x3e,
  0xce, 0xfc, 0xff, 0xff, 0x04, 0x00, 0x00, 0x00, 0x80, 0x01, 0x00, 0x00,
  0x82, 0x99, 0xf7, 0x3d, 0xde, 0x32, 0x53, 0xbe, 0x98, 0x3e, 0x9c, 0xbd,
  0xea, 0xf0, 0x1e, 0xbe, 0x36, 0x63, 0x67, 0xbe, 0x66, 0x04, 0x4b, 0x3e,
  0x73, 0x26, 0x75, 0xbe, 0xe0, 0x74, 0xa7, 0x3e, 0xdb, 0x75, 0x65, 0xbe,
  0x0d, 0xa9, 0xb0, 0xbe, 0x42, 0x04, 0x60, 0x3e, 0xf8, 0x26, 0x5a, 0x3d,
  0xa0, 0xb3, 0x1d, 0x3f, 0x70, 0x0f, 0x83, 0x3e, 0xdb, 0xc4, 0xca, 0xbe,
  0x9c, 0x3a, 0x1f, 0xbe, 0xf9, 0x1d, 0x9e, 0x3e, 0xc7, 0xf8, 0xe3, 0x3e,
  0x36, 0x9b, 0x05, 0x3f, 0x45, 0x2e, 0x8e, 0x3e, 0x85, 0xaa, 0x7b, 0xbf,
  0x94, 0x78, 0xa4, 0xbe, 0x1e, 0x42, 0x04, 0xbe, 0x68, 0x45, 0x17, 0xbd,
  0xd6, 0xe8, 0x87, 0xbe, 0x98, 0xa9, 0x37, 0x3f, 0x4c, 0xdf, 0xe5, 0x3c,
  0x09, 0x14, 0x2a, 0x3e, 0x7b, 0x27, 0x00, 0xbe, 0x85, 0xe9, 0xa9, 0xbe,
  0xd3, 0x81, 0xc1, 0xbd, 0x44, 0xda, 0x4e, 0x3f, 0xb0, 0x0e, 0x12, 0xbf,
  0x5b, 0x41, 0xbf, 0xbe, 0xfd, 0x1a, 0xac, 0xbe, 0x5c, 0xb8, 0xc0, 0xbd,
  0x97, 0xf7, 0xa5, 0x3e, 0xc8, 0xda, 0x22, 0x3f, 0x3f, 0x4d, 0x82, 0x3f,
  0x80, 0x19, 0xeb, 0xbb, 0xd5, 0x08, 0xa0, 0xbe, 0xb4, 0x59, 0xee, 0xbd,
  0x71, 0x75, 0xa5, 0xbe, 0xe2, 0xdb, 0x30, 0x3e, 0x04, 0x2a, 0xbd, 0xbe,
  0x34, 0xee, 0xd0, 0xbe, 0x84, 0x51, 0x4f, 0x3f, 0x32, 0xa8, 0x0a, 0xbe,
  0x7e, 0x6d, 0x22, 0x3f, 0xbe, 0x8b, 0x07, 0xbf, 0xc6, 0xa5, 0x18, 0xbe,
  0x90, 0x5e, 0x1c, 0xbe, 0x60, 0x11, 0xc1, 0xbd, 0xa0, 0x4e, 0x3c, 0x3c,
  0xbb, 0x38, 0x1b, 0x3f, 0x38, 0xb1, 0x52, 0xbd, 0x61, 0xf5, 0x58, 0x3f,
  0x94, 0xc1, 0x8f, 0xbd, 0x9c, 0xbf, 0xa1, 0xbe, 0x3e, 0x40, 0x91, 0xbe,
  0x3e, 0x8f, 0xd4, 0x3e, 0xf3, 0x76, 0x26, 0xbf, 0xe3, 0xb5, 0x20, 0x3f,
  0xc2, 0x30, 0xb1, 0xbe, 0xdb, 0xc0, 0xb6, 0x3e, 0x76, 0x55, 0x3c, 0x3f,
  0x36, 0xa6, 0x75, 0xbe, 0x8f, 0x88, 0xbd, 0xbe, 0xfe, 0xa3, 0x48, 0x3e,
  0xe4, 0x12, 0xaa, 0xbe, 0x58, 0x0b, 0x9c, 0x3d, 0x9a, 0x34, 0x4b, 0xbe,
  0x70, 0xdc, 0x56, 0x3e, 0x87, 0xa0, 0x2a, 0x3f, 0x7e, 0x10, 0xde, 0xbe,
  0x4d, 0xfd, 0x29, 0x3e, 0xf0, 0xdb, 0x19, 0x3f, 0x64, 0x4d, 0x82, 0xbf,
  0x2d, 0x07, 0x2f, 0x3e, 0x98, 0x9c, 0xe4, 0x3e, 0x8a, 0xf1, 0x6c, 0xbf,
  0xcd, 0x33, 0x1b, 0x3d, 0x37, 0xb5, 0x18, 0x3f, 0x0f, 0x00, 0x39, 0xbf,
  0x8e, 0x36, 0x87, 0xbe, 0x0c, 0xd4, 0xda, 0xbd, 0x0f, 0x60, 0x6c, 0xbe,
  0xa4, 0xde, 0x3d, 0x3e, 0xed, 0x86, 0x04, 0xbf, 0x29, 0x92, 0x86, 0x3f,
  0x73, 0x08, 0xbc, 0xbe, 0x21, 0x49, 0x4c, 0x3f, 0xc5, 0x45, 0x8b, 0x3d,
  0x00, 0x4f, 0x98, 0x3b, 0x71, 0x9a, 0x9b, 0xbe, 0x80, 0x00, 0x41, 0x3c,
  0x5a, 0xfe, 0xff, 0xff, 0x04, 0x00, 0x00, 0x00, 0x80, 0x00, 0x00, 0x00,
  0x0d, 0x1d, 0x9b, 0xbc, 0x00, 0x00, 0x00, 0x00, 0x87, 0x8e, 0x4a, 0xbb,
  0x00, 0x00, 0x00, 0x00, 0xab, 0xcf, 0x7b, 0x3e, 0xae, 0x82, 0x58, 0x3d,
  0x0d, 0x5e, 0x2a, 0x3d, 0x00, 0x00, 0x00, 0x00, 0x68, 0x06, 0x01, 0xbd,
  0x28, 0xa9, 0xfb, 0xbc, 0x14, 0xe7, 0x10, 0xbd, 0x00, 0x00, 0x00, 0x00,
  0x13, 0x1f, 0x8b, 0x3e, 0x00, 0x00, 0x00, 0x00, 0x00, 0x00, 0x00, 0x00,
  0x2f, 0x73, 0x69, 0x3d, 0x6e, 0xdc, 0x64, 0x3b, 0x00, 0x00, 0x00, 0x00,
  0x38, 0xba, 0x2d, 0x3e, 0x00, 0x00, 0x00, 0x00, 0xea, 0x33, 0x40, 0xbd,
  0xc3, 0xc9, 0xc3, 0x3c, 0x00, 0x00, 0x00, 0x00, 0x00, 0x00, 0x00, 0x00,
  0xfb, 0x37, 0x3a, 0xbd, 0xad, 0xfb, 0xae, 0xbb, 0x73, 0xb8, 0x9e, 0x3c,
  0xd9, 0x07, 0x11, 0xbd, 0x00, 0x00, 0x00, 0x00, 0x4f, 0x26, 0x10, 0x3e,
  0x40, 0xf5, 0x48, 0x3a, 0x00, 0x00, 0x00, 0x00, 0xe6, 0xfe, 0xff, 0xff,
  0x04, 0x00, 0x00, 0x00, 0x60, 0x00, 0x00, 0x00, 0x2a, 0x52, 0xa2, 0xbd,
  0x11, 0x48, 0x6c, 0xbd, 0xda, 0xb8, 0x37, 0xbc, 0xad, 0x1a, 0x92, 0x3a,
  0xbe, 0x03, 0x44, 0xbd, 0x00, 0x00, 0x00, 0x00, 0xbb, 0x2b, 0xc1, 0xbc,
  0x7d, 0xbd, 0x73, 0xbd, 0x00, 0x00, 0x00, 0x00, 0x00, 0x00, 0x00, 0x00,
  0x7d, 0xc4, 0xe6, 0x3e, 0x22, 0xee, 0x78, 0xbb, 0x00, 0x00, 0x00, 0x00,
  0xd6, 0x7d, 0x2e, 0x3e, 0x1e, 0x6b, 0x01, 0x3e, 0x00, 0x00, 0x00, 0x00,
  0x45, 0xca, 0xf4, 0xbc, 0x00, 0x00, 0x00, 0x00, 0x18, 0xfc, 0x47, 0xbd,
  0xf3, 0xbc, 0x2d, 0x3e, 0x02, 0x27, 0x24, 0xbc, 0x16, 0xab, 0x9e, 0x3d,
  0xb3, 0x54, 0xb9, 0x3d, 0xd4, 0x84, 0xf6, 0x3b, 0x52, 0xff, 0xff, 0xff,
  0x04, 0x00, 0x00, 0x00, 0x0c, 0x00, 0x00, 0x00, 0x63, 0x9c, 0x1d, 0x3f,
  0xc7, 0x76, 0xdb, 0xbe, 0xfd, 0x0a, 0x3f, 0xbe, 0x40, 0xfa, 0xff, 0xff,
  0x44, 0xfa, 0xff, 0xff, 0x0f, 0x00, 0x00, 0x00, 0x4d, 0x4c, 0x49, 0x52,
  0x20, 0x43, 0x6f, 0x6e, 0x76, 0x65, 0x72, 0x74, 0x65, 0x64, 0x2e, 0x00,
  0x01, 0x00, 0x00, 0x00, 0x14, 0x00, 0x00, 0x00, 0x00, 0x00, 0x0e, 0x00,
  0x18, 0x00, 0x14, 0x00, 0x10, 0x00, 0x0c, 0x00, 0x08, 0x00, 0x04, 0x00,
  0x0e, 0x00, 0x00, 0x00, 0x14, 0x00, 0x00, 0x00, 0x1c, 0x00, 0x00, 0x00,
  0x24, 0x01, 0x00, 0x00, 0x28, 0x01, 0x00, 0x00, 0x2c, 0x01, 0x00, 0x00,
  0x04, 0x00, 0x00, 0x00, 0x6d, 0x61, 0x69, 0x6e, 0x00, 0x00, 0x00, 0x00,
  0x04, 0x00, 0x00, 0x00, 0xcc, 0x00, 0x00, 0x00, 0x84, 0x00, 0x00, 0x00,
  0x50, 0x00, 0x00, 0x00, 0x14, 0x00, 0x00, 0x00, 0x00, 0x00, 0x0e, 0x00,
  0x1a, 0x00, 0x14, 0x00, 0x10, 0x00, 0x0c, 0x00, 0x0b, 0x00, 0x04, 0x00,
  0x0e, 0x00, 0x00, 0x00, 0x1c, 0x00, 0x00, 0x00, 0x00, 0x00, 0x00, 0x09,
  0x1c, 0x00, 0x00, 0x00, 0x20, 0x00, 0x00, 0x00, 0x01, 0x00, 0x00, 0x00,
  0x00, 0x00, 0x06, 0x00, 0x08, 0x00, 0x04, 0x00, 0x06, 0x00, 0x00, 0x00,
  0x00, 0x00, 0x80, 0x3f, 0x01, 0x00, 0x00, 0x00, 0x0a, 0x00, 0x00, 0x00,
  0x01, 0x00, 0x00, 0x00, 0x09, 0x00, 0x00, 0x00, 0x9a, 0xff, 0xff, 0xff,
  0x10, 0x00, 0x00, 0x00, 0x00, 0x00, 0x00, 0x08, 0x0c, 0x00, 0x00, 0x00,
  0x10, 0x00, 0x00, 0x00, 0x08, 0xfb, 0xff, 0xff, 0x01, 0x00, 0x00, 0x00,
  0x09, 0x00, 0x00, 0x00, 0x03, 0x00, 0x00, 0x00, 0x08, 0x00, 0x00, 0x00,
  0x06, 0x00, 0x00, 0x00, 0x01, 0x00, 0x00, 0x00, 0xca, 0xff, 0xff, 0xff,
  0x10, 0x00, 0x00, 0x00, 0x00, 0x00, 0x00, 0x08, 0x10, 0x00, 0x00, 0x00,
  0x14, 0x00, 0x00, 0x00, 0xba, 0xff, 0xff, 0xff, 0x00, 0x00, 0x00, 0x01,
  0x01, 0x00, 0x00, 0x00, 0x08, 0x00, 0x00, 0x00, 0x03, 0x00, 0x00, 0x00,
  0x07, 0x00, 0x00, 0x00, 0x05, 0x00, 0x00, 0x00, 0x02, 0x00, 0x00, 0x00,
  0x00, 0x00, 0x0e, 0x00, 0x16, 0x00, 0x00, 0x00, 0x10, 0x00, 0x0c, 0x00,
  0x0b, 0x00, 0x04, 0x00, 0x0e, 0x00, 0x00, 0x00, 0x18, 0x00, 0x00, 0x00,
  0x00, 0x00, 0x00, 0x08, 0x18, 0x00, 0x00, 0x00, 0x1c, 0x00, 0x00, 0x00,
  0x00, 0x00, 0x06, 0x00, 0x08, 0x00, 0x07, 0x00, 0x06, 0x00, 0x00, 0x00,
  0x00, 0x00, 0x00, 0x01, 0x01, 0x00, 0x00, 0x00, 0x07, 0x00, 0x00, 0x00,
  0x03, 0x00, 0x00, 0x00, 0x00, 0x00, 0x00, 0x00, 0x04, 0x00, 0x00, 0x00,
  0x03, 0x00, 0x00, 0x00, 0x01, 0x00, 0x00, 0x00, 0x0a, 0x00, 0x00, 0x00,
  0x01, 0x00, 0x00, 0x00, 0x00, 0x00, 0x00, 0x00, 0x0b, 0x00, 0x00, 0x00,
  0x20, 0x04, 0x00, 0x00, 0xb0, 0x03, 0x00, 0x00, 0x40, 0x03, 0x00, 0x00,
  0xe8, 0x02, 0x00, 0x00, 0x9c, 0x02, 0x00, 0x00, 0x50, 0x02, 0x00, 0x00,
  0x04, 0x02, 0x00, 0x00, 0x70, 0x01, 0x00, 0x00, 0xdc, 0x00, 0x00, 0x00,
  0x60, 0x00, 0x00, 0x00, 0x04, 0x00, 0x00, 0x00, 0x22, 0xfc, 0xff, 0xff,
  0x00, 0x00, 0x00, 0x01, 0x14, 0x00, 0x00, 0x00, 0x1c, 0x00, 0x00, 0x00,
  0x1c, 0x00, 0x00, 0x00, 0x0b, 0x00, 0x00, 0x00, 0x34, 0x00, 0x00, 0x00,
  0x02, 0x00, 0x00, 0x00, 0xff, 0xff, 0xff, 0xff, 0x03, 0x00, 0x00, 0x00,
  0x0c, 0xfc, 0xff, 0xff, 0x19, 0x00, 0x00, 0x00, 0x53, 0x74, 0x61, 0x74,
  0x65, 0x66, 0x75, 0x6c, 0x50, 0x61, 0x72, 0x74, 0x69, 0x74, 0x69, 0x6f,
  0x6e, 0x65, 0x64, 0x43, 0x61, 0x6c, 0x6c, 0x3a, 0x30, 0x00, 0x00, 0x00,
  0x02, 0x00, 0x00, 0x00, 0x01, 0x00, 0x00, 0x00, 0x03, 0x00, 0x00, 0x00,
  0x7a, 0xfc, 0xff, 0xff, 0x00, 0x00, 0x00, 0x01, 0x14, 0x00, 0x00, 0x00,
  0x1c, 0x00, 0x00, 0x00, 0x1c, 0x00, 0x00, 0x00, 0x0a, 0x00, 0x00, 0x00,
  0x54, 0x00, 0x00, 0x00, 0x02, 0x00, 0x00, 0x00, 0xff, 0xff, 0xff, 0xff,
  0x03, 0x00, 0x00, 0x00, 0x64, 0xfc, 0xff, 0xff, 0x38, 0x00, 0x00, 0x00,
  0x73, 0x65, 0x71, 0x75, 0x65, 0x6e, 0x74, 0x69, 0x61, 0x6c, 0x5f, 0x31,
  0x2f, 0x64, 0x65, 0x6e, 0x73, 0x65, 0x5f, 0x35, 0x2f, 0x4d, 0x61, 0x74,
  0x4d, 0x75, 0x6c, 0x3b, 0x73, 0x65, 0x71, 0x75, 0x65, 0x6e, 0x74, 0x69,
  0x61, 0x6c, 0x5f, 0x31, 0x2f, 0x64, 0x65, 0x6e, 0x73, 0x65, 0x5f, 0x35,
  0x2f, 0x42, 0x69, 0x61, 0x73, 0x41, 0x64, 0x64, 0x00, 0x00, 0x00, 0x00,
  0x02, 0x00, 0x00, 0x00, 0x01, 0x00, 0x00, 0x00, 0x03, 0x00, 0x00, 0x00,
  0xf2, 0xfc, 0xff, 0xff, 0x00, 0x00, 0x00, 0x01, 0x14, 0x00, 0x00, 0x00,
  0x1c, 0x00, 0x00, 0x00, 0x1c, 0x00, 0x00, 0x00, 0x09, 0x00, 0x00, 0x00,
  0x6c, 0x00, 0x00, 0x00, 0x02, 0x00, 0x00, 0x00, 0xff, 0xff, 0xff, 0xff,
  0x18, 0x00, 0x00, 0x00, 0xdc, 0xfc, 0xff, 0xff, 0x52, 0x00, 0x00, 0x00,
  0x73, 0x65, 0x71, 0x75, 0x65, 0x6e, 0x74, 0x69, 0x61, 0x6c, 0x5f, 0x31,
  0x2f, 0x64, 0x65, 0x6e, 0x73, 0x65, 0x5f, 0x34, 0x2f, 0x4d, 0x61, 0x74,
  0x4d, 0x75, 0x6c, 0x3b, 0x73, 0x65, 0x71, 0x75, 0x65, 0x6e, 0x74, 0x69,
  0x61, 0x6c, 0x5f, 0x31, 0x2f, 0x64, 0x65, 0x6e, 0x73, 0x65, 0x5f, 0x34,
  0x2f, 0x52, 0x65, 0x6c, 0x75, 0x3b, 0x73, 0x65, 0x71, 0x75, 0x65, 0x6e,
  0x74, 0x69, 0x61, 0x6c, 0x5f, 0x31, 0x2f, 0x64, 0x65, 0x6e, 0x73, 0x65,
  0x5f, 0x34, 0x2f, 0x42, 0x69, 0x61, 0x73, 0x41, 0x64, 0x64, 0x00, 0x00,
  0x02, 0x00, 0x00, 0x00, 0x01, 0x00, 0x00, 0x00, 0x18, 0x00, 0x00, 0x00,
  0x82, 0xfd, 0xff, 0xff, 0x00, 0x00, 0x00, 0x01, 0x14, 0x00, 0x00, 0x00,
  0x1c, 0x00, 0x00, 0x00, 0x1c, 0x00, 0x00, 0x00, 0x08, 0x00, 0x00, 0x00,
  0x6c, 0x00, 0x00, 0x00, 0x02, 0x00, 0x00, 0x00, 0xff, 0xff, 0xff, 0xff,
  0x20, 0x00, 0x00, 0x00, 0x6c, 0xfd, 0xff, 0xff, 0x52, 0x00, 0x00, 0x00,
  0x73, 0x65, 0x71, 0x75, 0x65, 0x6e, 0x74, 0x69, 0x61, 0x6c, 0x5f, 0x31,
  0x2f, 0x64, 0x65, 0x6e, 0x73, 0x65, 0x5f, 0x33, 0x2f, 0x4d, 0x61, 0x74,
  0x4d, 0x75, 0x6c, 0x3b, 0x73, 0x65, 0x71, 0x75, 0x65, 0x6e, 0x74, 0x69,
  0x61, 0x6c, 0x5f, 0x31, 0x2f, 0x64, 0x65, 0x6e, 0x73, 0x65, 0x5f, 0x33,
  0x2f, 0x52, 0x65, 0x6c, 0x75, 0x3b, 0x73, 0x65, 0x71, 0x75, 0x65, 0x6e,
  0x74, 0x69, 0x61, 0x6c, 0x5f, 0x31, 0x2f, 0x64, 0x65, 0x6e, 0x73, 0x65,
  0x5f, 0x33, 0x2f, 0x42, 0x69, 0x61, 0x73, 0x41, 0x64, 0x64, 0x00, 0x00,
  0x02, 0x00, 0x00, 0x00, 0x01, 0x00, 0x00, 0x00, 0x20, 0x00, 0x00, 0x00,
  0x7e, 0xfe, 0xff, 0xff, 0x00, 0x00, 0x00, 0x01, 0x10, 0x00, 0x00, 0x00,
  0x10, 0x00, 0x00, 0x00, 0x07, 0x00, 0x00, 0x00, 0x28, 0x00, 0x00, 0x00,
  0xec, 0xfd, 0xff, 0xff, 0x1b, 0x00, 0x00, 0x00, 0x73, 0x65, 0x71, 0x75,
  0x65, 0x6e, 0x74, 0x69, 0x61, 0x6c, 0x5f, 0x31, 0x2f, 0x64, 0x65, 0x6e,
  0x73, 0x65, 0x5f, 0x35, 0x2f, 0x4d, 0x61, 0x74, 0x4d, 0x75, 0x6c, 0x00,
  0x02, 0x00, 0x00, 0x00, 0x03, 0x00, 0x00, 0x00, 0x18, 0x00, 0x00, 0x00,
  0xc6, 0xfe, 0xff, 0xff, 0x00, 0x00, 0x00, 0x01, 0x10, 0x00, 0x00, 0x00,
  0x10, 0x00, 0x00, 0x00, 0x06, 0x00, 0x00, 0x00, 0x28, 0x00, 0x00, 0x00,
  0x34, 0xfe, 0xff, 0xff, 0x1b, 0x00, 0x00, 0x00, 0x73, 0x65, 0x71, 0x75,
  0x65, 0x6e, 0x74, 0x69, 0x61, 0x6c, 0x5f, 0x31, 0x2f, 0x64, 0x65, 0x6e,
  0x73, 0x65, 0x5f, 0x34, 0x2f, 0x4d, 0x61, 0x74, 0x4d, 0x75, 0x6c, 0x00,
  0x02, 0x00, 0x00, 0x00, 0x18, 0x00, 0x00, 0x00, 0x20, 0x00, 0x00, 0x00,
  0x0e, 0xff, 0xff, 0xff, 0x00, 0x00, 0x00, 0x01, 0x10, 0x00, 0x00, 0x00,
  0x10, 0x00, 0x00, 0x00, 0x05, 0x00, 0x00, 0x00, 0x28, 0x00, 0x00, 0x00,
  0x7c, 0xfe, 0xff, 0xff, 0x1b, 0x00, 0x00, 0x00, 0x73, 0x65, 0x71, 0x75,
  0x65, 0x6e, 0x74, 0x69, 0x61, 0x6c, 0x5f, 0x31, 0x2f, 0x64, 0x65, 0x6e,
  0x73, 0x65, 0x5f, 0x33, 0x2f, 0x4d, 0x61, 0x74, 0x4d, 0x75, 0x6c, 0x00,
  0x02, 0x00, 0x00, 0x00, 0x20, 0x00, 0x00, 0x00, 0x03, 0x00, 0x00, 0x00,
  0x56, 0xff, 0xff, 0xff, 0x00, 0x00, 0x00, 0x01, 0x10, 0x00, 0x00, 0x00,
  0x10, 0x00, 0x00, 0x00, 0x04, 0x00, 0x00, 0x00, 0x38, 0x00, 0x00, 0x00,
  0xc4, 0xfe, 0xff, 0xff, 0x2b, 0x00, 0x00, 0x00, 0x73, 0x65, 0x71, 0x75,
  0x65, 0x6e, 0x74, 0x69, 0x61, 0x6c, 0x5f, 0x31, 0x2f, 0x64, 0x65, 0x6e,
  0x73, 0x65, 0x5f, 0x33, 0x2f, 0x42, 0x69, 0x61, 0x73, 0x41, 0x64, 0x64,
  0x2f, 0x52, 0x65, 0x61, 0x64, 0x56, 0x61, 0x72, 0x69, 0x61, 0x62, 0x6c,
  0x65, 0x4f, 0x70, 0x00, 0x01, 0x00, 0x00, 0x00, 0x20, 0x00, 0x00, 0x00,
  0xaa, 0xff, 0xff, 0xff, 0x00, 0x00, 0x00, 0x01, 0x10, 0x00, 0x00, 0x00,
  0x10, 0x00, 0x00, 0x00, 0x03, 0x00, 0x00, 0x00, 0x38, 0x00, 0x00, 0x00,
  0x18, 0xff, 0xff, 0xff, 0x2b, 0x00, 0x00, 0x00, 0x73, 0x65, 0x71, 0x75,
  0x65, 0x6e, 0x74, 0x69, 0x61, 0x6c, 0x5f, 0x31, 0x2f, 0x64, 0x65, 0x6e,
  0x73, 0x65, 0x5f, 0x34, 0x2f, 0x42, 0x69, 0x61, 0x73, 0x41, 0x64, 0x64,
  0x2f, 0x52, 0x65, 0x61, 0x64, 0x56, 0x61, 0x72, 0x69, 0x61, 0x62, 0x6c,
  0x65, 0x4f, 0x70, 0x00, 0x01, 0x00, 0x00, 0x00, 0x18, 0x00, 0x00, 0x00,
  0x00, 0x00, 0x16, 0x00, 0x18, 0x00, 0x14, 0x00, 0x00, 0x00, 0x10, 0x00,
  0x0c, 0x00, 0x08, 0x00, 0x00, 0x00, 0x00, 0x00, 0x00, 0x00, 0x07, 0x00,
  0x16, 0x00, 0x00, 0x00, 0x00, 0x00, 0x00, 0x01, 0x10, 0x00, 0x00, 0x00,
  0x10, 0x00, 0x00, 0x00, 0x02, 0x00, 0x00, 0x00, 0x38, 0x00, 0x00, 0x00,
  0x84, 0xff, 0xff, 0xff, 0x2b, 0x00, 0x00, 0x00, 0x73, 0x65, 0x71, 0x75,
  0x65, 0x6e, 0x74, 0x69, 0x61, 0x6c, 0x5f, 0x31, 0x2f, 0x64, 0x65, 0x6e,
  0x73, 0x65, 0x5f, 0x35, 0x2f, 0x42, 0x69, 0x61, 0x73, 0x41, 0x64, 0x64,
  0x2f, 0x52, 0x65, 0x61, 0x64, 0x56, 0x61, 0x72, 0x69, 0x61, 0x62, 0x6c,
  0x65, 0x4f, 0x70, 0x00, 0x01, 0x00, 0x00, 0x00, 0x03, 0x00, 0x00, 0x00,
  0x00, 0x00, 0x16, 0x00, 0x1c, 0x00, 0x18, 0x00, 0x00, 0x00, 0x14, 0x00,
  0x10, 0x00, 0x0c, 0x00, 0x00, 0x00, 0x00, 0x00, 0x08, 0x00, 0x07, 0x00,
  0x16, 0x00, 0x00, 0x00, 0x00, 0x00, 0x00, 0x01, 0x14, 0x00, 0x00, 0x00,
  0x20, 0x00, 0x00, 0x00, 0x20, 0x00, 0x00, 0x00, 0x01, 0x00, 0x00, 0x00,
  0x38, 0x00, 0x00, 0x00, 0x02, 0x00, 0x00, 0x00, 0xff, 0xff, 0xff, 0xff,
  0x03, 0x00, 0x00, 0x00, 0x04, 0x00, 0x04, 0x00, 0x04, 0x00, 0x00, 0x00,
  0x19, 0x00, 0x00, 0x00, 0x73, 0x65, 0x72, 0x76, 0x69, 0x6e, 0x67, 0x5f,
  0x64, 0x65, 0x66, 0x61, 0x75, 0x6c, 0x74, 0x5f, 0x69, 0x6e, 0x70, 0x75,
  0x74, 0x5f, 0x32, 0x3a, 0x30, 0x00, 0x00, 0x00, 0x02, 0x00, 0x00, 0x00,
  0x01, 0x00, 0x00, 0x00, 0x03, 0x00, 0x00, 0x00, 0x02, 0x00, 0x00, 0x00,
  0x20, 0x00, 0x00, 0x00, 0x04, 0x00, 0x00, 0x00, 0xf4, 0xff, 0xff, 0xff,
  0x19, 0x00, 0x00, 0x00, 0x00, 0x00, 0x00, 0x19, 0x0c, 0x00, 0x0c, 0x00,
  0x0b, 0x00, 0x00, 0x00, 0x00, 0x00, 0x04, 0x00, 0x0c, 0x00, 0x00, 0x00,
  0x09, 0x00, 0x00, 0x00, 0x00, 0x00, 0x00, 0x09
};
