const unsigned char model[] = {
  0x1c, 0x00, 0x00, 0x00, 0x54, 0x46, 0x4c, 0x33, 0x14, 0x00, 0x20, 0x00,
  0x1c, 0x00, 0x18, 0x00, 0x14, 0x00, 0x10, 0x00, 0x0c, 0x00, 0x00, 0x00,
  0x08, 0x00, 0x04, 0x00, 0x14, 0x00, 0x00, 0x00, 0x1c, 0x00, 0x00, 0x00,
  0x90, 0x00, 0x00, 0x00, 0xe8, 0x00, 0x00, 0x00, 0x98, 0x3e, 0x00, 0x00,
  0xa8, 0x3e, 0x00, 0x00, 0x94, 0x47, 0x00, 0x00, 0x03, 0x00, 0x00, 0x00,
  0x01, 0x00, 0x00, 0x00, 0x10, 0x00, 0x00, 0x00, 0x00, 0x00, 0x0a, 0x00,
  0x10, 0x00, 0x0c, 0x00, 0x08, 0x00, 0x04, 0x00, 0x0a, 0x00, 0x00, 0x00,
  0x0c, 0x00, 0x00, 0x00, 0x1c, 0x00, 0x00, 0x00, 0x3c, 0x00, 0x00, 0x00,
  0x0f, 0x00, 0x00, 0x00, 0x73, 0x65, 0x72, 0x76, 0x69, 0x6e, 0x67, 0x5f,
  0x64, 0x65, 0x66, 0x61, 0x75, 0x6c, 0x74, 0x00, 0x01, 0x00, 0x00, 0x00,
  0x04, 0x00, 0x00, 0x00, 0x98, 0xff, 0xff, 0xff, 0x10, 0x00, 0x00, 0x00,
  0x04, 0x00, 0x00, 0x00, 0x08, 0x00, 0x00, 0x00, 0x64, 0x65, 0x6e, 0x73,
  0x65, 0x5f, 0x32, 0x39, 0x00, 0x00, 0x00, 0x00, 0x01, 0x00, 0x00, 0x00,
  0x04, 0x00, 0x00, 0x00, 0x46, 0xc1, 0xff, 0xff, 0x04, 0x00, 0x00, 0x00,
  0x07, 0x00, 0x00, 0x00, 0x69, 0x6e, 0x70, 0x75, 0x74, 0x5f, 0x36, 0x00,
  0x02, 0x00, 0x00, 0x00, 0x34, 0x00, 0x00, 0x00, 0x04, 0x00, 0x00, 0x00,
  0xdc, 0xff, 0xff, 0xff, 0x13, 0x00, 0x00, 0x00, 0x04, 0x00, 0x00, 0x00,
  0x13, 0x00, 0x00, 0x00, 0x43, 0x4f, 0x4e, 0x56, 0x45, 0x52, 0x53, 0x49,
  0x4f, 0x4e, 0x5f, 0x4d, 0x45, 0x54, 0x41, 0x44, 0x41, 0x54, 0x41, 0x00,
  0x08, 0x00, 0x0c, 0x00, 0x08, 0x00, 0x04, 0x00, 0x08, 0x00, 0x00, 0x00,
  0x12, 0x00, 0x00, 0x00, 0x04, 0x00, 0x00, 0x00, 0x13, 0x00, 0x00, 0x00,
  0x6d, 0x69, 0x6e, 0x5f, 0x72, 0x75, 0x6e, 0x74, 0x69, 0x6d, 0x65, 0x5f,
  0x76, 0x65, 0x72, 0x73, 0x69, 0x6f, 0x6e, 0x00, 0x14, 0x00, 0x00, 0x00,
  0xac, 0x3d, 0x00, 0x00, 0xa4, 0x3d, 0x00, 0x00, 0x88, 0x3d, 0x00, 0x00,
  0xf8, 0x3c, 0x00, 0x00, 0x28, 0x3c, 0x00, 0x00, 0x98, 0x3b, 0x00, 0x00,
  0x48, 0x3b, 0x00, 0x00, 0x78, 0x3a, 0x00, 0x00, 0x68, 0x32, 0x00, 0x00,
  0x58, 0x1a, 0x00, 0x00, 0x48, 0x02, 0x00, 0x00, 0xb8, 0x00, 0x00, 0x00,
  0xb0, 0x00, 0x00, 0x00, 0xa8, 0x00, 0x00, 0x00, 0xa0, 0x00, 0x00, 0x00,
  0x98, 0x00, 0x00, 0x00, 0x90, 0x00, 0x00, 0x00, 0x88, 0x00, 0x00, 0x00,
  0x68, 0x00, 0x00, 0x00, 0x04, 0x00, 0x00, 0x00, 0x0a, 0xc2, 0xff, 0xff,
  0x04, 0x00, 0x00, 0x00, 0x54, 0x00, 0x00, 0x00, 0x0c, 0x00, 0x00, 0x00,
  0x08, 0x00, 0x0e, 0x00, 0x08, 0x00, 0x04, 0x00, 0x08, 0x00, 0x00, 0x00,
  0x10, 0x00, 0x00, 0x00, 0x24, 0x00, 0x00, 0x00, 0x00, 0x00, 0x06, 0x00,
  0x08, 0x00, 0x04, 0x00, 0x06, 0x00, 0x00, 0x00, 0x04, 0x00, 0x00, 0x00,
  0x00, 0x00, 0x00, 0x00, 0x00, 0x00, 0x0a, 0x00, 0x10, 0x00, 0x0c, 0x00,
  0x08, 0x00, 0x04, 0x00, 0x0a, 0x00, 0x00, 0x00, 0x02, 0x00, 0x00, 0x00,
  0x02, 0x00, 0x00, 0x00, 0x04, 0x00, 0x00, 0x00, 0x06, 0x00, 0x00, 0x00,
  0x32, 0x2e, 0x31, 0x35, 0x2e, 0x30, 0x00, 0x00, 0x6a, 0xc2, 0xff, 0xff,
  0x04, 0x00, 0x00, 0x00, 0x10, 0x00, 0x00, 0x00, 0x31, 0x2e, 0x35, 0x2e,
  0x30, 0x00, 0x00, 0x00, 0x00, 0x00, 0x00, 0x00, 0x00, 0x00, 0x00, 0x00,
  0x4c, 0xba, 0xff, 0xff, 0x50, 0xba, 0xff, 0xff, 0x54, 0xba, 0xff, 0xff,
  0x58, 0xba, 0xff, 0xff, 0x5c, 0xba, 0xff, 0xff, 0x60, 0xba, 0xff, 0xff,
  0x9e, 0xc2, 0xff, 0xff, 0x04, 0x00, 0x00, 0x00, 0x80, 0x01, 0x00, 0x00,
  0xe6, 0x59, 0x18, 0x3f, 0xdf, 0x72, 0x21, 0xbf, 0x67, 0x4b, 0x0d, 0x3f,
  0x9a, 0xdb, 0xc1, 0x3e, 0xdf, 0xf2, 0x9c, 0x3d, 0xbb, 0xbc, 0xaf, 0x3e,
  0x2f, 0x3f, 0x39, 0xbe, 0xe3, 0x67, 0x20, 0x3e, 0x6c, 0x1d, 0x25, 0xbf,
  0x3f, 0x23, 0x37, 0xbe, 0x7e, 0xbf, 0x7f, 0xbc, 0xbb, 0x7a, 0x03, 0xbf,
  0x6f, 0xe4, 0x08, 0xbf, 0xe9, 0xba, 0x8b, 0x3e, 0x2c, 0x3d, 0x21, 0xbe,
  0x98, 0xf2, 0x14, 0xbf, 0x83, 0x7a, 0x2b, 0xbb, 0xeb, 0xa3, 0xa2, 0x3e,
  0x48, 0xd0, 0xc7, 0xbc, 0xc1, 0xef, 0xda, 0x3e, 0x56, 0xa4, 0x33, 0xbf,
  0xa9, 0x14, 0xae, 0x3e, 0x64, 0x25, 0x8e, 0x3a, 0xea, 0x13, 0x1b, 0xbf,
  0x72, 0x41, 0x86, 0x3e, 0xee, 0x6e, 0x11, 0xbf, 0x64, 0x2b, 0x96, 0x3e,
  0x21, 0xa5, 0x09, 0xbe, 0x8d, 0x5b, 0x89, 0x3c, 0x89, 0x06, 0x0e, 0xbf,
  0x3a, 0x16, 0x06, 0xbf, 0x49, 0x37, 0x08, 0x3f, 0xae, 0x02, 0x1d, 0xbf,
  0x09, 0x1b, 0xef, 0x3e, 0xf5, 0x25, 0x28, 0xbf, 0x18, 0xd9, 0x84, 0xbf,
  0xc5, 0x5f, 0xa9, 0xbe, 0x4a, 0xc5, 0xf6, 0xbe, 0xd4, 0x3c, 0x28, 0xbf,
  0x40, 0x69, 0x1b, 0x3e, 0x43, 0x09, 0x03, 0xbe, 0xc0, 0xdf, 0x1a, 0x3f,
  0x83, 0x72, 0xd4, 0xbe, 0x40, 0xd6, 0xe5, 0x3e, 0xd3, 0x67, 0xe2, 0x3e,
  0x4c, 0x37, 0x78, 0x3e, 0x44, 0xb3, 0x32, 0xbc, 0x58, 0xf9, 0x0d, 0x3f,
  0x6e, 0x07, 0x0b, 0x3f, 0x5c, 0x8e, 0x49, 0xbf, 0x60, 0x6c, 0xac, 0xbd,
  0x2a, 0x6a, 0x0d, 0xbf, 0xa3, 0xe4, 0xf3, 0x3e, 0xbb, 0x7b, 0x51, 0xbe,
  0xbb, 0x3e, 0x2e, 0x3d, 0x86, 0x32, 0x3f, 0x3f, 0xae, 0x39, 0x68, 0xbf,
  0x1f, 0x01, 0x0b, 0x3f, 0xbf, 0xe4, 0x42, 0xbf, 0xf8, 0xde, 0x6f, 0xbd,
  0xfb, 0xfa, 0x65, 0x3e, 0xe5, 0xac, 0x7e, 0xbd, 0xc4, 0xd4, 0x09, 0x3f,
  0xb0, 0xb4, 0xbe, 0x3d, 0x4b, 0x21, 0xac, 0xbe, 0xa2, 0x1f, 0x62, 0xbe,
  0xee, 0x19, 0xb0, 0xbe, 0xa1, 0x05, 0xf8, 0x3e, 0xd6, 0xce, 0xb8, 0xbe,
  0x52, 0xa8, 0xc0, 0xbe, 0x29, 0x3a, 0x2e, 0xbc, 0x52, 0x83, 0x41, 0x3e,
  0xfa, 0xa2, 0x74, 0x3e, 0xc6, 0xa6, 0x95, 0xbd, 0x0b, 0x38, 0x22, 0x3f,
  0x3e, 0x25, 0x24, 0x3f, 0x6f, 0x60, 0x28, 0xbf, 0xb5, 0xf4, 0xf5, 0xbe,
  0x3b, 0xb8, 0xc6, 0xbe, 0x03, 0x4f, 0x72, 0xbe, 0x0f, 0x7a, 0x19, 0xbf,
  0x0d, 0x8a, 0xab, 0x3e, 0x00, 0xd2, 0xbc, 0x3d, 0x4c, 0xb7, 0xa0, 0x3e,
  0x95, 0x22, 0x92, 0xbe, 0x22, 0x1c, 0x97, 0xbe, 0x3b, 0x88, 0x15, 0x3f,
  0xeb, 0x3f, 0xaa, 0xbd, 0xbf, 0x79, 0x02, 0xbd, 0xf9, 0x90, 0x17, 0xbe,
  0x7b, 0xc5, 0x3d, 0x3d, 0xa9, 0xc1, 0x2c, 0x3f, 0x36, 0x4f, 0x1b, 0x3f,
  0x2e, 0xaa, 0x30, 0x3f, 0x63, 0xf5, 0x1a, 0xbf, 0x52, 0x2a, 0xff, 0xbe,
  0x2a, 0xc4, 0xff, 0xff, 0x04, 0x00, 0x00, 0x00, 0x00, 0x18, 0x00, 0x00,
  0x3c, 0x2a, 0x1e, 0x3e, 0xcb, 0xef, 0xca, 0xbd, 0xf6, 0x90, 0xb6, 0x3e,
  0xba, 0xec, 0xa4, 0x3e, 0xfe, 0xc1, 0xc6, 0x3d, 0xc1, 0xcc, 0xc8, 0xbe,
  0x9b, 0xaa, 0x2e, 0x3e, 0x43, 0x1d, 0x99, 0x3e, 0x1d, 0x71, 0x2c, 0xbb,
  0x0b, 0x6d, 0xab, 0xbe, 0xf5, 0x67, 0xa4, 0xbc, 0xbf, 0x9c, 0x07, 0xbf,
  0x26, 0x4e, 0x9a, 0x3e, 0xef, 0x57, 0x5d, 0x3d, 0x96, 0xaa, 0x0b, 0x3f,
  0x4e, 0x8e, 0x8b, 0x3e, 0x5e, 0xa6, 0x9c, 0x3d, 0x77, 0x31, 0xfb, 0x3d,
  0xa1, 0x6b, 0xb2, 0xbd, 0x31, 0x0d, 0x4f, 0x3e, 0x2e, 0x47, 0x3c, 0x3d,
  0x02, 0x0a, 0x05, 0xbe, 0xfa, 0xaa, 0x20, 0xbe, 0xd1, 0xb8, 0x85, 0x3e,
  0x65, 0x5a, 0x11, 0xbb, 0xe5, 0x4c, 0x91, 0x3e, 0xf5, 0x9c, 0x89, 0x3e,
  0x89, 0x31, 0x09, 0xbf, 0x3d, 0xe0, 0xe3, 0x3e, 0x04, 0x22, 0xc2, 0xbe,
  0x0d, 0xfe, 0x22, 0xbe, 0x47, 0x28, 0x9f, 0x3e, 0xcd, 0x2c, 0x20, 0x3e,
  0xa9, 0x12, 0x85, 0x3d, 0x79, 0x90, 0x33, 0x3e, 0x20, 0xbd, 0x04, 0x3f,
  0xc4, 0x71, 0x57, 0x3d, 0x8e, 0xfb, 0x35, 0xbe, 0x27, 0x83, 0xae, 0xbe,
  0x13, 0x1d, 0x03, 0xbc, 0xf6, 0x17, 0xa4, 0xbe, 0xb4, 0x9f, 0xe5, 0x3c,
  0x8e, 0x3f, 0xed, 0xbd, 0x4e, 0x74, 0xc5, 0x3e, 0x2d, 0xd2, 0x6d, 0x3e,
  0x4b, 0x15, 0xd6, 0xbe, 0xd8, 0xac, 0x88, 0xbe, 0x32, 0xdb, 0x21, 0x3d,
  0xe6, 0x9d, 0xb3, 0xbe, 0x16, 0x32, 0xde, 0x3e, 0x95, 0x1c, 0x71, 0x3d,
  0x81, 0x1b, 0xaf, 0x3d, 0x13, 0xc8, 0x18, 0x3d, 0x7e, 0xc4, 0xf4, 0xbd,
  0x84, 0x8b, 0xae, 0xbc, 0xd6, 0x47, 0x0d, 0x3e, 0x49, 0x9d, 0xc2, 0x3e,
  0xed, 0x0b, 0x3b, 0x3e, 0x5b, 0xef, 0x16, 0x3e, 0x45, 0x5f, 0xa8, 0x3e,
  0xd2, 0xc1, 0x80, 0xbd, 0x50, 0x1c, 0xc8, 0x3d, 0x36, 0xa6, 0x31, 0xbe,
  0x1b, 0xf4, 0xa4, 0xbe, 0x9c, 0x11, 0xec, 0x3e, 0x15, 0x20, 0x3a, 0xbe,
  0x30, 0xa0, 0x05, 0x3f, 0x73, 0xe4, 0x8c, 0x3e, 0x87, 0x60, 0xe9, 0xbe,
  0xc5, 0xa5, 0x54, 0xbe, 0xc1, 0x33, 0x8f, 0x3e, 0xf2, 0xfe, 0x35, 0x3e,
  0x70, 0x54, 0x77, 0x3e, 0x69, 0xa7, 0xcb, 0xbe, 0x4f, 0xc9, 0x93, 0xbe,
  0x04, 0x0b, 0x39, 0x3f, 0x20, 0xbc, 0x9f, 0xbe, 0x03, 0x9a, 0x1a, 0x3f,
  0xc6, 0x92, 0x3e, 0xbe, 0x07, 0x38, 0x99, 0xbe, 0x0c, 0x0d, 0xb7, 0x3e,
  0x0d, 0x4f, 0x61, 0x3b, 0x4e, 0x51, 0x00, 0xbf, 0xaa, 0x5a, 0x63, 0x3e,
  0x58, 0x72, 0xab, 0x3e, 0xc1, 0xd9, 0x40, 0x3e, 0xfe, 0x28, 0x13, 0x3d,
  0xfe, 0x12, 0x9d, 0x3c, 0x42, 0x62, 0xb1, 0x3e, 0x70, 0xbb, 0xb3, 0xbe,
  0xb1, 0x65, 0x96, 0xbe, 0x6b, 0xb4, 0xda, 0x3e, 0x0a, 0xdb, 0x71, 0xbb,
  0x57, 0xd4, 0xce, 0x3e, 0x68, 0x3e, 0xf5, 0x3e, 0x8d, 0xb7, 0x6f, 0xbc,
  0x9f, 0xd8, 0xa1, 0x3b, 0x3a, 0xfa, 0x86, 0xbc, 0x99, 0xa3, 0xda, 0x3e,
  0xe0, 0x0b, 0xd1, 0x3c, 0x6f, 0x9a, 0x1a, 0x3e, 0xb4, 0x2f, 0xce, 0xbe,
  0x33, 0xa8, 0x55, 0xbe, 0xf5, 0x77, 0x77, 0x3e, 0xf0, 0x39, 0x44, 0xbe,
  0xd2, 0x62, 0x8a, 0xbe, 0x47, 0xa6, 0x0e, 0xbe, 0xb1, 0xae, 0x7f, 0xbd,
  0x35, 0xbe, 0x3e, 0x3e, 0x8a, 0x55, 0xfa, 0x3c, 0x21, 0xe9, 0x0f, 0x3f,
  0xd9, 0xc7, 0x45, 0x3e, 0x29, 0xa7, 0x5a, 0x3c, 0x51, 0xfb, 0x6e, 0xbe,
  0x60, 0x1f, 0xbc, 0xbe, 0x25, 0x8f, 0x72, 0x3e, 0xb1, 0x66, 0x0e, 0x3e,
  0xb0, 0x5a, 0xa9, 0x3b, 0x05, 0xa2, 0x00, 0xbe, 0x1b, 0x25, 0x0d, 0x3f,
  0x4c, 0xaf, 0x52, 0x3d, 0xff, 0x71, 0x15, 0x3f, 0x27, 0xcb, 0x40, 0xbd,
  0x45, 0xd7, 0x0d, 0xbf, 0x4a, 0x08, 0xf4, 0x3e, 0xbc, 0x6b, 0xc3, 0xbe,
  0xb1, 0x51, 0x8c, 0x3e, 0xc6, 0x61, 0xec, 0x3e, 0x9d, 0x15, 0xc2, 0x3c,
  0xe2, 0x01, 0x9c, 0x3e, 0xe1, 0x60, 0xba, 0x3d, 0xce, 0x61, 0xeb, 0x3e,
  0x34, 0x35, 0x5c, 0xbe, 0x36, 0x17, 0x2d, 0xbe, 0xaf, 0x17, 0xa8, 0xbe,
  0xe3, 0x59, 0x8f, 0xbe, 0xd1, 0xb5, 0x0b, 0xbe, 0x53, 0x3d, 0xf6, 0x3e,
  0x46, 0x88, 0x13, 0x3d, 0xce, 0x7e, 0xde, 0x3c, 0x4b, 0xfc, 0x12, 0xbd,
  0x4e, 0x30, 0x9f, 0xbe, 0xfb, 0xd8, 0xd4, 0xbe, 0xd6, 0x2c, 0x3a, 0x3e,
  0x30, 0x4c, 0xfd, 0x3e, 0xe2, 0x87, 0x8b, 0xbe, 0xf5, 0x5f, 0x67, 0xbe,
  0x0f, 0x5c, 0x03, 0x3f, 0x89, 0xf0, 0x6d, 0x3d, 0x2d, 0x4d, 0xc4, 0x3e,
  0x16, 0xe3, 0x32, 0xbe, 0xc8, 0x33, 0x8d, 0x3e, 0x23, 0xed, 0x30, 0x3e,
  0x5e, 0xe9, 0xeb, 0x3d, 0xeb, 0x49, 0x62, 0xbe, 0x3a, 0xeb, 0x5f, 0xbd,
  0x64, 0x9d, 0x01, 0x3f, 0xd2, 0x85, 0x81, 0xbe, 0xab, 0x5a, 0x49, 0x3e,
  0x5f, 0x57, 0x01, 0xbd, 0xe6, 0xae, 0xf7, 0xbd, 0x1a, 0xea, 0x0c, 0xbe,
  0xc5, 0xd9, 0x16, 0xbf, 0xbd, 0xe1, 0xc1, 0x3d, 0x3d, 0xf7, 0x2a, 0x3f,
  0xc5, 0x3f, 0xa7, 0x3e, 0xd6, 0x47, 0xdd, 0xbe, 0xd5, 0x1d, 0x6c, 0x3c,
  0xc6, 0xa6, 0x91, 0x3e, 0xd3, 0x30, 0xbb, 0x3e, 0x36, 0x5f, 0x02, 0x3f,
  0xbc, 0x0a, 0xe6, 0xbe, 0xfb, 0x20, 0xe8, 0x3d, 0xe6, 0x3c, 0x9e, 0xbe,
  0xee, 0xd8, 0x52, 0x3e, 0x30, 0x8e, 0x3b, 0x3e, 0x3e, 0x58, 0x9e, 0xbe,
  0x7c, 0xa7, 0x7e, 0x3e, 0x98, 0x67, 0xe9, 0x3e, 0x96, 0xf4, 0xfa, 0xbd,
  0xf9, 0x82, 0xa7, 0xbe, 0x47, 0x85, 0xa5, 0xbd, 0xe7, 0x73, 0xa3, 0x3e,
  0x6a, 0xaf, 0x09, 0xbe, 0x0d, 0x3c, 0x9d, 0xbe, 0x92, 0x56, 0x50, 0x3e,
  0x4d, 0xb5, 0x13, 0x3f, 0x72, 0xf8, 0x42, 0xbe, 0x7d, 0x78, 0x3c, 0x3e,
  0xb8, 0xa8, 0x0d, 0xbe, 0x3f, 0x02, 0xda, 0xbe, 0x0d, 0xdf, 0x4b, 0x3d,
  0x24, 0xb7, 0x4e, 0x3e, 0xdd, 0x25, 0x6f, 0xbe, 0x29, 0xd2, 0x92, 0x3e,
  0x9e, 0x46, 0x7e, 0xbe, 0x8c, 0x7e, 0xb8, 0x3e, 0xbe, 0xed, 0x54, 0xbe,
  0x92, 0xb5, 0xea, 0xbd, 0x7f, 0x3a, 0xa3, 0xbd, 0x2a, 0xdb, 0x8d, 0xbe,
  0x88, 0xa2, 0x30, 0x3e, 0x16, 0x01, 0xda, 0xbd, 0x2e, 0x83, 0xb0, 0xbe,
  0x3a, 0x2e, 0xe4, 0xbd, 0xb3, 0xc5, 0x4c, 0xbe, 0x94, 0x1b, 0xc1, 0x3e,
  0xe9, 0x9f, 0x5b, 0x3e, 0x37, 0x6d, 0x8a, 0xbd, 0x7d, 0xab, 0x49, 0xbe,
  0x93, 0x5e, 0xb4, 0xbe, 0xf5, 0xf5, 0xa4, 0x3e, 0x6a, 0xe6, 0x50, 0x3e,
  0x22, 0xfe, 0xb5, 0xbd, 0xf6, 0x80, 0x32, 0xbe, 0x58, 0x83, 0xa8, 0x3d,
  0x94, 0xa0, 0xed, 0xbd, 0x9d, 0x35, 0x81, 0x3d, 0xae, 0x20, 0x2a, 0x3e,
  0xd1, 0x24, 0x6b, 0xbe, 0xbf, 0xb8, 0x8c, 0xbd, 0x80, 0x46, 0x86, 0xbe,
  0xc5, 0xcb, 0x14, 0x39, 0xf8, 0x9f, 0xd2, 0x3d, 0x8d, 0x13, 0x5a, 0xbe,
  0x26, 0x53, 0xd7, 0x3c, 0x85, 0x08, 0x0b, 0xbe, 0xff, 0xbf, 0xc3, 0x3e,
  0x24, 0x11, 0x6c, 0xbe, 0x85, 0x0f, 0x8e, 0xbe, 0x44, 0x9e, 0x42, 0xbe,
  0x6d, 0x4c, 0xda, 0xbe, 0xdb, 0x05, 0x28, 0x3d, 0xa1, 0xb4, 0x13, 0x3e,
  0xc5, 0x73, 0xcc, 0xbd, 0x30, 0x89, 0xfc, 0x3b, 0xe3, 0xdf, 0x8f, 0xbe,
  0xdf, 0xa5, 0xb3, 0xbd, 0xe4, 0x98, 0xd1, 0x3d, 0x8f, 0x12, 0x3f, 0x3e,
  0x03, 0x6f, 0x28, 0x3e, 0x54, 0xe3, 0x85, 0xbe, 0x52, 0x8a, 0x05, 0x3f,
  0xd8, 0x2c, 0x09, 0xbe, 0x35, 0xcd, 0x1f, 0x3e, 0xfc, 0x20, 0xc4, 0xbe,
  0x50, 0x1e, 0x72, 0x3e, 0xf4, 0x14, 0x83, 0xbd, 0xa6, 0x9e, 0x22, 0xbe,
  0xb9, 0x92, 0x73, 0xbd, 0xd8, 0x63, 0x24, 0x3d, 0xaf, 0x09, 0xcf, 0xbe,
  0xf8, 0x43, 0x84, 0x3d, 0x28, 0x5d, 0x92, 0x3e, 0xbf, 0xfa, 0x36, 0x3e,
  0xeb, 0x17, 0xc3, 0x3e, 0xaf, 0xe5, 0x1a, 0xbe, 0xde, 0x7a, 0x48, 0xbe,
  0xd0, 0xd6, 0xdf, 0x3c, 0xb6, 0x46, 0xa1, 0x3e, 0x2d, 0xd2, 0x43, 0xbe,
  0xf9, 0x9b, 0x95, 0xbd, 0x4e, 0x62, 0xac, 0xbe, 0xab, 0x28, 0x11, 0x3f,
  0xa2, 0xcd, 0x58, 0x3e, 0x14, 0x38, 0xd6, 0x3e, 0x0c, 0x86, 0xde, 0x3c,
  0xfa, 0xe7, 0xe3, 0xbd, 0xff, 0xa8, 0x53, 0xbc, 0x78, 0x06, 0x48, 0xbe,
  0x1d, 0xe5, 0xdf, 0x3c, 0x9e, 0x71, 0xc4, 0x3e, 0x6b, 0x13, 0xb5, 0xbe,
  0xfb, 0x69, 0xd4, 0x3e, 0x83, 0xb9, 0x1b, 0x3e, 0xd3, 0x9a, 0xcd, 0xbd,
  0x5d, 0xba, 0x87, 0x3d, 0x48, 0x7b, 0x04, 0xbe, 0xc8, 0x0c, 0xd9, 0xbc,
  0x1e, 0x6f, 0x5b, 0xbe, 0x98, 0x29, 0xd1, 0xbe, 0x7e, 0xdf, 0xac, 0x3e,
  0xbd, 0x98, 0xab, 0x3e, 0x42, 0x5a, 0x68, 0x3e, 0x57, 0xf5, 0x05, 0xbe,
  0x07, 0x53, 0x0c, 0xbe, 0x22, 0x09, 0x96, 0xbd, 0xa0, 0x19, 0x31, 0x3e,
  0xa0, 0x97, 0xc8, 0xbd, 0xab, 0x06, 0xd9, 0xbe, 0xd2, 0x03, 0xf5, 0xbe,
  0x5a, 0xf9, 0xec, 0x3d, 0x83, 0x8e, 0x8d, 0x3c, 0x52, 0xfa, 0xf5, 0x3e,
  0x6a, 0x97, 0x72, 0x3e, 0x21, 0x67, 0xbb, 0xbc, 0x38, 0x88, 0x98, 0x3e,
  0x2c, 0x46, 0x56, 0xbd, 0xe4, 0xb1, 0xd6, 0xbd, 0x8a, 0x21, 0x66, 0x3a,
  0x67, 0x8d, 0xab, 0x3e, 0xf6, 0x4c, 0x76, 0xbe, 0xa2, 0x86, 0x55, 0xbd,
  0xae, 0x02, 0x27, 0xbe, 0x08, 0xaf, 0xfb, 0xbd, 0xde, 0xc0, 0x25, 0x3e,
  0x34, 0x30, 0xf7, 0xbe, 0x16, 0x5a, 0x82, 0xbb, 0x34, 0xb4, 0x87, 0x3e,
  0xd0, 0x98, 0xcd, 0x3e, 0x66, 0x9d, 0xdb, 0xbe, 0xa7, 0xf9, 0x4a, 0xbe,
  0x05, 0x10, 0x46, 0x3e, 0x92, 0xef, 0x38, 0xbe, 0x5f, 0x4c, 0x0f, 0x3c,
  0x81, 0x7a, 0xb6, 0xbe, 0x0c, 0x0d, 0x9d, 0xbc, 0x01, 0xbc, 0xa2, 0xbe,
  0xce, 0xe5, 0x05, 0x3d, 0x96, 0x5c, 0xf0, 0x3b, 0xe4, 0x3f, 0x8b, 0xbe,
  0xc2, 0x74, 0xf7, 0xbd, 0x95, 0x3f, 0xd1, 0x3e, 0xb5, 0x83, 0x98, 0x3d,
  0xce, 0xf7, 0xa4, 0xbd, 0x51, 0x8b, 0xd1, 0x3e, 0xec, 0x28, 0x24, 0x3c,
  0x08, 0x47, 0xd4, 0x3d, 0x70, 0x12, 0x5c, 0xbe, 0x63, 0x63, 0xc4, 0x3c,
  0xbb, 0x4f, 0x8b, 0x3e, 0xb8, 0x14, 0xf3, 0xbc, 0x81, 0x5b, 0x88, 0x3e,
  0x33, 0xc9, 0x62, 0x3e, 0xb1, 0x9e, 0x0d, 0xbe, 0xb8, 0xbe, 0x23, 0xbe,
  0x94, 0x84, 0xa9, 0xbc, 0x64, 0xc2, 0x3c, 0xbe, 0x27, 0x3b, 0x4c, 0x3d,
  0xf0, 0xb2, 0xa6, 0x3c, 0x4e, 0x4d, 0xa8, 0xbd, 0xc2, 0x8f, 0x52, 0x3d,
  0x50, 0xd3, 0x62, 0xbe, 0x36, 0xa9, 0xa8, 0xbd, 0x1d, 0x8f, 0x87, 0x3d,
  0x61, 0xa1, 0x36, 0xbe, 0xaf, 0x17, 0x3f, 0x3e, 0x44, 0xee, 0x6f, 0xbd,
  0xf9, 0x32, 0xb9, 0xbe, 0xca, 0xd4, 0x95, 0x3e, 0xf9, 0x6e, 0x07, 0x3e,
  0x4d, 0xb1, 0x5f, 0xbd, 0x08, 0xa8, 0xf2, 0x3d, 0x60, 0x22, 0x5f, 0xbd,
  0x49, 0xd5, 0x81, 0xbe, 0x49, 0x03, 0x58, 0x3e, 0x92, 0x32, 0xc2, 0xbe,
  0xb0, 0xfa, 0x8c, 0x3d, 0x0b, 0x0e, 0xb3, 0x3d, 0x17, 0xef, 0x79, 0x3e,
  0x19, 0x6a, 0x83, 0xbe, 0x31, 0xe4, 0x24, 0xbc, 0x49, 0x23, 0x46, 0xbe,
  0x7e, 0xd1, 0x97, 0x3c, 0xda, 0x78, 0x24, 0x3e, 0x93, 0x10, 0x89, 0xbc,
  0xb4, 0x28, 0xb6, 0xbe, 0x3b, 0x7f, 0x90, 0xbd, 0x91, 0xf8, 0x19, 0xbc,
  0xb0, 0x30, 0xdf, 0xbd, 0x70, 0xe2, 0xad, 0xbe, 0x07, 0x8a, 0x08, 0x3e,
  0x02, 0xf7, 0x9d, 0xbe, 0xb2, 0x4e, 0x95, 0xbd, 0x07, 0x7f, 0x12, 0x3e,
  0xcd, 0x63, 0xa9, 0x3d, 0xba, 0x7d, 0x80, 0xbe, 0x1f, 0x4c, 0x62, 0x3e,
  0xae, 0x06, 0xaa, 0xbe, 0xc1, 0xfb, 0x07, 0xbe, 0xee, 0xf3, 0xc5, 0x3d,
  0xce, 0x66, 0x78, 0xbc, 0x50, 0x74, 0x57, 0x3e, 0xfd, 0xd2, 0x5e, 0xbe,
  0xdf, 0x45, 0xfc, 0x3d, 0xc9, 0xba, 0xb5, 0xbe, 0x57, 0xa0, 0x25, 0xbf,
  0x71, 0x7a, 0x1b, 0xbc, 0x13, 0x6d, 0x5e, 0xbd, 0x26, 0x7e, 0x6d, 0x3e,
  0x68, 0x71, 0x52, 0x3e, 0xea, 0x48, 0x3c, 0xbe, 0xff, 0xd2, 0x45, 0x3d,
  0xa3, 0x2d, 0x78, 0xbd, 0xef, 0x60, 0xb7, 0xbe, 0x22, 0x4d, 0x02, 0x3f,
  0x2c, 0x6d, 0x0e, 0xbe, 0x86, 0x17, 0x7b, 0xbe, 0xe4, 0x39, 0xc3, 0xbe,
  0x1d, 0x7d, 0x1b, 0x3c, 0xa5, 0xa0, 0xd1, 0xbd, 0x19, 0x9f, 0x58, 0xbe,
  0xdf, 0x0a, 0x98, 0xbe, 0x71, 0x3c, 0x99, 0xbe, 0x34, 0x06, 0x2e, 0x3e,
  0xfe, 0x26, 0x0b, 0x3e, 0x6a, 0xb8, 0xcd, 0x3d, 0x51, 0x6a, 0xf2, 0xbe,
  0xe1, 0xe5, 0x0c, 0xbe, 0x00, 0x0d, 0x12, 0xbc, 0xf2, 0xeb, 0xe1, 0xbd,
  0xd2, 0x37, 0x77, 0xbe, 0xfb, 0xec, 0xa2, 0xbd, 0xa6, 0x39, 0xbd, 0xbe,
  0x7c, 0x76, 0xc3, 0x3e, 0x9c, 0xcc, 0xaf, 0xbd, 0xc3, 0x86, 0xb6, 0x3d,
  0x47, 0xcf, 0x89, 0xbd, 0x11, 0x0b, 0x91, 0xbe, 0xb4, 0x0c, 0xfc, 0xbe,
  0x63, 0xf2, 0x82, 0xbd, 0x2f, 0x4b, 0x15, 0x3e, 0xc6, 0xe1, 0xd9, 0x3e,
  0x4c, 0x80, 0x22, 0x3f, 0xf4, 0xad, 0x4c, 0x3d, 0xf3, 0x8c, 0x36, 0xbe,
  0xda, 0xa5, 0x93, 0x3e, 0xcc, 0xca, 0xc5, 0xbe, 0x27, 0x35, 0xc6, 0x3e,
  0x0b, 0xc8, 0xd6, 0x3e, 0xd7, 0x41, 0x9f, 0xbd, 0x21, 0x10, 0x5a, 0xbe,
  0x72, 0x2d, 0x04, 0xbf, 0x6f, 0x67, 0x17, 0x3f, 0x8b, 0x8d, 0x41, 0x3b,
  0x76, 0x80, 0xa6, 0xbe, 0xbd, 0x81, 0xa3, 0xbe, 0xe8, 0xf5, 0x2c, 0xbe,
  0xeb, 0x10, 0xb1, 0x3c, 0x77, 0x11, 0x61, 0x3e, 0x33, 0x6f, 0x88, 0x3e,
  0xb7, 0x68, 0xeb, 0x3d, 0x7d, 0xf3, 0xba, 0x3e, 0xac, 0xe3, 0x43, 0x3d,
  0x94, 0x51, 0xd9, 0xbe, 0xc8, 0x30, 0x60, 0xbe, 0xb1, 0xec, 0x92, 0xbe,
  0x68, 0xab, 0x91, 0xbe, 0x84, 0x88, 0x9c, 0x3e, 0xe7, 0x93, 0x2e, 0xbe,
  0x28, 0x26, 0xd3, 0x3e, 0xcf, 0x4e, 0xa4, 0x3e, 0x05, 0x66, 0x13, 0xbf,
  0x3a, 0xf4, 0x04, 0xbe, 0xa2, 0xef, 0x05, 0x3f, 0x81, 0x5e, 0x20, 0x3e,
  0xef, 0x1a, 0x74, 0x3e, 0x7f, 0x7a, 0x11, 0xbb, 0xf4, 0xcb, 0xc4, 0xbe,
  0xa9, 0xa0, 0x3e, 0x3e, 0x38, 0x25, 0x2a, 0xbd, 0x6d, 0xb5, 0x92, 0x3e,
  0x48, 0x11, 0x7b, 0xbe, 0x94, 0xef, 0x31, 0xbe, 0x39, 0xc7, 0x91, 0x3e,
  0x31, 0x47, 0x4f, 0x3e, 0x54, 0xff, 0xe4, 0xbe, 0x18, 0xf3, 0xda, 0xbd,
  0x44, 0x0a, 0xdf, 0x3e, 0xdf, 0xff, 0x19, 0xbe, 0xec, 0xc2, 0x96, 0x3d,
  0x7c, 0x50, 0xc7, 0x3e, 0x9e, 0x72, 0xb4, 0x3e, 0x22, 0x87, 0x5b, 0xbe,
  0xe0, 0xd5, 0x94, 0xbe, 0xae, 0xf1, 0xb1, 0x3e, 0x61, 0xad, 0x4b, 0xbe,
  0xad, 0xff, 0x9a, 0x3d, 0xc5, 0x98, 0xca, 0x3e, 0x07, 0xb4, 0xec, 0x3d,
  0xc3, 0xa2, 0x76, 0x3e, 0x53, 0x3a, 0x01, 0xbf, 0xc7, 0xde, 0x28, 0xbf,
  0x59, 0xd9, 0x91, 0x3e, 0xbd, 0x1c, 0x9d, 0x3d, 0x0a, 0xd6, 0x12, 0x3f,
  0x42, 0xbc, 0x0c, 0xbe, 0x2f, 0xde, 0xbc, 0xbd, 0x7e, 0x2e, 0x56, 0x3e,
  0xc2, 0x2e, 0x7b, 0xbe, 0xed, 0x75, 0x56, 0xbe, 0x09, 0x6f, 0x0e, 0x3f,
  0xfc, 0xe2, 0xa2, 0x3d, 0x13, 0x2c, 0x70, 0x3d, 0xdf, 0x7b, 0x2a, 0xbe,
  0xdb, 0xa9, 0x90, 0xbe, 0xa9, 0xd0, 0x0d, 0xbe, 0xab, 0x05, 0x5e, 0x3e,
  0x21, 0xa5, 0xe2, 0xbe, 0xdf, 0x68, 0x0e, 0x3c, 0x5f, 0xf1, 0x27, 0x3e,
  0xde, 0xac, 0x4b, 0x3e, 0x8a, 0x8a, 0xd1, 0xbe, 0x5c, 0x24, 0xe3, 0xbe,
  0x7e, 0xc3, 0xea, 0xbc, 0x71, 0x81, 0x7c, 0xbe, 0x93, 0xa5, 0x97, 0xbc,
  0x6b, 0x4e, 0xb6, 0xbe, 0xc6, 0xf3, 0xd4, 0x3d, 0x1f, 0xe0, 0x00, 0xbf,
  0x62, 0x2e, 0xc9, 0x3e, 0x46, 0x3a, 0x05, 0xbe, 0xef, 0x67, 0xfb, 0xbd,
  0x70, 0xde, 0x6d, 0xbe, 0xdf, 0xd3, 0x0f, 0x3e, 0x3a, 0x13, 0xc3, 0xbe,
  0x7f, 0x09, 0x1f, 0xbe, 0xf4, 0x3c, 0x1f, 0x3e, 0x89, 0x3b, 0xd2, 0x3e,
  0xca, 0xe5, 0x7e, 0x3e, 0xa3, 0x48, 0x9c, 0xbd, 0x38, 0x47, 0x1a, 0xbe,
  0xa5, 0x01, 0x7e, 0x3e, 0xb1, 0x2b, 0xd2, 0xbe, 0x9a, 0xbe, 0x9f, 0x3e,
  0xf9, 0x92, 0x70, 0x3e, 0xa7, 0x87, 0xb3, 0xbe, 0x46, 0xae, 0x93, 0x3d,
  0x69, 0x37, 0xd5, 0x3d, 0xc5, 0x9f, 0x89, 0x3e, 0x57, 0xa6, 0x58, 0xbe,
  0x1a, 0x4a, 0x4b, 0x3e, 0x82, 0xcc, 0xe7, 0xbd, 0xa7, 0x42, 0x11, 0x3f,
  0xa5, 0x7e, 0xb4, 0xbd, 0xf2, 0x90, 0x9a, 0xbe, 0x44, 0x8d, 0xf5, 0x3e,
  0x0e, 0xe7, 0xb7, 0x3e, 0x93, 0x68, 0x82, 0xbe, 0xac, 0x58, 0x2c, 0x3f,
  0x36, 0x9f, 0xfa, 0xbd, 0x23, 0x50, 0x2d, 0xbe, 0x9e, 0xc2, 0xd5, 0xbd,
  0xfc, 0x10, 0xd9, 0xbe, 0xc1, 0x81, 0xa3, 0x3e, 0x54, 0x8a, 0xab, 0x3d,
  0x42, 0xeb, 0xab, 0x3e, 0x30, 0xc5, 0x03, 0x3e, 0x4f, 0x6f, 0xfa, 0x3d,
  0x0d, 0x4b, 0x28, 0xbd, 0x61, 0xc8, 0x79, 0x3e, 0xc3, 0xb1, 0xdc, 0xbe,
  0x13, 0x75, 0x0d, 0x3e, 0xa2, 0xce, 0x9c, 0xbe, 0xc4, 0x6b, 0x65, 0xbe,
  0x5a, 0xb8, 0x91, 0x3e, 0x9a, 0x0b, 0x15, 0xbd, 0xfb, 0xde, 0xe6, 0x3e,
  0x7a, 0xb7, 0x54, 0x3e, 0x70, 0xcf, 0x84, 0xbe, 0x52, 0x44, 0x60, 0x3e,
  0x28, 0x64, 0x3d, 0xbe, 0xce, 0x22, 0x08, 0xbd, 0xfa, 0xc5, 0x84, 0xbe,
  0x1e, 0x43, 0x2d, 0x3e, 0xdd, 0xb1, 0x10, 0x3f, 0x1b, 0x4f, 0x18, 0x3e,
  0x6d, 0x6a, 0x28, 0x3f, 0x06, 0x1e, 0x74, 0xbd, 0x59, 0x80, 0xf3, 0x3c,
  0x49, 0x4c, 0xdb, 0x3b, 0x66, 0x2f, 0x8d, 0x3d, 0x54, 0xea, 0xc1, 0x3e,
  0xec, 0x2c, 0x1a, 0x3f, 0xe4, 0xee, 0x4c, 0x3d, 0x4d, 0xa7, 0x81, 0x3d,
  0xca, 0x61, 0x01, 0xbf, 0xbd, 0x60, 0xf9, 0x3d, 0xb7, 0x68, 0xe7, 0x3c,
  0x3d, 0xee, 0xe7, 0xbe, 0xfc, 0x2d, 0xce, 0xbd, 0xb3, 0x31, 0x92, 0xbc,
  0xb7, 0x3b, 0x8b, 0x3d, 0xe0, 0x9e, 0xd3, 0x3c, 0x62, 0x6c, 0x98, 0x3e,
  0x68, 0x65, 0x02, 0xbe, 0x27, 0x0b, 0xb5, 0x3e, 0xbc, 0x57, 0x59, 0x3d,
  0x61, 0xcc, 0x89, 0xbe, 0x32, 0x26, 0xcf, 0x3d, 0xf3, 0x77, 0xb9, 0x3d,
  0xd1, 0xc6, 0x7e, 0x3c, 0x1b, 0x89, 0xa7, 0x3e, 0x99, 0xd2, 0x11, 0xbe,
  0xa6, 0x3a, 0xf7, 0x3e, 0x00, 0xfc, 0x87, 0x3e, 0x8e, 0xce, 0x9c, 0xbe,
  0x4b, 0xd6, 0x86, 0xbe, 0x41, 0xbb, 0x17, 0x3f, 0x19, 0x53, 0x75, 0xbe,
  0xed, 0xa9, 0x04, 0x3e, 0x6e, 0x23, 0xe2, 0xbe, 0x97, 0x86, 0x10, 0xbf,
  0x92, 0x68, 0x6e, 0x3e, 0x64, 0x9c, 0xb1, 0x3d, 0x62, 0x64, 0xcc, 0x3e,
  0x5b, 0x9c, 0x6d, 0xbe, 0x22, 0x38, 0xb8, 0xbe, 0x63, 0xa8, 0x15, 0x3f,
  0xff, 0x16, 0xbd, 0x3d, 0x40, 0xf2, 0x81, 0xbe, 0xe2, 0x7b, 0x90, 0x3e,
  0xab, 0xd6, 0xc4, 0x3e, 0x10, 0x0f, 0x33, 0x3e, 0xa8, 0x93, 0x8e, 0x3e,
  0x54, 0xbb, 0x94, 0x3e, 0xc7, 0x6c, 0xbc, 0x3e, 0x9a, 0x64, 0x84, 0xbe,
  0x13, 0x1e, 0x84, 0xbe, 0x49, 0x2d, 0x8a, 0x3e, 0x4d, 0x80, 0xae, 0xbe,
  0xd5, 0x55, 0x84, 0x3c, 0x7a, 0xfa, 0xee, 0x3e, 0x43, 0x22, 0x4b, 0xbe,
  0x26, 0x35, 0xb0, 0xbc, 0x8d, 0x66, 0x4c, 0x3e, 0xff, 0x6c, 0x16, 0x3f,
  0xfe, 0x0e, 0x2f, 0xbe, 0xd4, 0xaa, 0x2a, 0xbe, 0x89, 0xcb, 0xaa, 0x3c,
  0x21, 0xc2, 0x95, 0xbe, 0x2a, 0xb9, 0xe0, 0x3e, 0x86, 0xb2, 0xaf, 0xbc,
  0x5d, 0xde, 0xa7, 0xbd, 0x2a, 0x20, 0xc7, 0x3e, 0x83, 0x0c, 0x97, 0xbe,
  0xda, 0x00, 0xcd, 0x3d, 0x64, 0xf3, 0x94, 0x3d, 0xc8, 0xa0, 0xe8, 0x3e,
  0x3c, 0x17, 0x16, 0x3e, 0x8c, 0xb1, 0x5c, 0x3e, 0x30, 0xf1, 0x14, 0x3d,
  0x61, 0x88, 0x88, 0x3e, 0x72, 0xcd, 0xeb, 0x3e, 0x53, 0xf0, 0x6f, 0x3e,
  0xcb, 0x3d, 0x8b, 0xbe, 0x9e, 0x58, 0xa3, 0x3d, 0x1d, 0x34, 0xba, 0x3e,
  0xf6, 0xeb, 0x65, 0x3e, 0xe3, 0xae, 0xe6, 0x3d, 0xf9, 0xdb, 0x2c, 0x3e,
  0xfc, 0xf0, 0xbe, 0x3e, 0x2a, 0xb8, 0x5f, 0x3e, 0x8c, 0x0a, 0xb0, 0x3e,
  0xa7, 0xdb, 0x75, 0xbe, 0xe2, 0x2f, 0x92, 0x3e, 0x0c, 0x1a, 0xf1, 0x3e,
  0xce, 0x1a, 0x04, 0x3f, 0xd3, 0xad, 0xd7, 0xbd, 0x3c, 0xab, 0x35, 0x3f,
  0x10, 0x27, 0x8b, 0x3e, 0x43, 0x6c, 0x4c, 0xbe, 0x81, 0xaa, 0x1b, 0xbe,
  0x91, 0x7a, 0x13, 0xbe, 0x06, 0x89, 0x98, 0x3e, 0x3b, 0xac, 0x5d, 0x3e,
  0x26, 0x6a, 0x06, 0x3e, 0x52, 0x6d, 0x18, 0x3f, 0xa7, 0xf2, 0x66, 0xbe,
  0xe8, 0x1b, 0x81, 0xbe, 0xa3, 0x81, 0xcc, 0x3e, 0x99, 0x3b, 0xf5, 0xbd,
  0xee, 0x25, 0x91, 0x3c, 0xc2, 0xf6, 0x7b, 0x3e, 0x21, 0xbd, 0xe2, 0x3e,
  0x47, 0x1f, 0x67, 0x3c, 0x8e, 0x43, 0x5b, 0x3e, 0x98, 0xaa, 0x00, 0x3d,
  0x2c, 0x95, 0x6d, 0xbd, 0x73, 0x19, 0xb8, 0x3d, 0xb7, 0x4d, 0x78, 0x3e,
  0x54, 0x41, 0x53, 0xbe, 0x64, 0x76, 0xfe, 0x3e, 0x4a, 0xd1, 0x13, 0xbe,
  0xa8, 0x88, 0x12, 0x3e, 0x66, 0x32, 0xbd, 0x3e, 0xa8, 0x53, 0x9b, 0x3e,
  0xf3, 0x21, 0x08, 0x3f, 0xe7, 0xd4, 0x42, 0x3e, 0x75, 0xca, 0x62, 0xbc,
  0x87, 0xc3, 0x1d, 0x3f, 0xcc, 0x44, 0xbc, 0x3d, 0xe7, 0x38, 0x0c, 0xbe,
  0x71, 0xb7, 0x62, 0xbe, 0xe4, 0x3e, 0x0a, 0x3f, 0x71, 0xa2, 0x1e, 0x3f,
  0xf5, 0x1a, 0x9f, 0xbd, 0x0c, 0xd8, 0xc6, 0x3e, 0x84, 0xd7, 0xf5, 0xbd,
  0x0c, 0x31, 0xd4, 0x3e, 0xe4, 0xb1, 0x9e, 0x3e, 0xa0, 0x55, 0x3f, 0x3e,
  0x86, 0xab, 0xc5, 0x3c, 0x35, 0xa3, 0x9c, 0x3e, 0x04, 0x7d, 0xda, 0x3e,
  0x6d, 0x4d, 0x3b, 0x3c, 0x6c, 0x82, 0xc6, 0xbc, 0x42, 0x9a, 0xf9, 0x3e,
  0x8a, 0x23, 0xb0, 0x3d, 0xb2, 0x3d, 0x6a, 0xbd, 0x76, 0xa7, 0x26, 0xbd,
  0x25, 0xa8, 0x52, 0x3d, 0xee, 0x4c, 0xc8, 0x3e, 0x76, 0x7f, 0xc9, 0xbd,
  0xba, 0x4e, 0x34, 0xbe, 0xad, 0xe9, 0x89, 0x3e, 0xfb, 0xa3, 0xd2, 0x3d,
  0x14, 0xb0, 0x2d, 0xbe, 0x96, 0x6d, 0x1b, 0x3e, 0xfa, 0x7a, 0x6c, 0xbd,
  0x21, 0x1e, 0x08, 0xbf, 0x97, 0xd3, 0x9e, 0x3e, 0x4d, 0x2b, 0x24, 0x3e,
  0x46, 0x31, 0x4a, 0xbe, 0x44, 0xa6, 0x17, 0xbe, 0xcd, 0x0b, 0xd2, 0xbd,
  0x5d, 0x2f, 0x88, 0x3d, 0xa7, 0xe4, 0xc3, 0xbd, 0xae, 0x83, 0xdc, 0x3c,
  0x9f, 0xee, 0x06, 0x3e, 0xfb, 0x32, 0x35, 0x3e, 0x1f, 0x2f, 0xeb, 0x3e,
  0xe9, 0x38, 0x98, 0xbe, 0x40, 0xc9, 0x80, 0xbd, 0x42, 0x79, 0x93, 0xbe,
  0xa6, 0x04, 0x90, 0xbe, 0x1f, 0x09, 0xbb, 0x3e, 0x94, 0xc6, 0x06, 0x3e,
  0x21, 0x97, 0x1c, 0x3f, 0xde, 0xf4, 0x05, 0xbe, 0xa6, 0xbc, 0xe1, 0xbe,
  0xa4, 0xc4, 0xad, 0xbd, 0x45, 0x91, 0x11, 0x3f, 0x0e, 0xe4, 0x45, 0x3d,
  0x6c, 0x22, 0x55, 0x3e, 0x69, 0x4b, 0xe7, 0xbc, 0xfc, 0xaa, 0x24, 0xbe,
  0xf1, 0x88, 0x2f, 0x3f, 0x39, 0xc9, 0xd7, 0xbc, 0xc3, 0xab, 0x1e, 0x3f,
  0x10, 0xa1, 0x40, 0xbe, 0xf2, 0x12, 0xc8, 0xbe, 0x89, 0xc2, 0xb4, 0x3e,
  0x0b, 0x0a, 0xc1, 0x3d, 0x77, 0x83, 0xa9, 0xbe, 0xe4, 0xf9, 0x86, 0x3d,
  0xbe, 0x66, 0xb8, 0x3d, 0xd6, 0x4a, 0xe3, 0x3d, 0x2f, 0x1a, 0x15, 0x3e,
  0xe7, 0x3d, 0x86, 0x3e, 0xc8, 0xc9, 0x30, 0x3e, 0x57, 0xe1, 0x57, 0x3d,
  0xd4, 0x53, 0x64, 0xbe, 0x5e, 0x2b, 0x87, 0x3e, 0x02, 0x63, 0xa2, 0xbe,
  0x7c, 0x4d, 0x8d, 0x3e, 0x5c, 0x77, 0x36, 0x3f, 0x74, 0xec, 0x54, 0x3e,
  0xc3, 0x09, 0xb1, 0xbc, 0x32, 0x68, 0x12, 0x3f, 0x4d, 0x0f, 0x0c, 0x3f,
  0x6e, 0x2e, 0x36, 0x3e, 0x01, 0xb3, 0x75, 0x3d, 0x73, 0x6e, 0x19, 0xbe,
  0xb5, 0x54, 0x7d, 0xbe, 0x12, 0xef, 0x59, 0x3e, 0x73, 0x88, 0x6d, 0x3e,
  0xc4, 0xdd, 0x16, 0xbd, 0xd1, 0x40, 0xc1, 0x3e, 0xb1, 0x8f, 0xf7, 0xbc,
  0xd4, 0x19, 0xa7, 0xbd, 0xb6, 0x48, 0x2d, 0x3e, 0xfa, 0x67, 0x92, 0x3e,
  0x00, 0xb7, 0xcb, 0x3e, 0x88, 0x5b, 0x82, 0x3e, 0xf8, 0x2b, 0xad, 0x3e,
  0x40, 0x34, 0xb0, 0x3e, 0x11, 0x84, 0xcf, 0x3e, 0x50, 0x84, 0xeb, 0x3d,
  0xf6, 0x41, 0xa0, 0xbe, 0xdc, 0xb7, 0x6e, 0x3e, 0x45, 0x63, 0xf9, 0x3e,
  0xaf, 0x99, 0x92, 0x3e, 0x9c, 0xd2, 0x9c, 0xbd, 0x09, 0x20, 0x81, 0xbe,
  0xc6, 0x62, 0x06, 0x3f, 0x0b, 0xe9, 0x15, 0xbd, 0x70, 0xa6, 0x24, 0x3f,
  0xd7, 0x02, 0x86, 0xbe, 0xc5, 0xcd, 0xbf, 0x3e, 0x1d, 0x7a, 0x84, 0x3e,
  0xde, 0x46, 0x21, 0x3e, 0xd5, 0x53, 0xfc, 0xbd, 0x1c, 0x20, 0x1e, 0x3e,
  0xd7, 0xcb, 0xb7, 0x3d, 0x49, 0xc3, 0x28, 0xbe, 0x98, 0x00, 0x8a, 0x3d,
  0x92, 0xb1, 0x33, 0xbe, 0x2d, 0xcb, 0xcd, 0x3e, 0x61, 0x68, 0xe0, 0x3c,
  0xd7, 0x2d, 0x15, 0x3e, 0x22, 0x51, 0x6c, 0x3d, 0xde, 0x64, 0xa2, 0xbe,
  0x1e, 0x7f, 0xf1, 0xbd, 0xa5, 0xbc, 0x12, 0x3f, 0xb1, 0x02, 0x42, 0x3e,
  0xd4, 0xef, 0x0d, 0x3f, 0xb3, 0x70, 0xe7, 0xbe, 0xfc, 0x6b, 0x0e, 0x3e,
  0x7b, 0x5d, 0xce, 0x3e, 0x42, 0x03, 0x2f, 0xbe, 0x12, 0x5b, 0x16, 0xbd,
  0xf4, 0x42, 0x5e, 0xbe, 0xa3, 0xc0, 0x99, 0x3e, 0x21, 0x11, 0xff, 0x3d,
  0x38, 0xbf, 0x3e, 0xbe, 0x1d, 0xfd, 0x0c, 0xbe, 0x98, 0x03, 0xac, 0x3d,
  0x64, 0xba, 0xfc, 0x3e, 0x8b, 0x71, 0x2b, 0x3e, 0x44, 0x3c, 0x79, 0x3d,
  0x3b, 0xd3, 0xbd, 0xbd, 0x55, 0x4d, 0xbb, 0xbe, 0xeb, 0x22, 0x91, 0xbd,
  0x8c, 0x66, 0xb1, 0xbe, 0x2c, 0x8a, 0x32, 0xbe, 0x69, 0xc1, 0x4e, 0x3f,
  0xaf, 0xac, 0xca, 0x3e, 0x77, 0x00, 0x11, 0xbf, 0xe3, 0x96, 0xa3, 0x3e,
  0x12, 0x4d, 0x8a, 0x3e, 0xa5, 0xef, 0x64, 0x3e, 0xa2, 0x8c, 0x30, 0x3f,
  0x4d, 0xe9, 0xdd, 0xbe, 0x77, 0x04, 0x98, 0x3e, 0xac, 0x37, 0x8d, 0xbe,
  0xc3, 0x16, 0x0c, 0x3f, 0xc9, 0x5b, 0x05, 0x3f, 0x1a, 0x20, 0x87, 0xbe,
  0x06, 0x1f, 0xb0, 0xbd, 0x44, 0xc1, 0x14, 0x3f, 0x9b, 0x41, 0xe5, 0x3b,
  0xeb, 0x4f, 0x20, 0xbe, 0x39, 0x2f, 0x11, 0x3e, 0x4d, 0x19, 0x1f, 0xbe,
  0x5a, 0x6c, 0xc1, 0x3c, 0xc5, 0x5b, 0x96, 0xbe, 0x1e, 0x4f, 0xdd, 0x3e,
  0xfe, 0x37, 0x77, 0x3e, 0x06, 0x19, 0x45, 0xbe, 0x8e, 0xd0, 0xea, 0x3e,
  0x81, 0x86, 0x90, 0x3d, 0xa6, 0x56, 0xff, 0xbe, 0xe1, 0xac, 0x75, 0xbe,
  0xd6, 0xd6, 0x9a, 0xbd, 0xfd, 0x45, 0x4b, 0xbc, 0xb4, 0x53, 0xdb, 0x3d,
  0x5a, 0x4a, 0x0c, 0xbc, 0x0d, 0xe1, 0xf7, 0x3d, 0xf1, 0xb1, 0xac, 0xbd,
  0x6f, 0xc5, 0x33, 0xbe, 0x14, 0x23, 0xb1, 0x3d, 0x21, 0x55, 0xf9, 0x3d,
  0xa0, 0xf0, 0xed, 0xbc, 0x71, 0x67, 0xb7, 0x3c, 0xa9, 0xc0, 0x8b, 0x3e,
  0x66, 0x28, 0x52, 0x3d, 0x43, 0xd0, 0x3a, 0xbd, 0x81, 0x16, 0xbf, 0xbd,
  0x7f, 0x21, 0x98, 0x3d, 0x95, 0xf9, 0x86, 0xbd, 0xc1, 0x0c, 0x45, 0x3e,
  0xe3, 0x7a, 0x4b, 0xbe, 0x68, 0xd5, 0x54, 0xbd, 0xc6, 0x16, 0xa0, 0xbd,
  0xbd, 0x43, 0x96, 0xbe, 0xb5, 0x4c, 0xc6, 0xbe, 0x64, 0x8a, 0xc2, 0x3d,
  0xe9, 0x1d, 0x50, 0x3d, 0x04, 0xaa, 0x24, 0xbe, 0x38, 0x2f, 0x70, 0x3e,
  0xf7, 0xcd, 0x85, 0x3d, 0x8f, 0x13, 0xab, 0xbe, 0x94, 0xe1, 0x35, 0xbe,
  0x18, 0xf4, 0x42, 0x3d, 0x82, 0x1e, 0x61, 0xbe, 0x99, 0xb4, 0x97, 0xbe,
  0xfc, 0xc9, 0x7f, 0x3d, 0x38, 0x43, 0x8c, 0xbe, 0x6d, 0xde, 0x1b, 0xbd,
  0xad, 0x91, 0x0e, 0x3e, 0xdd, 0x02, 0x49, 0x3e, 0x58, 0xa3, 0x0d, 0x3e,
  0xe7, 0x38, 0x07, 0x3d, 0xdc, 0xc0, 0x8b, 0xbd, 0xed, 0x41, 0x3d, 0x3d,
  0x7f, 0x77, 0x3c, 0x3e, 0x27, 0x6a, 0xcc, 0xbe, 0x9a, 0x03, 0x22, 0x3e,
  0xda, 0x5f, 0x77, 0x3d, 0xe5, 0x5c, 0xc1, 0xbe, 0x33, 0xc2, 0x6d, 0xbe,
  0x1b, 0x0f, 0x1a, 0x3f, 0x9d, 0xaa, 0x69, 0x3c, 0xb9, 0x0e, 0x91, 0x3e,
  0x81, 0x33, 0xee, 0x3e, 0xc0, 0x07, 0x8e, 0xbc, 0xad, 0x8b, 0x12, 0x3e,
  0x84, 0x48, 0x74, 0x3d, 0x2b, 0x9b, 0xe1, 0xbd, 0xb5, 0x80, 0x09, 0x3e,
  0xf1, 0xcc, 0x26, 0xbe, 0x75, 0xfa, 0xe4, 0x3d, 0x96, 0x31, 0x4e, 0xbd,
  0xe1, 0xb1, 0xf4, 0x3e, 0x76, 0xb7, 0x83, 0x3e, 0xfe, 0x3a, 0x6b, 0x3e,
  0xcf, 0xe4, 0xd9, 0x3e, 0x89, 0x79, 0x5e, 0xbe, 0xef, 0xbd, 0x19, 0x3e,
  0xf1, 0x39, 0xb9, 0xbe, 0x9e, 0x28, 0x44, 0x3e, 0xc9, 0x3f, 0x48, 0x3e,
  0xd8, 0x44, 0xb0, 0x3b, 0x60, 0x83, 0x6e, 0xbe, 0x55, 0x3e, 0xcb, 0x3e,
  0x0d, 0xf2, 0xa2, 0x3e, 0x10, 0x79, 0x06, 0x3f, 0x61, 0x1d, 0x27, 0x3f,
  0x15, 0xe5, 0xf8, 0xbe, 0xec, 0x40, 0xde, 0x3e, 0xbf, 0xeb, 0x0d, 0xbf,
  0xae, 0x50, 0x2f, 0x3e, 0xdb, 0x6e, 0x0f, 0x3f, 0xa9, 0xdd, 0x3b, 0xbe,
  0xb6, 0xc7, 0x40, 0xbd, 0x6a, 0x58, 0xe7, 0x3e, 0xac, 0x77, 0x5d, 0x3e,
  0xd3, 0x43, 0xcf, 0xbd, 0xb5, 0x69, 0x5d, 0xbd, 0x4c, 0xa3, 0xbb, 0xbd,
  0x44, 0x22, 0x7a, 0xbe, 0x0c, 0x81, 0xe6, 0xbe, 0x65, 0x21, 0xef, 0x3e,
  0x37, 0xe4, 0xa5, 0x3e, 0xae, 0xf9, 0x7e, 0x3d, 0x2e, 0x3f, 0xb9, 0xbd,
  0x2a, 0x98, 0x65, 0xbe, 0x07, 0xaa, 0x41, 0xbe, 0x62, 0xd8, 0x92, 0xbe,
  0x8f, 0xe7, 0xc9, 0xbc, 0xbd, 0x9e, 0xbc, 0x3e, 0x01, 0x44, 0x58, 0x3d,
  0x38, 0xb4, 0xc2, 0xbd, 0xee, 0x31, 0xf9, 0xbd, 0xd6, 0x8b, 0x53, 0xbd,
  0x2b, 0x70, 0xa6, 0x3d, 0xe5, 0x6c, 0x02, 0xbe, 0x43, 0x7b, 0x26, 0x3e,
  0xca, 0xa3, 0xc0, 0x3e, 0xc9, 0x76, 0xbf, 0x3e, 0x18, 0x7c, 0x1d, 0x3e,
  0xe4, 0xf2, 0x95, 0xbd, 0xab, 0xd8, 0x42, 0x3d, 0x04, 0x5a, 0x91, 0x3d,
  0xed, 0xdc, 0x27, 0xbe, 0xc6, 0x48, 0x91, 0x3e, 0x34, 0x57, 0x1b, 0x3e,
  0xcc, 0x08, 0x0a, 0x3f, 0x6e, 0xaf, 0x3d, 0x3d, 0xc4, 0xdc, 0x84, 0xbe,
  0x79, 0x38, 0xdd, 0xbe, 0xf8, 0x9f, 0x1d, 0x3f, 0xca, 0x5f, 0x95, 0x3d,
  0x5e, 0x7d, 0x15, 0x3d, 0x0f, 0x61, 0x20, 0xbe, 0x1b, 0x9b, 0x55, 0xbe,
  0x73, 0xf7, 0x36, 0x3f, 0x2f, 0x12, 0x83, 0xbe, 0xf0, 0xa9, 0x13, 0x3f,
  0x29, 0xc9, 0x11, 0xbd, 0x25, 0xd2, 0x9a, 0xbe, 0x83, 0x35, 0x60, 0x3d,
  0x2e, 0xfb, 0xc3, 0xbd, 0x6a, 0x76, 0xcb, 0xbe, 0xd1, 0x02, 0xc4, 0xbc,
  0x54, 0x68, 0xd7, 0x3e, 0x99, 0x7b, 0xe9, 0x3d, 0x4e, 0x73, 0xe9, 0x3b,
  0xf9, 0x6e, 0x52, 0x3c, 0xc8, 0x88, 0x01, 0x3f, 0x96, 0x6f, 0x14, 0xbe,
  0x67, 0xf5, 0xd7, 0xbe, 0x30, 0xb7, 0x02, 0x3e, 0x86, 0x13, 0xeb, 0xbd,
  0x34, 0x60, 0x8b, 0x3e, 0x54, 0xa8, 0x03, 0x3f, 0x93, 0xfb, 0xad, 0x3c,
  0x66, 0xe3, 0x6d, 0x3e, 0x56, 0x88, 0x08, 0x3e, 0x5e, 0xa8, 0xb6, 0x3e,
  0x86, 0x82, 0x86, 0x3e, 0x85, 0x07, 0xc1, 0x3e, 0x7f, 0x5e, 0xc3, 0xbd,
  0x59, 0xc1, 0x90, 0xbd, 0x2c, 0x71, 0x9f, 0xbb, 0x3d, 0xc8, 0xbf, 0xbe,
  0x6e, 0x84, 0x4b, 0x3d, 0xb7, 0x5e, 0x8f, 0x3e, 0x5e, 0x01, 0x23, 0xbf,
  0x4b, 0xba, 0x5a, 0x3d, 0xc0, 0x94, 0x63, 0xbd, 0x60, 0x92, 0xd3, 0x3e,
  0xae, 0x22, 0x16, 0x3f, 0xf7, 0x0e, 0x23, 0x3d, 0x28, 0xd2, 0xd6, 0xbd,
  0xe5, 0x15, 0x33, 0xbe, 0xc9, 0xf5, 0x02, 0x3e, 0xfb, 0xea, 0x9a, 0x3e,
  0x4e, 0x2e, 0x85, 0xbe, 0xae, 0x23, 0x4e, 0xbe, 0x2a, 0xdb, 0xcb, 0x3e,
  0x4b, 0xf7, 0x8d, 0x3e, 0xc1, 0x14, 0x0d, 0xbd, 0x70, 0xa6, 0xad, 0xbb,
  0x2c, 0x24, 0xc6, 0xbe, 0xbc, 0xe9, 0x84, 0x3e, 0x22, 0xf1, 0x45, 0xbe,
  0xcb, 0xc4, 0xb5, 0xbd, 0x13, 0x4f, 0x0d, 0x3f, 0xca, 0x7d, 0x2b, 0x3d,
  0x34, 0xa0, 0x3e, 0x3e, 0xfd, 0xfa, 0x96, 0x3e, 0xe4, 0xe6, 0xb9, 0x3e,
  0xc0, 0xc0, 0x0c, 0xbe, 0x2f, 0xb8, 0x4b, 0xbe, 0x49, 0x55, 0x0d, 0xbe,
  0x00, 0xab, 0xc6, 0xbe, 0x09, 0x65, 0xca, 0xbe, 0x41, 0xf6, 0xb3, 0x3e,
  0xa8, 0xa2, 0xe4, 0xbd, 0x28, 0x1c, 0xe5, 0x3e, 0xde, 0x97, 0x78, 0x3d,
  0x02, 0x75, 0xfd, 0xbe, 0x77, 0x80, 0xd6, 0xbe, 0x3d, 0x6a, 0x0c, 0x3d,
  0xae, 0x7e, 0xc7, 0xbc, 0x26, 0x61, 0x71, 0xbe, 0x28, 0x6c, 0xfc, 0xbe,
  0xff, 0x3c, 0x9d, 0xbd, 0xa2, 0x4c, 0x91, 0xbe, 0x64, 0xaa, 0xf4, 0x3e,
  0xd8, 0x69, 0x22, 0x3e, 0xd6, 0xf1, 0x90, 0xbd, 0x7f, 0x66, 0xc0, 0x3e,
  0x58, 0x24, 0x83, 0x3d, 0x28, 0x2f, 0x04, 0xbf, 0x0e, 0xf1, 0xef, 0x3e,
  0xb3, 0xbd, 0x85, 0x3e, 0xd8, 0x84, 0xff, 0x3d, 0x19, 0x0a, 0x17, 0xbe,
  0xb4, 0x9b, 0xfe, 0xbe, 0x05, 0x23, 0x6d, 0xbe, 0xdc, 0x62, 0x0f, 0xbe,
  0xa1, 0xd9, 0xa5, 0xbe, 0x13, 0x10, 0x2f, 0xbe, 0x54, 0x5c, 0xa3, 0x3e,
  0xd7, 0x04, 0x22, 0x3e, 0x8f, 0x43, 0x92, 0xbe, 0x6f, 0xf9, 0x05, 0xbf,
  0x8d, 0x04, 0x2b, 0x3e, 0x02, 0xfe, 0x0a, 0x3e, 0xc2, 0x5d, 0x57, 0x3e,
  0x8c, 0x9d, 0xd0, 0xbc, 0xd2, 0xf4, 0x07, 0xbe, 0x3d, 0x58, 0x9b, 0xbe,
  0x41, 0xcc, 0x78, 0x3e, 0xe5, 0xa8, 0xa9, 0xbe, 0xbe, 0x13, 0x0e, 0xbf,
  0x1c, 0xaf, 0x72, 0xbd, 0x91, 0x14, 0x80, 0x3e, 0x07, 0x94, 0x07, 0xbf,
  0xa0, 0x40, 0x2c, 0xbb, 0xc8, 0xa2, 0xa0, 0x3b, 0xe8, 0xa4, 0xe5, 0x3e,
  0x72, 0xa7, 0x09, 0x3f, 0xac, 0xf0, 0xe3, 0xbe, 0x2e, 0xf3, 0xc6, 0xbe,
  0x7d, 0xe0, 0xab, 0x3e, 0xde, 0x78, 0x93, 0xbe, 0x39, 0x71, 0x66, 0x3e,
  0x5d, 0xad, 0x82, 0x3e, 0xfe, 0x2a, 0x60, 0xbe, 0xbb, 0x84, 0x62, 0x3d,
  0x61, 0x9d, 0xa7, 0xbd, 0x81, 0x0c, 0xe1, 0x3d, 0x36, 0x64, 0x36, 0xbe,
  0x7c, 0x47, 0xe5, 0x3c, 0x72, 0x67, 0x63, 0xbe, 0x8b, 0x8d, 0xdb, 0x3d,
  0x83, 0x2e, 0x50, 0xbe, 0x05, 0xb5, 0x06, 0x3e, 0xe4, 0x3c, 0xd1, 0x3d,
  0xa9, 0x96, 0x3e, 0xbd, 0x9d, 0x90, 0x90, 0x3e, 0x32, 0xee, 0x7e, 0x3e,
  0x1d, 0x8b, 0x51, 0xbe, 0x04, 0xd0, 0x80, 0xbd, 0x93, 0xe0, 0x97, 0xbd,
  0x65, 0x1a, 0x69, 0xbe, 0xf0, 0x96, 0x81, 0x3d, 0xf3, 0x66, 0xbe, 0x3d,
  0x50, 0xf0, 0xc0, 0x3e, 0x3d, 0xe7, 0x95, 0x3e, 0x46, 0x6c, 0xc1, 0xbe,
  0x83, 0x1c, 0x0c, 0x3e, 0xc2, 0x04, 0xd4, 0x3e, 0xdf, 0xa1, 0x47, 0xbe,
  0x37, 0x40, 0x1b, 0xbd, 0x6b, 0xd3, 0x63, 0xbe, 0xa9, 0x64, 0xba, 0xbe,
  0xf7, 0xba, 0x28, 0x3f, 0x82, 0xa5, 0xa3, 0xbe, 0x77, 0xb1, 0x0b, 0x3f,
  0x0c, 0xce, 0x80, 0x3c, 0xba, 0x4f, 0x8d, 0xbd, 0xe8, 0x44, 0x1a, 0x3e,
  0x76, 0x25, 0x80, 0x3c, 0xd1, 0x38, 0x9c, 0xbe, 0xa8, 0x2d, 0x90, 0x3e,
  0x70, 0x8d, 0xc0, 0x3e, 0x1b, 0x4f, 0x0a, 0xbe, 0xbb, 0x95, 0xf8, 0xbd,
  0xbe, 0xa7, 0x87, 0x3c, 0x6b, 0xa7, 0x4d, 0x3e, 0x86, 0x38, 0xc8, 0xbe,
  0xcf, 0x72, 0xd7, 0xbe, 0x2a, 0xac, 0xbd, 0x3e, 0xd7, 0x22, 0x8f, 0xbe,
  0x74, 0x48, 0xd5, 0x3e, 0xa4, 0xd7, 0x1a, 0x3f, 0xcc, 0x1d, 0x4b, 0xbd,
  0xb4, 0x8a, 0x94, 0x3d, 0x8b, 0x3a, 0xa3, 0xbd, 0xe6, 0x83, 0x18, 0x3f,
  0x20, 0xe1, 0xe9, 0x3e, 0x3c, 0x51, 0x90, 0x3e, 0x72, 0xf3, 0xbd, 0xbe,
  0x42, 0xd1, 0x8c, 0xbe, 0x27, 0x6d, 0x10, 0x3e, 0x3e, 0x43, 0x7e, 0xbd,
  0x7b, 0x43, 0x17, 0x3e, 0x58, 0x8c, 0x9f, 0x3c, 0x8b, 0x7e, 0xf7, 0xbe,
  0x3a, 0xa4, 0xec, 0x3d, 0x36, 0xae, 0xa4, 0xbd, 0x06, 0x9e, 0xb4, 0x3e,
  0x2d, 0x58, 0x49, 0x3e, 0xd2, 0x62, 0xa1, 0xbe, 0x9a, 0xfd, 0xf1, 0xbb,
  0x81, 0x90, 0xb6, 0xbe, 0x4b, 0x19, 0xe3, 0xbc, 0x60, 0xec, 0xc7, 0x3d,
  0x1f, 0xb0, 0x9a, 0x3e, 0xcb, 0xa8, 0x16, 0xbf, 0x08, 0xe4, 0xc2, 0x3d,
  0x8b, 0x2c, 0xcd, 0x3d, 0xe4, 0x5d, 0xe7, 0x3e, 0xbd, 0xc1, 0x90, 0x3e,
  0xd4, 0xbd, 0x9b, 0xbe, 0x39, 0x25, 0xc9, 0x3e, 0x25, 0x3a, 0x16, 0xbe,
  0xf9, 0xbe, 0x6e, 0x3e, 0x7c, 0xb2, 0x22, 0x3f, 0x32, 0x30, 0x55, 0xbd,
  0x51, 0xdb, 0xb1, 0xbd, 0xfc, 0x8e, 0xf2, 0x3e, 0x14, 0xce, 0xbc, 0x3e,
  0xa9, 0x88, 0xc8, 0xbe, 0xdf, 0x4f, 0xbb, 0xbd, 0x16, 0x9d, 0x49, 0xbe,
  0x6a, 0x62, 0x60, 0xbe, 0xe1, 0x8f, 0xdd, 0xbe, 0xe2, 0x52, 0x01, 0x3f,
  0x9c, 0xa3, 0xfd, 0x3e, 0x50, 0x85, 0x54, 0x3e, 0x80, 0x63, 0x7c, 0x3e,
  0xa5, 0x1d, 0x46, 0x3c, 0x54, 0x0c, 0x00, 0xbe, 0x42, 0xe1, 0x3f, 0x3e,
  0x10, 0x0f, 0x7a, 0x3c, 0x59, 0x8a, 0x08, 0x3f, 0x30, 0x6a, 0x70, 0x3d,
  0x9c, 0xd4, 0xd7, 0xbe, 0x9b, 0x3d, 0xd1, 0x3c, 0x6c, 0x90, 0xe8, 0x3d,
  0x0d, 0xa9, 0xb9, 0x3c, 0x7a, 0x99, 0xa4, 0x3d, 0xdf, 0xc6, 0x82, 0x3e,
  0xf7, 0x05, 0x47, 0x3e, 0xea, 0xbc, 0x80, 0x3d, 0x6e, 0xd1, 0xc9, 0x3c,
  0x94, 0xc1, 0x9a, 0xbe, 0x38, 0x4e, 0x86, 0xbd, 0xdc, 0xad, 0x4f, 0xbe,
  0x57, 0xf8, 0x1d, 0xbe, 0x16, 0x6e, 0xe7, 0x3e, 0x6a, 0xf7, 0x45, 0xbe,
  0x2a, 0x44, 0x5f, 0x3e, 0x24, 0xb3, 0x94, 0x3e, 0x39, 0x34, 0x2f, 0xbe,
  0xe5, 0xd3, 0xe4, 0xbe, 0x89, 0xed, 0xbd, 0x3e, 0x51, 0x2b, 0x37, 0xbe,
  0xdc, 0x8d, 0xc5, 0xbc, 0xf1, 0x31, 0xd9, 0x39, 0x73, 0xf6, 0x70, 0xbe,
  0x1c, 0x5f, 0xb3, 0x3e, 0x90, 0xb5, 0xe4, 0xbe, 0xe8, 0xa2, 0x26, 0x3f,
  0xb0, 0xca, 0x52, 0xbc, 0xef, 0x84, 0xa4, 0xbe, 0xc2, 0xee, 0xfa, 0x3e,
  0xf4, 0xb2, 0x50, 0x3e, 0xd9, 0x5f, 0x8b, 0xbe, 0xc8, 0x28, 0xc3, 0xbd,
  0xba, 0x4e, 0x0d, 0x3f, 0x84, 0x7c, 0x71, 0xbc, 0xdc, 0x5b, 0x9c, 0x3e,
  0x85, 0x1f, 0x6c, 0x3e, 0x29, 0xf5, 0xf7, 0x3e, 0x5e, 0x2d, 0x51, 0xbe,
  0xd9, 0x20, 0x90, 0x3d, 0xde, 0x55, 0x65, 0x3e, 0x1f, 0xc8, 0xd7, 0xbd,
  0x1a, 0xf2, 0xda, 0x3e, 0x52, 0x57, 0x16, 0x3f, 0xe1, 0x07, 0x59, 0xbe,
  0xb2, 0x6e, 0xcc, 0x3e, 0xb4, 0xdd, 0xac, 0xbe, 0x8c, 0xf7, 0xb6, 0x3e,
  0xde, 0xe7, 0x97, 0x3e, 0x7a, 0x33, 0x71, 0x3e, 0x90, 0x97, 0x61, 0xbd,
  0x5e, 0x9a, 0x05, 0xbc, 0x5b, 0x0b, 0xb7, 0x3e, 0x1c, 0x63, 0x03, 0x3d,
  0x60, 0x91, 0x0f, 0x3e, 0x01, 0x89, 0x42, 0x3e, 0x8c, 0xb1, 0xae, 0xbe,
  0x17, 0xc6, 0x27, 0x3d, 0x51, 0xb4, 0x23, 0x3e, 0xfa, 0xca, 0x86, 0x3e,
  0x9e, 0xa4, 0x2e, 0x3d, 0xa1, 0x0e, 0x3c, 0xbe, 0x66, 0x90, 0x4d, 0x3e,
  0x3d, 0x00, 0xc2, 0xbe, 0xf1, 0x53, 0xcb, 0xbd, 0x3d, 0xed, 0xef, 0x3d,
  0xa9, 0xa6, 0xa5, 0xbd, 0xea, 0x57, 0x2c, 0xbe, 0xdb, 0x7f, 0xff, 0x3e,
  0xce, 0x4a, 0x8e, 0x3e, 0x06, 0x66, 0xd0, 0x3d, 0xad, 0x3d, 0xd8, 0x3e,
  0x37, 0x59, 0xae, 0xbe, 0x34, 0x40, 0x46, 0x3e, 0x31, 0x4f, 0x3a, 0xbe,
  0x58, 0xcd, 0x62, 0x3e, 0xe7, 0x14, 0x49, 0x3e, 0x1d, 0x97, 0xe2, 0x3c,
  0xc4, 0xd1, 0x90, 0x3e, 0x2a, 0x01, 0xe7, 0x3e, 0x27, 0x05, 0x2d, 0x3e,
  0xd5, 0xc8, 0x0e, 0xbe, 0xc4, 0x7e, 0xc1, 0xbe, 0x2f, 0xa6, 0x09, 0xbe,
  0xc1, 0x6b, 0x34, 0xbe, 0x1c, 0x6b, 0x0d, 0xbf, 0xfe, 0x82, 0xa2, 0x3e,
  0x52, 0x20, 0xab, 0x3d, 0xa5, 0x3b, 0x1d, 0x3e, 0x91, 0x3c, 0x8a, 0x3e,
  0x7f, 0xda, 0xa0, 0x3b, 0xec, 0x73, 0xd2, 0xbe, 0x0e, 0xce, 0x82, 0xbe,
  0x89, 0x4c, 0x85, 0x3d, 0xcd, 0xa7, 0x88, 0xbd, 0x19, 0xcb, 0x6a, 0xbe,
  0x58, 0xe3, 0xce, 0xbb, 0xe1, 0x10, 0x4a, 0xbe, 0xf5, 0xe2, 0xf0, 0x3e,
  0x0d, 0x76, 0x13, 0x3e, 0x8a, 0x5d, 0xb8, 0xbd, 0xc0, 0xf7, 0xc4, 0x3e,
  0x2c, 0x27, 0x08, 0xbd, 0x5b, 0xa1, 0x81, 0xbe, 0xb5, 0x82, 0x1b, 0x3f,
  0x40, 0xb5, 0x91, 0x3e, 0x94, 0x4f, 0x02, 0xbd, 0xfd, 0xab, 0xc9, 0xbe,
  0xf2, 0x48, 0x93, 0xbe, 0x6b, 0x75, 0x07, 0xbf, 0x20, 0x3a, 0xa9, 0xbe,
  0xf8, 0xdc, 0xa9, 0xbe, 0xa1, 0xbd, 0xa9, 0x3d, 0x4e, 0xb1, 0x89, 0xbd,
  0x5a, 0xb9, 0x0a, 0x3e, 0xe8, 0x5d, 0xa2, 0xbe, 0x5e, 0xa1, 0xe2, 0xbe,
  0xed, 0x91, 0x9e, 0x3e, 0x4b, 0x07, 0xa5, 0xbe, 0x03, 0x59, 0xf3, 0xbd,
  0xec, 0x4d, 0x90, 0xbc, 0x93, 0x9b, 0xa3, 0x3d, 0x27, 0xb3, 0x0c, 0xbf,
  0x19, 0x1c, 0x3a, 0x3e, 0x1c, 0x3e, 0xcc, 0xbe, 0x8b, 0x26, 0xf0, 0xbd,
  0x37, 0xb0, 0xb1, 0xbe, 0x64, 0xa5, 0x96, 0x3e, 0x00, 0xf6, 0xf1, 0xbe,
  0x1c, 0x95, 0x1f, 0xbe, 0x77, 0x06, 0x0b, 0x3f, 0x4b, 0x97, 0xed, 0xbc,
  0x5a, 0x8a, 0x2e, 0x3e, 0x2b, 0x60, 0x44, 0xbe, 0xdf, 0x80, 0x35, 0x3c,
  0x99, 0x0f, 0x95, 0x3e, 0x39, 0x50, 0xbe, 0xbe, 0x0d, 0x3a, 0xed, 0x3d,
  0xf3, 0xdc, 0xcf, 0x3e, 0xd5, 0xad, 0xd5, 0xbe, 0x01, 0xeb, 0x3f, 0x3e,
  0xec, 0xd0, 0x87, 0x3e, 0x67, 0x1e, 0x0f, 0xbf, 0x74, 0x40, 0x32, 0xbf,
  0x83, 0xcd, 0x8b, 0xbd, 0x39, 0x97, 0x15, 0x3e, 0x25, 0x99, 0x00, 0x3f,
  0xd3, 0xb0, 0xdf, 0xbd, 0xca, 0x92, 0x55, 0xbe, 0x5d, 0xcd, 0x87, 0x3e,
  0x4c, 0x7a, 0xd2, 0xbd, 0xf6, 0x1d, 0x0a, 0xbe, 0x1c, 0x3a, 0xe8, 0x3e,
  0xd0, 0x23, 0x61, 0xbd, 0xb1, 0xb1, 0xb2, 0xbe, 0x79, 0x80, 0xa0, 0xbe,
  0x2b, 0x4c, 0xc1, 0xbe, 0x8d, 0x5f, 0x7a, 0xbe, 0x5a, 0x14, 0x50, 0x3e,
  0x5b, 0x80, 0xe7, 0xbe, 0x8d, 0x6f, 0xa9, 0xbd, 0xd2, 0xae, 0xe3, 0x3d,
  0x5e, 0x75, 0xc1, 0x3e, 0x92, 0x24, 0x0f, 0xbf, 0x8e, 0xa2, 0x31, 0xbe,
  0x20, 0x45, 0x64, 0x3e, 0x6d, 0xff, 0x24, 0xbe, 0x76, 0xf4, 0xee, 0xbc,
  0x72, 0x63, 0x11, 0xbe, 0xe7, 0xd8, 0x1e, 0xbe, 0x81, 0x0d, 0xd4, 0xbe,
  0xba, 0x0c, 0x53, 0x3d, 0x6f, 0xf4, 0x85, 0xbe, 0xce, 0xe8, 0x30, 0xbe,
  0xd8, 0x26, 0xb4, 0xbd, 0xa9, 0xbb, 0xf4, 0xbd, 0x99, 0x3a, 0xf1, 0xbd,
  0xf0, 0x9c, 0xe4, 0xbe, 0x70, 0x60, 0xcd, 0x3e, 0x58, 0x9d, 0x29, 0x3e,
  0x13, 0xbc, 0xa3, 0x3e, 0xb2, 0x06, 0x52, 0xbd, 0xe5, 0x35, 0x78, 0xbe,
  0x42, 0x04, 0x8d, 0xbc, 0x7b, 0x46, 0xc0, 0xbe, 0x14, 0x2f, 0xff, 0x3d,
  0x36, 0xb2, 0x57, 0x3e, 0xdd, 0x41, 0xa4, 0xbe, 0xb8, 0xe8, 0x8e, 0xbe,
  0xe6, 0xa8, 0xe5, 0xbd, 0x91, 0x9b, 0x88, 0xbc, 0xac, 0x62, 0x0e, 0xbf,
  0x07, 0x14, 0x8b, 0x3e, 0x86, 0xf8, 0x61, 0xbe, 0xd6, 0xca, 0xf7, 0x3e,
  0x44, 0xe1, 0xd9, 0xbd, 0x33, 0xe5, 0x0e, 0xbd, 0xab, 0x00, 0xfd, 0x3e,
  0xa1, 0x53, 0xf5, 0x3c, 0x0c, 0x26, 0xdc, 0xbd, 0x1b, 0x4c, 0x0e, 0x3f,
  0x2c, 0xd6, 0x98, 0x3e, 0x57, 0x60, 0xa5, 0xbe, 0x9d, 0x34, 0xeb, 0xbe,
  0x76, 0x98, 0xec, 0xbe, 0xbd, 0x63, 0xac, 0xbe, 0xd9, 0x46, 0xf0, 0x3d,
  0x70, 0xc5, 0x94, 0xbe, 0xc4, 0x93, 0x63, 0xbe, 0x43, 0x9a, 0x50, 0xbd,
  0x6d, 0xc6, 0xcb, 0x3e, 0xb2, 0x61, 0x61, 0xbe, 0x19, 0x0c, 0x1b, 0xbe,
  0x6a, 0x87, 0x06, 0xbe, 0x30, 0xc8, 0x20, 0x3e, 0x0a, 0x70, 0x94, 0x3e,
  0x75, 0x61, 0x09, 0xbe, 0x42, 0x6c, 0x88, 0xbe, 0x91, 0x91, 0xd0, 0xbe,
  0x53, 0xaf, 0x01, 0x3e, 0x4d, 0x2f, 0xb9, 0xbe, 0x69, 0x48, 0x32, 0xbe,
  0xb4, 0x75, 0xaa, 0xbe, 0x59, 0x32, 0xc1, 0xbd, 0xbe, 0xc2, 0x0c, 0xbf,
  0x97, 0x3a, 0x65, 0xbe, 0x33, 0x10, 0x10, 0x3f, 0xdc, 0xa1, 0xb8, 0x3e,
  0x01, 0xf5, 0x01, 0x3f, 0xf2, 0x1d, 0x96, 0xbe, 0x95, 0xef, 0x95, 0xbe,
  0xd4, 0x70, 0x5a, 0x3e, 0x45, 0xc6, 0x7f, 0xbe, 0xd0, 0x15, 0xb7, 0x3e,
  0x7f, 0xdb, 0x0d, 0x3e, 0x37, 0x02, 0x73, 0xbe, 0xea, 0xd8, 0x21, 0xbe,
  0xa2, 0x4b, 0xa7, 0xbe, 0x86, 0x3f, 0xc4, 0x3e, 0xdb, 0x85, 0x6b, 0x3d,
  0x3a, 0x02, 0x42, 0xbd, 0xcd, 0x90, 0xcb, 0x3d, 0x49, 0x29, 0x40, 0xbe,
  0x43, 0x4e, 0x14, 0xbe, 0x3c, 0xd0, 0xc5, 0xbd, 0xb0, 0x84, 0x85, 0x3e,
  0x21, 0xec, 0xc7, 0xbd, 0xa4, 0x80, 0x76, 0x3e, 0x91, 0x84, 0x8d, 0x3e,
  0xaf, 0x1a, 0xf1, 0xbe, 0xe3, 0x61, 0x0f, 0xbd, 0x3c, 0x94, 0x71, 0x3d,
  0xbd, 0x49, 0xa9, 0x3d, 0x9a, 0xcb, 0x0a, 0x3f, 0x08, 0x57, 0x0f, 0xbe,
  0x2a, 0x4c, 0xf7, 0x3e, 0x7b, 0xb2, 0x09, 0x3d, 0xfa, 0x1c, 0x28, 0xbf,
  0x01, 0x51, 0x97, 0xbe, 0x34, 0x71, 0x2a, 0x3f, 0x42, 0x06, 0xcd, 0x3d,
  0xb8, 0x38, 0xfa, 0xbd, 0x26, 0xdd, 0x9c, 0xbc, 0xff, 0xc0, 0xb6, 0xbe,
  0xa1, 0xbd, 0xc0, 0x3e, 0x5d, 0xe7, 0x4b, 0xbe, 0x4c, 0xca, 0xab, 0x3e,
  0xfc, 0x3d, 0x1a, 0xbe, 0x20, 0x6b, 0xba, 0xbe, 0xf7, 0x1a, 0xc3, 0x3e,
  0x32, 0x05, 0x55, 0x3e, 0x70, 0xe6, 0xd9, 0xbe, 0x3e, 0x52, 0xa6, 0x3d,
  0x78, 0x5c, 0x8f, 0x3e, 0x1f, 0xdb, 0x15, 0x3e, 0x01, 0x33, 0xd0, 0x3d,
  0x7b, 0x39, 0x81, 0x3e, 0x2a, 0xc6, 0x01, 0x3f, 0x44, 0x95, 0xf0, 0x3b,
  0xaf, 0xa6, 0x00, 0xbf, 0xb1, 0x02, 0x2c, 0xbd, 0x48, 0x7c, 0x1d, 0xbe,
  0xfb, 0xba, 0x93, 0x3d, 0x50, 0x0b, 0x1b, 0x3f, 0x5e, 0x51, 0x5c, 0xbe,
  0x0c, 0x0d, 0x68, 0xbe, 0x32, 0x53, 0x91, 0x3e, 0x0e, 0x08, 0x23, 0x3f,
  0xbb, 0x2b, 0x18, 0x3d, 0x07, 0x50, 0x2b, 0xbe, 0xad, 0xd7, 0x3f, 0xbe,
  0xfe, 0xf1, 0x39, 0xbd, 0xe2, 0x06, 0xc9, 0x3e, 0x62, 0xb4, 0xa1, 0x3d,
  0x38, 0xb7, 0x12, 0x3d, 0x12, 0x70, 0x23, 0x3f, 0xb7, 0x2a, 0x46, 0xbe,
  0xfc, 0x5c, 0x16, 0x3d, 0x31, 0xc9, 0xbc, 0xbd, 0xcf, 0x54, 0x4a, 0x3e,
  0x03, 0xed, 0x3c, 0x3e, 0xf3, 0x4c, 0xf7, 0x3d, 0x36, 0x29, 0xe1, 0x3d,
  0xf2, 0x5b, 0xb1, 0x3d, 0xe1, 0xf9, 0xc5, 0x3e, 0x71, 0x90, 0x9c, 0x3e,
  0xb6, 0xd4, 0x2b, 0xbe, 0x82, 0x8a, 0xc8, 0x3d, 0xf7, 0x6c, 0xc5, 0x3e,
  0xcd, 0xff, 0x81, 0x3b, 0x52, 0x87, 0xbe, 0x3e, 0xec, 0xc3, 0x93, 0x3d,
  0x4b, 0xdd, 0x4e, 0xbe, 0xd1, 0x66, 0xad, 0x3e, 0x6d, 0xf6, 0x3f, 0x3e,
  0x4e, 0x87, 0x92, 0x3d, 0x1a, 0xb2, 0x4b, 0x3e, 0x81, 0xf5, 0x6c, 0xbe,
  0xb6, 0xb6, 0x62, 0x3e, 0x60, 0xd5, 0xc0, 0x3c, 0x91, 0xeb, 0x1e, 0x3f,
  0x31, 0x23, 0xcd, 0x3d, 0x21, 0x96, 0xf3, 0xbd, 0x80, 0x87, 0x8d, 0xbe,
  0x9e, 0x84, 0xfb, 0xbe, 0x20, 0xe7, 0xf0, 0x3c, 0xe6, 0xc8, 0xa5, 0x3e,
  0xf8, 0xfe, 0x15, 0x3e, 0x8a, 0x3e, 0xba, 0x3e, 0x31, 0x3b, 0x5c, 0xbd,
  0x20, 0xcb, 0x9d, 0xbe, 0xce, 0x6e, 0x84, 0xbd, 0xe3, 0xf9, 0x83, 0xbe,
  0x36, 0xdc, 0xff, 0xff, 0x04, 0x00, 0x00, 0x00, 0x00, 0x18, 0x00, 0x00,
  0x1d, 0x50, 0xc3, 0x3e, 0x32, 0xb3, 0x9c, 0xbd, 0x9f, 0xa5, 0x8c, 0x3e,
  0x5b, 0x05, 0x5f, 0x3e, 0x18, 0x42, 0x86, 0x3e, 0xa9, 0xa7, 0x35, 0xbd,
  0xa8, 0xe1, 0x7a, 0x3d, 0xc0, 0x40, 0xc6, 0xbe, 0xd0, 0xee, 0x5b, 0xbe,
  0x9e, 0xac, 0x18, 0x3e, 0xfb, 0x05, 0xbf, 0x3e, 0x78, 0x64, 0x32, 0xbe,
  0x0f, 0x68, 0x13, 0x3c, 0x51, 0x0f, 0x75, 0x3e, 0x3b, 0xe3, 0x07, 0xbf,
  0x4b, 0x33, 0xea, 0xbc, 0xca, 0x8d, 0x89, 0x3e, 0x5d, 0xb0, 0x56, 0x3e,
  0xd9, 0xef, 0x0b, 0xbe, 0xad, 0x4a, 0x1c, 0x3e, 0xe9, 0x72, 0xea, 0x3e,
  0xe1, 0xf4, 0x84, 0xbe, 0xb2, 0x23, 0x43, 0xbe, 0x64, 0x06, 0x1a, 0xbe,
  0x52, 0x78, 0x17, 0x3e, 0x28, 0xe9, 0x82, 0x3e, 0x20, 0xe9, 0xb2, 0x3e,
  0xa4, 0x6d, 0x69, 0xbe, 0xac, 0x27, 0xd8, 0x3d, 0xbd, 0x77, 0x0a, 0x3e,
  0x08, 0x12, 0x31, 0xbd, 0x83, 0xef, 0xe7, 0xbe, 0xdc, 0x5e, 0xa2, 0xbd,
  0x72, 0x34, 0x0b, 0x3e, 0xf6, 0x4c, 0x8c, 0xbe, 0x7c, 0x15, 0x8c, 0x3c,
  0xff, 0x59, 0x64, 0x3d, 0x66, 0x1e, 0xff, 0xbe, 0x4e, 0xdb, 0x66, 0xbd,
  0x99, 0xa5, 0x11, 0x3f, 0x8d, 0xeb, 0x71, 0xbe, 0xc9, 0x66, 0xa6, 0x3e,
  0x5c, 0xa0, 0x0c, 0xbd, 0x73, 0xbb, 0x5f, 0x3e, 0xc5, 0xd7, 0xb1, 0xbd,
  0x5f, 0xaa, 0x30, 0xbf, 0x35, 0x56, 0x8a, 0x3e, 0x59, 0xb8, 0xaf, 0x3d,
  0x79, 0xcd, 0xf0, 0xbe, 0xeb, 0xb4, 0xab, 0xbe, 0x46, 0x9d, 0x20, 0x3f,
  0x78, 0x92, 0x62, 0xbd, 0x8a, 0xba, 0xfd, 0xbe, 0x1c, 0x26, 0xb1, 0x3e,
  0x1f, 0xfa, 0xeb, 0x3e, 0x44, 0xcb, 0x42, 0x3e, 0x96, 0x04, 0xcc, 0xbd,
  0xae, 0x56, 0x8e, 0xbe, 0x2a, 0xf8, 0x0b, 0xbf, 0x11, 0xb3, 0x0e, 0xbe,
  0x56, 0x4a, 0x08, 0x3d, 0xce, 0x90, 0x15, 0xbe, 0xcb, 0x22, 0xa2, 0xbd,
  0x74, 0xd2, 0xc4, 0x3e, 0x24, 0x19, 0x93, 0xbc, 0xc4, 0x64, 0xf1, 0x3e,
  0xe5, 0xd9, 0xd2, 0xbe, 0x42, 0x2b, 0x89, 0xbe, 0x1a, 0xbf, 0x7a, 0xbe,
  0x74, 0x2e, 0xd2, 0xbd, 0xcb, 0x09, 0x17, 0x3f, 0x74, 0xc8, 0xf0, 0xbd,
  0x66, 0x17, 0xd0, 0x3e, 0x9f, 0x09, 0x98, 0xbe, 0x99, 0x3c, 0xe7, 0xbe,
  0x2d, 0x52, 0x23, 0x3e, 0x06, 0xf9, 0xca, 0xbe, 0xc2, 0x51, 0xf3, 0x3d,
  0x57, 0x40, 0xa3, 0xbe, 0x2b, 0x1e, 0x3d, 0xbe, 0xe2, 0xc0, 0x1e, 0x3e,
  0xf3, 0x76, 0x8a, 0x3e, 0x27, 0xaa, 0xb1, 0xbe, 0xe2, 0x3e, 0x04, 0x3e,
  0x3b, 0x82, 0xb3, 0xbd, 0xaa, 0xf8, 0xa8, 0xbe, 0x00, 0xca, 0xfb, 0xbe,
  0x00, 0xf5, 0x3a, 0xbf, 0xe0, 0xc1, 0x08, 0xbd, 0xc7, 0x50, 0xa0, 0x3e,
  0x39, 0x55, 0x3f, 0x3e, 0xb4, 0xaa, 0x7f, 0x3e, 0x96, 0x46, 0xf5, 0xbe,
  0x14, 0xf3, 0x97, 0x3d, 0xf5, 0x2e, 0x30, 0xbf, 0x20, 0xff, 0x0e, 0xbe,
  0x35, 0x5e, 0x61, 0x3e, 0x9d, 0xac, 0xa6, 0x3d, 0x76, 0xe2, 0x88, 0x3e,
  0x2e, 0x8d, 0x8e, 0x3d, 0xba, 0x02, 0x9f, 0x3e, 0x0d, 0xb9, 0x0e, 0x3e,
  0x65, 0x0f, 0xdd, 0xbd, 0xce, 0xc5, 0x60, 0xbe, 0xd0, 0xf9, 0x23, 0xbe,
  0xc0, 0x8b, 0x29, 0xbe, 0xb2, 0xaa, 0x3a, 0x3e, 0x41, 0x89, 0xf9, 0xbe,
  0x97, 0x5d, 0xbe, 0x3d, 0xe3, 0x76, 0xb9, 0x3e, 0x40, 0x02, 0x1b, 0xbf,
  0xec, 0x65, 0x1e, 0xbc, 0xe6, 0x92, 0x91, 0x3e, 0x89, 0xf4, 0x47, 0x3e,
  0x25, 0xc7, 0xe6, 0xbe, 0x6e, 0x49, 0x90, 0xbd, 0xf1, 0x2f, 0xc0, 0x3e,
  0xdf, 0x08, 0xdc, 0xbe, 0x31, 0x7c, 0x95, 0xbe, 0x04, 0x72, 0x48, 0x3e,
  0x99, 0x55, 0xfb, 0x3e, 0x8f, 0x11, 0xda, 0x3e, 0x8c, 0xca, 0x0a, 0x3f,
  0x18, 0x3f, 0x3b, 0xbe, 0x2a, 0x0c, 0x81, 0x3c, 0x4e, 0x9a, 0xbf, 0x3b,
  0x32, 0x28, 0x0f, 0xbe, 0xb2, 0x27, 0x5a, 0xbe, 0xcf, 0xec, 0xeb, 0x3d,
  0x34, 0x8a, 0x0c, 0xbe, 0x9b, 0xff, 0x8f, 0x3e, 0x67, 0xe0, 0x40, 0xbe,
  0x40, 0x1c, 0xf4, 0xbd, 0x31, 0xc2, 0x46, 0xbd, 0xd3, 0x9a, 0x8b, 0x3e,
  0xc4, 0x82, 0x52, 0xbe, 0x36, 0xb1, 0x7b, 0x3e, 0xab, 0xdc, 0x1a, 0x3e,
  0x5e, 0x25, 0xb2, 0xbe, 0x91, 0x37, 0x71, 0xbe, 0x4d, 0x7d, 0x76, 0x3d,
  0xb0, 0x8f, 0xbf, 0xbe, 0xaa, 0x7f, 0x5d, 0xbe, 0x43, 0x97, 0x3c, 0xbc,
  0x34, 0xed, 0x1d, 0xbe, 0xae, 0x16, 0x0e, 0xbe, 0x45, 0xd6, 0x1e, 0xbe,
  0x30, 0xac, 0x9c, 0xbe, 0x68, 0x03, 0x7f, 0x3d, 0x9d, 0xfb, 0x9d, 0xbd,
  0xc1, 0x89, 0x8b, 0x3c, 0xe2, 0xb3, 0xc2, 0x3d, 0xf2, 0xc4, 0x8e, 0xbd,
  0x2a, 0x7b, 0x90, 0xbd, 0x2a, 0x87, 0x12, 0x3e, 0x7c, 0xb7, 0x6e, 0x3e,
  0x14, 0x15, 0x0c, 0xbe, 0xcf, 0xd2, 0x5d, 0x3e, 0xbb, 0x5b, 0x2e, 0xbe,
  0x4e, 0x21, 0xf2, 0xbd, 0xf0, 0x6e, 0xb8, 0x3e, 0x14, 0x84, 0x10, 0xbf,
  0x34, 0x2f, 0xaa, 0x3d, 0x4b, 0xa2, 0x29, 0x3e, 0xca, 0x3d, 0xa1, 0x3e,
  0x45, 0x84, 0x77, 0x3e, 0xbf, 0xc1, 0x37, 0xbf, 0xa8, 0xcf, 0xd9, 0xbe,
  0xc8, 0x41, 0xdf, 0xbe, 0x56, 0x1a, 0x09, 0xbe, 0x10, 0x41, 0xef, 0x3e,
  0x65, 0x11, 0x0a, 0x3e, 0xe4, 0xfc, 0x1b, 0x3e, 0xc6, 0xc9, 0xb5, 0xbd,
  0x09, 0x9f, 0x26, 0xbf, 0xa9, 0xb1, 0xfa, 0x3e, 0x0e, 0x86, 0xdf, 0x3d,
  0x74, 0x7a, 0x3c, 0x3e, 0xf4, 0x20, 0xdc, 0xbe, 0xab, 0x6e, 0xcb, 0xbe,
  0x6f, 0x91, 0x4e, 0x3d, 0x1c, 0x28, 0xdb, 0xbe, 0x59, 0x6c, 0xeb, 0xbe,
  0xde, 0x77, 0xcd, 0x3e, 0xf0, 0x1d, 0x18, 0x3f, 0x5b, 0xf0, 0xd2, 0x3d,
  0x58, 0xac, 0x02, 0x3e, 0xf7, 0x3f, 0x2f, 0xbe, 0xf8, 0xa8, 0x02, 0x3f,
  0x87, 0x76, 0x97, 0xbe, 0xcd, 0x6b, 0xbb, 0x3e, 0x05, 0x7c, 0x37, 0xbe,
  0xff, 0x7a, 0x1a, 0x3e, 0x78, 0xfb, 0x5c, 0xbe, 0xc8, 0x61, 0xc5, 0x3d,
  0x83, 0x44, 0x5a, 0x3e, 0x61, 0x6a, 0x2b, 0xbe, 0x9a, 0x22, 0x81, 0xbd,
  0xca, 0x40, 0x81, 0xbe, 0x6c, 0x20, 0x62, 0x3d, 0x5b, 0xae, 0x75, 0xbe,
  0xb4, 0x1e, 0xbb, 0xbd, 0x47, 0x8c, 0x89, 0xbd, 0x73, 0x8d, 0x40, 0x3e,
  0x16, 0x8f, 0x35, 0xbe, 0xed, 0x5b, 0x4a, 0xbc, 0x71, 0x77, 0x37, 0x3e,
  0xed, 0x26, 0x11, 0x3e, 0xb2, 0x33, 0x94, 0xbd, 0x9b, 0xa0, 0x1b, 0x3e,
  0xba, 0x26, 0xa3, 0x3b, 0x16, 0xb0, 0x9d, 0xbe, 0x5b, 0xf4, 0x95, 0xbe,
  0xd3, 0x7b, 0xa0, 0x3d, 0x65, 0xcb, 0xa2, 0x3c, 0xa3, 0x59, 0x1f, 0xbe,
  0xae, 0x69, 0x95, 0x3e, 0xcf, 0xc1, 0x70, 0xbe, 0x7a, 0xe9, 0x1a, 0x3e,
  0x00, 0x84, 0xf9, 0xbb, 0x1e, 0x58, 0x51, 0xbe, 0xc3, 0x54, 0xc7, 0x3d,
  0x5b, 0x4b, 0x00, 0xbe, 0xb6, 0xb9, 0x3d, 0x3e, 0xe9, 0x74, 0x82, 0xbe,
  0xd8, 0x81, 0x07, 0x3f, 0x3f, 0xb7, 0x42, 0xbe, 0xf9, 0x91, 0x14, 0x3b,
  0x2f, 0x91, 0x6b, 0xbe, 0x6d, 0x68, 0x34, 0x3e, 0xd1, 0x30, 0xd7, 0x3e,
  0xa9, 0xb1, 0x5a, 0xbe, 0x1b, 0x63, 0x3f, 0x3e, 0xaa, 0x33, 0xc8, 0xbd,
  0x73, 0xbb, 0xc8, 0xbe, 0x31, 0x1a, 0x0e, 0xbe, 0x51, 0x6d, 0x28, 0xbd,
  0xf2, 0x8c, 0x46, 0x3e, 0xb9, 0x4a, 0x2b, 0xbd, 0x06, 0xac, 0x2f, 0xbf,
  0x4e, 0x07, 0x4e, 0xbe, 0xb2, 0x21, 0xb1, 0x3e, 0x08, 0xec, 0x5d, 0xbe,
  0x1e, 0xef, 0xf5, 0x3e, 0x88, 0x9f, 0xbd, 0x3e, 0x1c, 0xd4, 0xa2, 0x3e,
  0x0a, 0x63, 0x26, 0xbe, 0x1a, 0xa4, 0x01, 0xbf, 0x92, 0x69, 0x68, 0xbe,
  0x97, 0xc9, 0xd6, 0x3d, 0x59, 0x6b, 0x84, 0x3e, 0xcd, 0x39, 0x88, 0x3e,
  0xc4, 0x0d, 0xf3, 0xbe, 0xc7, 0xff, 0x83, 0x3d, 0xa7, 0x9d, 0xce, 0xbe,
  0x07, 0x89, 0x3e, 0xbe, 0x41, 0xdc, 0x78, 0x3c, 0x54, 0xd4, 0x27, 0xbf,
  0xf4, 0x4b, 0x98, 0xbd, 0x5b, 0x63, 0x1c, 0xbc, 0x7e, 0x1a, 0x1b, 0x3e,
  0x80, 0xa8, 0xa9, 0xbc, 0x0d, 0xcf, 0x0a, 0xbe, 0xa9, 0xa2, 0x23, 0x3f,
  0x60, 0xd7, 0x1c, 0xbf, 0x6c, 0x0e, 0xd8, 0xbd, 0x30, 0x74, 0xd5, 0x3e,
  0xa9, 0xf3, 0xbe, 0x3e, 0xa6, 0xc8, 0xcb, 0x3d, 0xf5, 0x7b, 0x7d, 0xbe,
  0x33, 0x36, 0xd6, 0x3e, 0xe5, 0xa4, 0x06, 0x3f, 0x57, 0xb4, 0xe9, 0xbd,
  0xf2, 0xe0, 0x14, 0xbe, 0xb9, 0xf0, 0x8f, 0xbd, 0xeb, 0x23, 0xcc, 0x3d,
  0x30, 0xb4, 0xcc, 0x3d, 0xbf, 0x50, 0xac, 0xbe, 0xe6, 0x97, 0x58, 0x3e,
  0x7d, 0x87, 0xa7, 0x3e, 0xfd, 0xd7, 0x9c, 0x3e, 0x7d, 0x8a, 0x97, 0xbe,
  0x42, 0x44, 0x01, 0x3e, 0x9d, 0x9e, 0x89, 0xbe, 0x98, 0x80, 0x14, 0x3f,
  0x93, 0xc0, 0x86, 0xbe, 0x16, 0xca, 0x15, 0x3f, 0xaf, 0xcd, 0x54, 0x3e,
  0x29, 0x8e, 0x0e, 0x3e, 0x2a, 0x88, 0x8f, 0xbe, 0x50, 0xad, 0x5f, 0x3e,
  0xe6, 0x8e, 0x08, 0x3e, 0xd0, 0x93, 0xa1, 0xbe, 0x84, 0xc6, 0x1c, 0x3e,
  0x10, 0x16, 0xa5, 0xbe, 0xc1, 0xc2, 0x5c, 0x3e, 0x0a, 0xdb, 0x3d, 0xbe,
  0x61, 0xc2, 0xb9, 0xbc, 0x74, 0x5a, 0x89, 0xbe, 0xe7, 0x65, 0x41, 0x3c,
  0x28, 0xd8, 0x0f, 0xbe, 0xd7, 0x81, 0x7c, 0xbe, 0x37, 0x88, 0x9f, 0xbb,
  0x95, 0x1a, 0xea, 0x3d, 0xa9, 0x9b, 0x53, 0x3d, 0x6b, 0x38, 0x8e, 0xbd,
  0xdd, 0x06, 0x4a, 0x3e, 0xea, 0x6b, 0xae, 0x3d, 0xdf, 0x03, 0xca, 0xbe,
  0x4c, 0x97, 0x81, 0xb9, 0x73, 0x70, 0x4e, 0x3c, 0x4b, 0xa7, 0x37, 0xbd,
  0x09, 0x9c, 0x22, 0xbe, 0x9c, 0xe2, 0x73, 0xbe, 0xaa, 0xdc, 0xfe, 0xbd,
  0xd0, 0xf2, 0x32, 0x3e, 0x44, 0x2b, 0x04, 0xbe, 0xc7, 0xed, 0x54, 0xbe,
  0xb0, 0xb3, 0xf0, 0x3d, 0xc7, 0x98, 0x1c, 0x3e, 0x6c, 0x9f, 0x80, 0x3c,
  0xce, 0x3f, 0x3c, 0x3f, 0xfc, 0xb3, 0xfb, 0xbe, 0x04, 0x2b, 0x55, 0x3d,
  0x66, 0xdb, 0x3d, 0xbe, 0xf6, 0x9e, 0x3f, 0xbe, 0xa9, 0xb9, 0x86, 0x3e,
  0xe0, 0x54, 0xef, 0x3e, 0xaa, 0xd6, 0x69, 0x3e, 0xf4, 0x03, 0x0f, 0x3d,
  0x7d, 0x1f, 0xb4, 0xbe, 0x2e, 0xbc, 0x57, 0x3e, 0x80, 0x9c, 0x28, 0xbe,
  0xf8, 0xbf, 0x4e, 0x3d, 0xec, 0x59, 0x22, 0x3f, 0x86, 0x14, 0x9e, 0x3d,
  0x09, 0x16, 0x28, 0xbe, 0xa0, 0x91, 0x9c, 0x3c, 0x30, 0xa0, 0x6c, 0x3e,
  0xeb, 0x14, 0xc4, 0x3e, 0xf0, 0x90, 0x68, 0x3d, 0xea, 0x0b, 0x67, 0x3e,
  0x78, 0xff, 0xa0, 0x3e, 0x6a, 0x54, 0xb5, 0xbe, 0x05, 0x28, 0xbd, 0xbe,
  0x2b, 0xfc, 0xca, 0xbd, 0x84, 0x7a, 0x39, 0xbd, 0x2a, 0xc8, 0x99, 0xbc,
  0xd0, 0xa5, 0xb9, 0xbc, 0x1f, 0x8d, 0x64, 0x3d, 0x67, 0xd4, 0x6e, 0xbe,
  0xd6, 0x8f, 0x0b, 0x3f, 0x81, 0xab, 0x7d, 0x3e, 0xc4, 0x36, 0x14, 0xbf,
  0x00, 0xe4, 0xfe, 0xbd, 0x6c, 0xe1, 0x7b, 0xbe, 0x6b, 0x68, 0x9f, 0x3e,
  0x38, 0x56, 0x00, 0xbd, 0xdf, 0x7b, 0x08, 0xbf, 0xe2, 0xac, 0xba, 0x3e,
  0x15, 0x61, 0x08, 0xbf, 0x53, 0xc0, 0xf9, 0xbd, 0xc1, 0x05, 0x45, 0x3d,
  0xbb, 0xea, 0x9a, 0x3e, 0xcf, 0x87, 0xb8, 0x3e, 0xc2, 0xed, 0x3f, 0xbe,
  0xcb, 0x07, 0x7e, 0xbd, 0xf8, 0xa0, 0xbe, 0x3e, 0xb1, 0xdd, 0x66, 0x3e,
  0x18, 0xaf, 0xa1, 0xbe, 0x40, 0xc7, 0x51, 0xbd, 0x2d, 0xa1, 0xc7, 0xbe,
  0x46, 0x1c, 0xf6, 0x3c, 0x15, 0x74, 0xc2, 0xbe, 0x68, 0x16, 0x9d, 0xbe,
  0xf0, 0x10, 0x10, 0x3f, 0x3d, 0xc3, 0xd2, 0x3e, 0xfa, 0xe7, 0xd8, 0x3d,
  0xe6, 0x1c, 0xe4, 0x3d, 0x31, 0x0f, 0x11, 0x3e, 0x7f, 0xd6, 0x39, 0x3f,
  0x12, 0x87, 0x9a, 0xbe, 0xae, 0xd1, 0x2c, 0x3f, 0xb7, 0x76, 0xe4, 0xbe,
  0x62, 0xdd, 0x0f, 0x3d, 0x04, 0x2c, 0x10, 0x3e, 0xf7, 0x78, 0xb9, 0x3e,
  0xbb, 0x23, 0x66, 0xbe, 0x16, 0xd6, 0x05, 0x3e, 0x1e, 0x78, 0xb3, 0x3e,
  0xf5, 0xb6, 0x01, 0x3e, 0x0c, 0xca, 0x9a, 0xbe, 0xa8, 0x29, 0x00, 0x3f,
  0x24, 0x6e, 0xec, 0x3d, 0x8b, 0x85, 0xbc, 0x3c, 0xaf, 0x08, 0x02, 0xbf,
  0xd8, 0x86, 0x26, 0x3e, 0x6d, 0xb5, 0xdd, 0x3d, 0x27, 0x33, 0x06, 0xbf,
  0x00, 0xbe, 0x7b, 0xbd, 0x67, 0x03, 0x43, 0x3e, 0xea, 0x69, 0xa0, 0x3d,
  0xcb, 0xb1, 0x9f, 0xbe, 0x96, 0xbe, 0x01, 0xbe, 0x5e, 0x19, 0x00, 0x3e,
  0x19, 0x99, 0x0d, 0x3e, 0x3d, 0x0d, 0x04, 0xbf, 0xdb, 0x4f, 0xbf, 0xbe,
  0xb0, 0xa4, 0x00, 0x3e, 0x44, 0x54, 0xbb, 0x3e, 0x59, 0xb6, 0x13, 0x3e,
  0x3f, 0x70, 0x3b, 0x3e, 0x5e, 0x32, 0x9a, 0xbd, 0xd2, 0xcc, 0xd0, 0x3e,
  0x09, 0x36, 0x01, 0x3c, 0xdd, 0x50, 0x0f, 0xbf, 0x28, 0xb4, 0xbf, 0x3d,
  0x5f, 0x99, 0xa5, 0x3e, 0xef, 0x9e, 0x71, 0x3d, 0x49, 0xfa, 0x56, 0xbe,
  0x50, 0x6d, 0xe0, 0xbe, 0xa8, 0x94, 0xc1, 0xbd, 0x6d, 0xa3, 0xa4, 0x3e,
  0xb0, 0xd5, 0x09, 0xbd, 0xbf, 0x73, 0x73, 0x3c, 0x68, 0xa3, 0x74, 0xbe,
  0xe0, 0x67, 0x44, 0x3d, 0x33, 0x1b, 0x9e, 0x3e, 0x45, 0x97, 0xa8, 0xbd,
  0xc5, 0x8d, 0x89, 0x3d, 0x2b, 0xc0, 0x95, 0x3d, 0xaa, 0x7b, 0x5f, 0xbe,
  0x41, 0xc6, 0x9f, 0xbd, 0x41, 0x3e, 0x40, 0x3d, 0xc9, 0xda, 0x22, 0x3d,
  0x10, 0x1f, 0xe4, 0xbd, 0xc6, 0x72, 0x4d, 0x3e, 0x04, 0xa2, 0xd2, 0x3c,
  0xa4, 0x83, 0xbf, 0xbe, 0x65, 0x7c, 0xc5, 0xbe, 0x44, 0x40, 0x8f, 0xbe,
  0x8d, 0x9b, 0xcc, 0xbe, 0x86, 0xc3, 0x9b, 0x3e, 0xec, 0x06, 0xea, 0x3d,
  0x81, 0x0e, 0xb4, 0xbe, 0x2a, 0x20, 0x4d, 0xbd, 0x8f, 0xf6, 0xc0, 0xbe,
  0x3a, 0xb9, 0x5a, 0x3e, 0x65, 0xff, 0x1a, 0xbd, 0x2b, 0xd3, 0x32, 0x3f,
  0xaa, 0x48, 0x1a, 0x3e, 0xaa, 0xfa, 0xad, 0x3c, 0x4e, 0x8a, 0x1f, 0xbf,
  0x57, 0xff, 0x3b, 0x3e, 0xb5, 0xae, 0x8e, 0x3e, 0xda, 0x05, 0x41, 0xbe,
  0x42, 0xd6, 0x85, 0x3e, 0x6e, 0x2e, 0x85, 0xbd, 0xce, 0xdb, 0xe4, 0xbe,
  0xce, 0xc3, 0x52, 0xbd, 0x90, 0xc6, 0x97, 0xbe, 0xee, 0x04, 0x28, 0xbe,
  0xde, 0x75, 0x3b, 0xbf, 0xe5, 0x5c, 0x19, 0xbe, 0x82, 0x84, 0x66, 0x3e,
  0x80, 0x4b, 0xe5, 0x3d, 0x11, 0xcd, 0x92, 0xbd, 0xe9, 0xe7, 0x44, 0xbd,
  0xf2, 0x71, 0x1a, 0x3e, 0x00, 0x3d, 0x75, 0x3e, 0x94, 0x79, 0xc3, 0xbe,
  0x86, 0x9d, 0x1e, 0xbf, 0x39, 0x9f, 0xd1, 0xbe, 0x04, 0xaa, 0x34, 0x3d,
  0xed, 0x79, 0x08, 0x3e, 0x0e, 0xb7, 0x91, 0xbe, 0xad, 0x2d, 0x2d, 0xbf,
  0xa6, 0x0a, 0x85, 0x3e, 0xf8, 0x90, 0xe7, 0xbe, 0x2a, 0xc2, 0x05, 0xbe,
  0x37, 0x97, 0x3a, 0xbe, 0xcf, 0xfb, 0xe6, 0x3e, 0x81, 0x57, 0x82, 0x3e,
  0x86, 0xd0, 0x23, 0x3e, 0xa0, 0xc7, 0x20, 0xbf, 0xd9, 0x69, 0x36, 0x3e,
  0x3e, 0x8e, 0xa8, 0x3e, 0x8c, 0xee, 0x80, 0xbe, 0xbd, 0x22, 0x87, 0x3e,
  0x91, 0x4c, 0x4a, 0xbe, 0xbf, 0x9d, 0xb9, 0xbe, 0x1b, 0x42, 0x07, 0xbf,
  0xf5, 0x6a, 0x8c, 0xbd, 0x43, 0xe5, 0xa5, 0x3e, 0xc7, 0xf6, 0x52, 0xbe,
  0xcb, 0xf9, 0xff, 0xbe, 0xa3, 0x8d, 0x8e, 0x3e, 0xd6, 0x06, 0x85, 0x3d,
  0x90, 0xd7, 0x9d, 0xbe, 0xed, 0xe2, 0xa4, 0xbc, 0xa7, 0xca, 0x2b, 0xbd,
  0x78, 0x4d, 0xd1, 0x3e, 0x7d, 0xcf, 0x17, 0xbe, 0x3a, 0xd1, 0x92, 0xbe,
  0x16, 0x24, 0x0c, 0xbf, 0x0e, 0xe8, 0x07, 0x3d, 0xc2, 0x7d, 0x7a, 0x3e,
  0xca, 0x2d, 0xa3, 0x3d, 0xbe, 0x15, 0xf0, 0xbe, 0x61, 0x54, 0xb0, 0x3e,
  0xab, 0x27, 0xf9, 0xbe, 0xa0, 0xae, 0x99, 0xbe, 0x24, 0xf8, 0xa8, 0xbd,
  0xeb, 0xad, 0xe4, 0x3d, 0x94, 0x38, 0x5c, 0xbe, 0x02, 0x2e, 0x43, 0xbe,
  0xc5, 0xde, 0x9e, 0x3d, 0x6a, 0x73, 0x00, 0xbe, 0x63, 0xf9, 0x7c, 0x3e,
  0xd1, 0x87, 0xfc, 0x3e, 0x3d, 0x09, 0x35, 0xbc, 0xb7, 0x64, 0x83, 0x3e,
  0xcb, 0xdc, 0xf7, 0xbd, 0x7d, 0x20, 0x0c, 0x3e, 0xf1, 0x95, 0xbb, 0xbd,
  0x50, 0xe7, 0x34, 0xbf, 0x5d, 0xf4, 0x86, 0x3e, 0xd4, 0xba, 0xb8, 0xbd,
  0x67, 0x2a, 0x5d, 0xbe, 0xd6, 0xce, 0xbf, 0xbe, 0x83, 0x42, 0x1a, 0x3f,
  0x81, 0x1b, 0xfd, 0x3d, 0xbd, 0xe7, 0x7b, 0xbe, 0x09, 0x32, 0xbb, 0x3e,
  0x40, 0x58, 0xed, 0x3e, 0x57, 0x80, 0x86, 0x3e, 0xb2, 0x3a, 0xaf, 0xbe,
  0x8f, 0xe1, 0xcc, 0xbe, 0x39, 0x34, 0x26, 0xbf, 0xb8, 0xfc, 0xe4, 0x3d,
  0x6e, 0xf0, 0xda, 0xbc, 0x75, 0xc1, 0x41, 0xbe, 0x55, 0xff, 0x75, 0x3d,
  0xb1, 0x90, 0xd5, 0x3e, 0xb2, 0x9c, 0x51, 0xbe, 0x88, 0x99, 0xf6, 0xbd,
  0xe1, 0xb7, 0x33, 0x3e, 0xe0, 0xf9, 0x1c, 0x3e, 0xb2, 0x13, 0xac, 0x3d,
  0x2d, 0x51, 0xd4, 0x3d, 0xe4, 0xa7, 0x02, 0xbc, 0x3e, 0x20, 0x1f, 0xbe,
  0x41, 0x5f, 0x25, 0xbe, 0xe1, 0xec, 0x54, 0xbd, 0x0d, 0xe9, 0xb9, 0x3d,
  0x75, 0xa8, 0x55, 0xbe, 0x0e, 0x4c, 0x0d, 0x3e, 0x32, 0x26, 0x83, 0xbd,
  0x3e, 0xb6, 0xb9, 0x3d, 0xb6, 0x8a, 0x56, 0xbe, 0xb7, 0xdd, 0x6c, 0x3e,
  0x9a, 0xfa, 0x40, 0xbe, 0xbb, 0xa5, 0xad, 0xbd, 0xb3, 0x28, 0x30, 0xbe,
  0xce, 0x76, 0x8b, 0xbe, 0x79, 0x1b, 0x01, 0x3e, 0xc9, 0x3e, 0xf4, 0x3d,
  0xfe, 0x6d, 0xd9, 0xbd, 0x3c, 0xf8, 0x48, 0xbd, 0xa8, 0x28, 0x46, 0x3d,
  0xdf, 0xf1, 0x91, 0xbe, 0xfe, 0x61, 0x65, 0x3d, 0xfe, 0x65, 0x03, 0xbe,
  0x1c, 0x0d, 0x8d, 0x3d, 0x66, 0xb7, 0x2b, 0xbd, 0x40, 0xc3, 0x76, 0x3d,
  0x46, 0x9d, 0x7b, 0xbe, 0xd2, 0x91, 0x10, 0xbd, 0x80, 0x26, 0x0b, 0xbf,
  0xdd, 0x4c, 0x79, 0xbd, 0x77, 0x7d, 0xb8, 0xbc, 0x34, 0x97, 0x86, 0xbe,
  0xbe, 0x42, 0x2e, 0xbd, 0xea, 0xe3, 0xd4, 0x3e, 0x06, 0x7d, 0x86, 0xbd,
  0x3a, 0x4d, 0x18, 0xbd, 0xb7, 0xbd, 0xb7, 0xbe, 0x86, 0x10, 0x73, 0x3e,
  0xae, 0x2f, 0xc7, 0xbe, 0x2c, 0x8a, 0x26, 0xbf, 0xb8, 0x14, 0x04, 0x3f,
  0x8e, 0x5b, 0x34, 0x3e, 0x2c, 0x29, 0x24, 0xbf, 0xe4, 0x45, 0xb3, 0xbe,
  0xd4, 0x85, 0x2b, 0x3e, 0xae, 0x1b, 0x4e, 0x3e, 0x66, 0xd0, 0x6c, 0xbe,
  0x72, 0xaf, 0x52, 0x3e, 0x36, 0x6e, 0x20, 0x3f, 0x12, 0xb7, 0xde, 0xbd,
  0x0a, 0x85, 0x91, 0xbe, 0xb9, 0xe2, 0x29, 0xbf, 0x96, 0xa6, 0x0b, 0xbf,
  0x39, 0x9f, 0xae, 0x3d, 0x39, 0x76, 0x77, 0x3e, 0xaf, 0x9a, 0x01, 0xbe,
  0x70, 0x0e, 0x66, 0x3b, 0x41, 0x91, 0xd6, 0x3e, 0x2c, 0xbc, 0x7d, 0xbe,
  0x5e, 0x8e, 0x48, 0x3f, 0xc6, 0xa0, 0x21, 0x3e, 0x91, 0xf7, 0x46, 0x3e,
  0x04, 0x20, 0xff, 0xbe, 0xcc, 0xc3, 0x58, 0x3e, 0x34, 0xee, 0xc6, 0x3e,
  0xfe, 0x0f, 0x00, 0x3f, 0x7b, 0xe7, 0xe1, 0x3e, 0xd5, 0xcc, 0x7e, 0xbd,
  0xc9, 0xb1, 0x74, 0xbe, 0xc6, 0xa7, 0x80, 0xbd, 0x2c, 0xce, 0x23, 0xbe,
  0xb4, 0x49, 0x6d, 0x3e, 0xc4, 0xeb, 0x35, 0x3e, 0x95, 0x84, 0xeb, 0xbe,
  0xb9, 0xc2, 0x04, 0x3e, 0x88, 0x03, 0x2d, 0xbe, 0x46, 0xb0, 0xf2, 0x3b,
  0x39, 0xe2, 0xa8, 0x3e, 0xc7, 0xfb, 0x38, 0x3e, 0xed, 0x11, 0x12, 0x3b,
  0xe8, 0x0d, 0x08, 0xbe, 0x6f, 0xeb, 0x91, 0xbe, 0x5f, 0x39, 0xbd, 0xbe,
  0xad, 0x49, 0xb1, 0xbd, 0x42, 0x0e, 0x0c, 0x3e, 0x57, 0xcb, 0x60, 0xbd,
  0xf0, 0xf3, 0xd2, 0xbe, 0x43, 0x5d, 0xba, 0xbc, 0xbd, 0xc8, 0xac, 0xbe,
  0x26, 0x01, 0x97, 0x3e, 0x66, 0x37, 0x1a, 0xbd, 0x71, 0x07, 0xbb, 0x3d,
  0xfc, 0x3c, 0xe9, 0x3d, 0x3a, 0x48, 0x5b, 0xbe, 0xd6, 0xcd, 0x00, 0xbd,
  0xba, 0x7e, 0xac, 0x3e, 0xb1, 0xff, 0xfb, 0x3d, 0x4f, 0x6c, 0x03, 0xbf,
  0x7e, 0x6b, 0xa0, 0x3e, 0xa3, 0x13, 0x66, 0xbe, 0x30, 0xd1, 0x5e, 0xbe,
  0xe1, 0x51, 0x22, 0xbf, 0x06, 0x28, 0x15, 0x3d, 0x19, 0xa4, 0x37, 0x3e,
  0x11, 0xcb, 0x3c, 0xbf, 0xbf, 0xdd, 0x62, 0x3e, 0xd2, 0x02, 0x90, 0x3e,
  0xe4, 0x1f, 0xdb, 0x3e, 0x22, 0xc6, 0x7b, 0xbe, 0xe3, 0xb8, 0x96, 0xbd,
  0x6e, 0x1d, 0xbf, 0x3d, 0x92, 0x7d, 0x9b, 0xbd, 0xd6, 0x39, 0xb5, 0xbe,
  0xa7, 0xc2, 0x32, 0x3e, 0x97, 0x50, 0x92, 0x3e, 0xec, 0x2d, 0x35, 0x3d,
  0x97, 0x8a, 0x09, 0x3f, 0xee, 0x04, 0x0f, 0x3e, 0xca, 0x5f, 0xe4, 0xbd,
  0xd1, 0x31, 0x8c, 0x3e, 0x37, 0xad, 0x64, 0xbe, 0xfb, 0x01, 0x1d, 0xbf,
  0x2b, 0xd4, 0x08, 0x3e, 0x36, 0x1d, 0xf4, 0xbe, 0xe0, 0xc6, 0xc6, 0xbd,
  0x2c, 0xd1, 0xe2, 0xbd, 0x39, 0x3c, 0x04, 0x3f, 0x0a, 0x86, 0x95, 0x3d,
  0x99, 0x63, 0xbc, 0xbe, 0x13, 0x80, 0xa0, 0xbe, 0x8a, 0x91, 0x89, 0xbe,
  0x2c, 0x9f, 0xe5, 0x3b, 0xdb, 0x67, 0x19, 0x3f, 0x29, 0xf2, 0xb8, 0xbe,
  0x33, 0x05, 0xf7, 0x3e, 0x45, 0xcb, 0x3f, 0x3e, 0x20, 0x68, 0xe9, 0xbe,
  0x18, 0x26, 0x8f, 0x3d, 0x32, 0xfc, 0x61, 0x3e, 0x86, 0x08, 0x03, 0x3e,
  0xe8, 0x74, 0x1f, 0xbf, 0x83, 0x76, 0x37, 0x3e, 0x96, 0xcd, 0x67, 0x3d,
  0x96, 0xba, 0x88, 0xbe, 0xed, 0x56, 0xae, 0xbe, 0x34, 0x1e, 0xb6, 0x3d,
  0x97, 0x20, 0x3b, 0x3f, 0x9e, 0xe0, 0x83, 0xbd, 0xd2, 0x23, 0xd6, 0x3d,
  0x9a, 0x87, 0x67, 0xbe, 0xef, 0x33, 0xc1, 0x3d, 0x56, 0x34, 0x29, 0x3c,
  0x8d, 0xc8, 0x09, 0x3e, 0x99, 0x2b, 0xd9, 0xbe, 0x4a, 0x32, 0x19, 0xbf,
  0x62, 0xcd, 0x76, 0x3e, 0x91, 0xe1, 0xa8, 0xbe, 0xcc, 0xe4, 0x4c, 0xbe,
  0x35, 0xa3, 0x12, 0xbe, 0xc5, 0x53, 0xb2, 0xbe, 0x00, 0x48, 0x5f, 0x3e,
  0x9e, 0x2c, 0x05, 0x3f, 0x0d, 0x59, 0x54, 0xbc, 0x51, 0x68, 0x53, 0xbd,
  0x7f, 0xe4, 0x21, 0xbe, 0x3e, 0xf4, 0xc4, 0x3e, 0x99, 0x93, 0x91, 0xbe,
  0xaa, 0xe7, 0x0f, 0xbf, 0x8c, 0xe6, 0xbb, 0x3e, 0x85, 0xa2, 0x7b, 0xbd,
  0x2d, 0xec, 0xd5, 0xbe, 0x76, 0x27, 0xdc, 0xbe, 0x50, 0xdd, 0x23, 0x3f,
  0x18, 0xe0, 0xac, 0x3c, 0x51, 0x7e, 0x8f, 0xbe, 0x9b, 0x92, 0x9a, 0x3d,
  0xca, 0x51, 0xc6, 0x3e, 0x97, 0xc7, 0xad, 0x3e, 0xf9, 0x4f, 0x7e, 0xbe,
  0xff, 0x3d, 0x06, 0xbf, 0x57, 0xde, 0x89, 0xbe, 0x32, 0xc7, 0x6f, 0x3d,
  0xe1, 0x3b, 0x3c, 0x3d, 0x34, 0x04, 0x87, 0xbe, 0x0c, 0xdf, 0x96, 0x3e,
  0xc7, 0x0d, 0x1c, 0x3f, 0xf1, 0x8a, 0xca, 0x3d, 0x0d, 0x20, 0x38, 0x3f,
  0x78, 0x49, 0x88, 0x3d, 0xa6, 0xa1, 0x4b, 0x3e, 0xaa, 0xb0, 0x09, 0xbf,
  0x4d, 0x67, 0x88, 0x3e, 0x38, 0xb3, 0x1c, 0x3f, 0xb1, 0xc3, 0xc3, 0xbe,
  0x6b, 0x39, 0x0d, 0x3f, 0x51, 0x56, 0x8b, 0xbc, 0x10, 0x78, 0x44, 0xbe,
  0xca, 0x9e, 0x73, 0x3c, 0xb2, 0xd5, 0x88, 0xbd, 0x0a, 0x7a, 0xe0, 0xbd,
  0x05, 0x2d, 0xad, 0xbe, 0x89, 0x3d, 0x00, 0xbf, 0x5f, 0xaf, 0xaa, 0x3d,
  0xb7, 0xfa, 0x05, 0x3e, 0xc7, 0x0d, 0x1a, 0xbe, 0x9f, 0x4e, 0x7b, 0xbd,
  0xf6, 0x72, 0x8f, 0x3d, 0x7c, 0xad, 0xfc, 0x3d, 0xac, 0x77, 0x8d, 0xbe,
  0xef, 0xac, 0xe9, 0xbe, 0x85, 0x70, 0x30, 0xbf, 0x76, 0xdd, 0xcd, 0xbd,
  0xd8, 0xfe, 0x3f, 0x3e, 0xe4, 0xa6, 0x53, 0xbe, 0x23, 0x9f, 0x32, 0xbf,
  0x84, 0xc2, 0xdb, 0x3e, 0x55, 0xc2, 0xb9, 0xbe, 0xf9, 0x28, 0x0f, 0xbe,
  0xb6, 0xe4, 0xfe, 0x3d, 0x8a, 0x59, 0xec, 0x3d, 0x9d, 0x38, 0x38, 0x3e,
  0xd4, 0xd5, 0xc6, 0x3d, 0x0b, 0x4a, 0x55, 0xbd, 0x75, 0xe0, 0x5c, 0x3e,
  0xa0, 0x23, 0x7e, 0x3e, 0xa5, 0xe2, 0xbd, 0x3d, 0xcc, 0xa8, 0xd4, 0x3e,
  0x61, 0x83, 0x94, 0x3e, 0x41, 0x70, 0x74, 0xbd, 0x9f, 0x2a, 0x10, 0xbe,
  0xef, 0x9e, 0x05, 0xbf, 0x63, 0xf1, 0x6a, 0xbd, 0xe2, 0x77, 0xd0, 0x3e,
  0x64, 0x3e, 0x19, 0xbf, 0x69, 0x67, 0xb2, 0x3d, 0xf7, 0x80, 0x99, 0xbd,
  0xd3, 0x23, 0x5e, 0x3e, 0x8a, 0x78, 0x47, 0x3e, 0x69, 0xaf, 0x5e, 0xbc,
  0xb2, 0x66, 0x63, 0xbd, 0x21, 0xa8, 0x69, 0x3e, 0x99, 0x9a, 0xae, 0xbe,
  0xd2, 0x53, 0xa3, 0xbe, 0x3e, 0xec, 0xaa, 0x3d, 0xde, 0x42, 0x35, 0x3e,
  0xc0, 0x61, 0x9b, 0x3d, 0x0c, 0x18, 0x68, 0xbe, 0xa6, 0xdb, 0x1d, 0xbd,
  0x67, 0x82, 0x99, 0xbd, 0x86, 0x97, 0x23, 0xbc, 0x97, 0x84, 0x88, 0xbe,
  0x0c, 0x04, 0x8f, 0x3e, 0x96, 0x9b, 0x73, 0xbd, 0x98, 0xbf, 0x02, 0x3e,
  0x42, 0xd5, 0xc7, 0xbe, 0x8c, 0x25, 0x11, 0xbb, 0xc4, 0x81, 0x66, 0x3e,
  0x38, 0x36, 0x0e, 0xbf, 0x11, 0x7c, 0x8b, 0x3e, 0x5d, 0xc9, 0xc0, 0x3d,
  0x4f, 0x75, 0xb4, 0xbe, 0x97, 0x45, 0x04, 0xbf, 0x0c, 0x76, 0x8d, 0x3c,
  0x3a, 0x9a, 0x9b, 0x3e, 0x59, 0x1d, 0x8f, 0xbe, 0xed, 0x5b, 0x02, 0xbf,
  0x75, 0x6e, 0xa1, 0x3c, 0x35, 0x14, 0xce, 0xbc, 0x54, 0x04, 0xc7, 0xbd,
  0x53, 0x63, 0x01, 0xbe, 0xd1, 0x55, 0xe9, 0xbd, 0x32, 0x3a, 0xc8, 0x3e,
  0x61, 0xc3, 0x14, 0xbf, 0xf7, 0xe4, 0x27, 0xbe, 0x32, 0x91, 0x19, 0xbf,
  0x62, 0x15, 0x28, 0x3e, 0x43, 0x18, 0x8d, 0x3e, 0xf3, 0x6c, 0x4a, 0x3c,
  0xce, 0x4f, 0x23, 0xbf, 0x9d, 0x49, 0xbc, 0x3e, 0xe2, 0x7c, 0x8c, 0xbe,
  0xc5, 0xba, 0x6d, 0xbe, 0xc6, 0x80, 0x36, 0x3e, 0x71, 0xe0, 0xdb, 0x3d,
  0x37, 0x92, 0xe1, 0x3e, 0x3c, 0xa7, 0x96, 0x3d, 0xf7, 0x01, 0xbc, 0xbe,
  0x7f, 0x38, 0x16, 0x3e, 0xcb, 0x27, 0x04, 0x3e, 0x91, 0x9f, 0x27, 0xbf,
  0x79, 0xf2, 0x45, 0x3e, 0x07, 0xfe, 0xa1, 0xbe, 0xd7, 0x75, 0xc7, 0xbe,
  0x53, 0x63, 0x50, 0xbe, 0x19, 0x6c, 0x45, 0xbe, 0xd0, 0x5f, 0x16, 0x3e,
  0x0f, 0xb1, 0xb7, 0xbe, 0x57, 0x59, 0xcd, 0xbe, 0x13, 0xd1, 0xa4, 0x3e,
  0xc6, 0x44, 0xe5, 0x3e, 0x71, 0x89, 0xbf, 0xbe, 0x0e, 0x8b, 0x29, 0xbe,
  0x72, 0x26, 0xd3, 0x3e, 0x09, 0xab, 0x19, 0xbd, 0xdd, 0xad, 0x69, 0xbe,
  0x16, 0xea, 0x86, 0xbc, 0x88, 0xca, 0xf2, 0x3d, 0xa4, 0x78, 0x02, 0x3f,
  0x05, 0xd3, 0x85, 0x3d, 0x52, 0x47, 0x1d, 0x3e, 0x69, 0xef, 0xaf, 0xbd,
  0xbf, 0x40, 0x0e, 0x3f, 0xd5, 0xac, 0x9d, 0x3b, 0x09, 0xa7, 0xb7, 0xbe,
  0xf0, 0x0c, 0xc2, 0xbe, 0xfe, 0x37, 0x98, 0x3d, 0x30, 0x63, 0xcf, 0xbe,
  0x03, 0xd3, 0x14, 0x3d, 0xad, 0x9d, 0x7d, 0xbe, 0xcc, 0xa2, 0xfb, 0xbe,
  0x04, 0x8b, 0x9a, 0xbc, 0xfa, 0x22, 0xf9, 0x3e, 0x93, 0x71, 0x8f, 0xbd,
  0x5d, 0x59, 0x36, 0xbc, 0x69, 0x3c, 0xd7, 0xbe, 0x97, 0x54, 0x23, 0x3f,
  0xe7, 0x58, 0x24, 0xbe, 0x7f, 0xf3, 0x11, 0xbf, 0x1d, 0x35, 0x17, 0x3f,
  0x94, 0x08, 0x49, 0x3e, 0x33, 0xb6, 0x98, 0xbe, 0x51, 0xbc, 0xc3, 0xbe,
  0x1f, 0x4b, 0xcd, 0x3e, 0xd2, 0x5a, 0x84, 0x3e, 0xd1, 0xce, 0xff, 0xbe,
  0x80, 0xc1, 0x33, 0x3e, 0xb4, 0xbd, 0x59, 0x3e, 0x4e, 0xa0, 0x5c, 0xbe,
  0x9c, 0x99, 0xc9, 0xbe, 0x97, 0x3c, 0xa3, 0xbe, 0x59, 0x51, 0x1b, 0xbf,
  0xfb, 0x4d, 0x04, 0x3e, 0x8e, 0x7a, 0x86, 0x3e, 0xff, 0xa5, 0x9c, 0xbe,
  0x7a, 0xc5, 0xa3, 0x3d, 0x73, 0xd6, 0x01, 0x3e, 0x24, 0xfa, 0x99, 0xbe,
  0x2a, 0x6e, 0x04, 0x3f, 0x66, 0x7f, 0x92, 0xbd, 0x52, 0xaa, 0xcf, 0xbd,
  0x0c, 0x81, 0x1a, 0xbf, 0x48, 0xd9, 0xdf, 0xbd, 0xa0, 0x89, 0xad, 0x3e,
  0xd6, 0x5e, 0x01, 0xbf, 0xfa, 0xb7, 0x0e, 0x3f, 0x42, 0x3c, 0x26, 0x3e,
  0xa1, 0xa2, 0x0e, 0x3d, 0xf1, 0xba, 0xf7, 0xbe, 0x91, 0x80, 0xfa, 0xbe,
  0x88, 0x76, 0xce, 0x3e, 0xa5, 0x47, 0x0e, 0xbf, 0x39, 0x45, 0xfe, 0xbe,
  0x01, 0x19, 0xf7, 0xbd, 0x33, 0xaa, 0x1c, 0x3e, 0x87, 0x41, 0x09, 0x3d,
  0x5c, 0xda, 0x81, 0xbc, 0x7e, 0xc9, 0x86, 0x3e, 0xfe, 0x6b, 0x99, 0x3e,
  0x54, 0x74, 0x3b, 0xbe, 0x49, 0xfb, 0x89, 0xbe, 0x07, 0x52, 0xd4, 0xbe,
  0xe8, 0x79, 0x9f, 0x3d, 0x53, 0x43, 0x75, 0xbc, 0xc9, 0x29, 0x74, 0xbb,
  0xf9, 0x69, 0xad, 0xbe, 0x17, 0xb1, 0xbb, 0x3e, 0xd6, 0x39, 0x09, 0xbf,
  0x94, 0x66, 0x87, 0xbe, 0x20, 0x13, 0xbf, 0xbd, 0x47, 0x44, 0x97, 0x3d,
  0x6c, 0xca, 0x54, 0xbe, 0xab, 0x98, 0x63, 0xbd, 0xfa, 0x55, 0xb6, 0xbd,
  0x69, 0x75, 0xa6, 0xbe, 0x45, 0x34, 0xe3, 0xbc, 0x6e, 0xec, 0x58, 0x3e,
  0xa9, 0x06, 0x8d, 0xbe, 0xf0, 0x3c, 0xa1, 0x3e, 0x04, 0x43, 0xc2, 0xbe,
  0x7b, 0x6c, 0x8c, 0x3e, 0x84, 0x44, 0x88, 0xbe, 0xba, 0x58, 0x49, 0xbf,
  0x6e, 0xe6, 0x4b, 0x3f, 0xd7, 0xbd, 0xb3, 0x3d, 0x37, 0x4d, 0x12, 0xbf,
  0xb2, 0xa2, 0x4c, 0xbe, 0xcd, 0xc2, 0x0a, 0x3f, 0x76, 0xcc, 0x8f, 0x3e,
  0x5d, 0x15, 0xda, 0xbe, 0x0c, 0xfe, 0x4f, 0x3e, 0x0f, 0x1e, 0x16, 0x3f,
  0xe8, 0x92, 0xa7, 0xbd, 0xec, 0x89, 0x6b, 0xbe, 0x13, 0x82, 0xfd, 0xbe,
  0xd8, 0x04, 0x0f, 0xbf, 0x67, 0xc6, 0xca, 0x3c, 0xce, 0xac, 0x4f, 0x3e,
  0x80, 0x95, 0x17, 0xbf, 0x65, 0xec, 0x40, 0x3e, 0x0e, 0x35, 0x01, 0x3f,
  0xf2, 0x7c, 0x9e, 0x3e, 0x19, 0x72, 0x03, 0xbf, 0x56, 0x9e, 0x1a, 0x3d,
  0xd7, 0xa7, 0x83, 0x3d, 0x1c, 0x1c, 0x15, 0x3f, 0x75, 0x18, 0x31, 0x3e,
  0x82, 0x5c, 0xeb, 0xbe, 0xfe, 0x9d, 0x4e, 0xbe, 0x5c, 0x14, 0x70, 0xbe,
  0xa1, 0x1a, 0x37, 0xbd, 0x9a, 0x10, 0x76, 0x3e, 0xef, 0x09, 0x81, 0xbd,
  0x8a, 0x91, 0xf7, 0x3d, 0xbe, 0x66, 0xd9, 0x3d, 0xe5, 0xc7, 0x07, 0xbf,
  0x07, 0x75, 0x04, 0x3e, 0xf0, 0xda, 0xbd, 0x3e, 0xc7, 0xf8, 0x0c, 0x3e,
  0x2f, 0x27, 0x99, 0xbe, 0x13, 0xed, 0xd5, 0xbd, 0x4c, 0x29, 0x55, 0x3e,
  0xa3, 0x56, 0xd9, 0xbe, 0x8a, 0x21, 0x7a, 0xbe, 0x0b, 0x32, 0x74, 0x3e,
  0x87, 0x81, 0xfd, 0x3e, 0xe0, 0x32, 0x4e, 0x3e, 0x7b, 0x82, 0x8b, 0xbd,
  0x42, 0x16, 0xc6, 0x3d, 0x8b, 0xcd, 0xe7, 0xbd, 0x9a, 0x5c, 0x2b, 0xbe,
  0x27, 0x66, 0xd3, 0x3e, 0x03, 0xc9, 0x05, 0xbf, 0xf8, 0xdb, 0xbf, 0x3c,
  0xa1, 0xbc, 0xa8, 0x3e, 0x9e, 0x9d, 0x31, 0x3e, 0x61, 0x09, 0x1c, 0xbe,
  0x1c, 0x7f, 0xcb, 0xbe, 0x67, 0x5c, 0xad, 0xbd, 0x5c, 0xe1, 0x04, 0x3f,
  0xb5, 0x4a, 0x7e, 0xbe, 0x22, 0x96, 0x39, 0x3f, 0x42, 0x61, 0x05, 0x3e,
  0x0d, 0xea, 0x9a, 0xbe, 0x7d, 0xcd, 0xd1, 0xbe, 0xf3, 0xe0, 0x73, 0xbb,
  0xeb, 0x61, 0x23, 0xbe, 0x6b, 0x42, 0x08, 0xbf, 0x0c, 0x3d, 0x40, 0xbf,
  0xea, 0x3e, 0xbb, 0xbd, 0x30, 0x99, 0xba, 0x3e, 0x88, 0xe6, 0x29, 0xbd,
  0x6c, 0xbf, 0xab, 0x3e, 0x1a, 0x10, 0x1f, 0x3e, 0xc5, 0xe4, 0xe6, 0xbc,
  0xe6, 0xcd, 0xd6, 0xbe, 0x13, 0xb6, 0x07, 0xbf, 0x52, 0xab, 0x98, 0xbe,
  0x3c, 0xbe, 0xa4, 0x3e, 0x13, 0xd2, 0x01, 0xbd, 0x5a, 0x66, 0xf1, 0x3c,
  0x60, 0xa6, 0x0c, 0xbf, 0x5c, 0x8e, 0xb6, 0x3e, 0xe6, 0x84, 0xb2, 0xbd,
  0xd5, 0xcf, 0xee, 0xbe, 0x31, 0x12, 0xfe, 0xbe, 0x00, 0xe4, 0x9a, 0x3e,
  0x02, 0xac, 0x07, 0xbf, 0x8b, 0x23, 0x8a, 0x3d, 0xb2, 0xcb, 0xf4, 0xbc,
  0x0a, 0xa6, 0x05, 0xbf, 0x81, 0x48, 0x97, 0x3e, 0x09, 0x08, 0x97, 0x3e,
  0x98, 0xa2, 0xa5, 0x3e, 0x5d, 0xf7, 0x93, 0x3e, 0xa4, 0x23, 0x57, 0xbe,
  0x28, 0xa5, 0x70, 0x3e, 0xcb, 0xeb, 0x2f, 0xbd, 0xcb, 0x5d, 0x0e, 0xbf,
  0x2e, 0xbc, 0x4b, 0x3f, 0x5d, 0x53, 0x75, 0x3b, 0x38, 0x94, 0xee, 0xbe,
  0xac, 0x48, 0x70, 0xbe, 0xeb, 0x7b, 0x13, 0x3e, 0x01, 0xba, 0x45, 0x3e,
  0x8e, 0xa4, 0x68, 0xbe, 0xae, 0xcd, 0xe6, 0x3e, 0x4d, 0x67, 0xeb, 0x3e,
  0xa0, 0xdc, 0x8b, 0xbd, 0xaa, 0x65, 0x16, 0xbe, 0x73, 0x9e, 0x1a, 0xbe,
  0xc5, 0xce, 0xb1, 0xbe, 0x18, 0x15, 0x0f, 0xbe, 0x99, 0x6f, 0xb3, 0x3d,
  0x7e, 0x71, 0xc2, 0xbe, 0x7f, 0x65, 0x87, 0x3c, 0x4b, 0xb2, 0xf2, 0x3e,
  0x40, 0xa5, 0x8b, 0x3d, 0xe7, 0x81, 0x22, 0x3f, 0x98, 0x27, 0xf6, 0xbd,
  0x4a, 0x97, 0x9b, 0xbe, 0x30, 0xff, 0xd0, 0xbe, 0xb0, 0x25, 0x38, 0xbd,
  0x44, 0xe1, 0x1d, 0x3f, 0x0a, 0x54, 0x03, 0x3c, 0xdc, 0xed, 0x2e, 0x3f,
  0x90, 0xa9, 0x3c, 0x3e, 0x0b, 0xb6, 0xf7, 0x3d, 0xd5, 0x95, 0x53, 0x3e,
  0xba, 0xf0, 0x9a, 0xbe, 0x3c, 0xd9, 0xd6, 0xbd, 0x16, 0xfd, 0xe0, 0x3e,
  0x32, 0xee, 0xc8, 0xbe, 0x27, 0x06, 0xcc, 0x3e, 0x19, 0x84, 0x77, 0xbd,
  0xf8, 0x53, 0xd3, 0x3e, 0x96, 0x74, 0x65, 0x3e, 0x1e, 0xe1, 0x03, 0x39,
  0x89, 0x5c, 0x40, 0x3e, 0x91, 0x67, 0x81, 0xbe, 0x15, 0x62, 0x8c, 0xbe,
  0x1f, 0xf0, 0xa3, 0xbe, 0xaf, 0xe7, 0x6c, 0x3e, 0x3e, 0x19, 0xae, 0xbd,
  0xec, 0x54, 0x09, 0xbe, 0xdc, 0x6c, 0xb7, 0xbe, 0x9f, 0xf5, 0xc0, 0x3e,
  0x24, 0xff, 0xc1, 0xbd, 0x22, 0x2d, 0x3f, 0x3b, 0xf3, 0x16, 0x34, 0x3e,
  0x14, 0x97, 0xb4, 0x3d, 0x2b, 0x2f, 0xa1, 0x3e, 0xee, 0x7d, 0xf5, 0xbc,
  0xc3, 0xca, 0xd0, 0x3d, 0x9e, 0x3b, 0xb1, 0x3e, 0xdd, 0xd9, 0x28, 0xbe,
  0x91, 0xce, 0xf8, 0xbe, 0x89, 0x4c, 0x2b, 0x3e, 0xae, 0x31, 0xca, 0xbd,
  0x12, 0xdc, 0x1b, 0xbd, 0x2d, 0x04, 0xb7, 0xbe, 0x89, 0xc7, 0x5e, 0xbd,
  0xff, 0x42, 0xde, 0x3e, 0xf3, 0x30, 0x00, 0xbf, 0x49, 0x5e, 0xab, 0xbe,
  0xb8, 0xce, 0x40, 0x3e, 0x39, 0x5a, 0xdc, 0x3e, 0x58, 0x50, 0x2c, 0xbf,
  0xa0, 0xbf, 0x4b, 0xbc, 0x0f, 0x48, 0xeb, 0x3e, 0x1e, 0xa5, 0x88, 0xbd,
  0xd4, 0x57, 0xe2, 0xbd, 0xd2, 0x40, 0xdd, 0xbd, 0x5c, 0x17, 0xd2, 0x3e,
  0xf1, 0xca, 0xeb, 0x3e, 0xdd, 0x25, 0x91, 0x3e, 0x1a, 0x00, 0x28, 0x3e,
  0x4c, 0x76, 0x3f, 0xbe, 0x45, 0x46, 0x95, 0x3d, 0xe1, 0x92, 0x92, 0xbe,
  0x57, 0x4f, 0x3e, 0xbe, 0x1e, 0x5b, 0x0b, 0x3e, 0x92, 0x2d, 0x04, 0x3f,
  0x6d, 0x81, 0x84, 0xbd, 0x42, 0xfd, 0x89, 0xbe, 0x4f, 0x45, 0x34, 0xbe,
  0xc6, 0x25, 0x1b, 0xbd, 0x43, 0xe3, 0x51, 0x3f, 0x5a, 0x87, 0xa0, 0x3e,
  0x45, 0x22, 0xf7, 0x3e, 0xdf, 0xc4, 0x9f, 0x3c, 0x93, 0x6d, 0xd0, 0xbe,
  0x0d, 0x0a, 0x1e, 0x3e, 0x40, 0x82, 0x2c, 0xbe, 0x65, 0x40, 0xd2, 0xbc,
  0x40, 0x8e, 0xb5, 0x3e, 0xeb, 0x0e, 0xab, 0xbe, 0xbf, 0x06, 0x5e, 0x3d,
  0x53, 0x6e, 0x80, 0x3e, 0x68, 0x67, 0x4f, 0xbe, 0xe8, 0xdb, 0xce, 0x3e,
  0x81, 0xb6, 0xc9, 0xba, 0x15, 0x25, 0xf3, 0x3c, 0x8f, 0xab, 0x99, 0xbe,
  0xe1, 0xa2, 0x08, 0xbf, 0x25, 0xaf, 0x96, 0xbe, 0xa4, 0x37, 0x79, 0x3e,
  0x31, 0x4f, 0x17, 0xbe, 0xb2, 0x0d, 0x4a, 0xbe, 0x40, 0x99, 0x0c, 0xbf,
  0x88, 0x05, 0x1d, 0x3e, 0x54, 0xc7, 0xc2, 0xbe, 0x50, 0x51, 0xe2, 0xbd,
  0x9a, 0xe4, 0x84, 0xbe, 0x69, 0x6c, 0x2d, 0x3d, 0x19, 0x80, 0x72, 0xbe,
  0x50, 0xb6, 0xfa, 0x3d, 0xf3, 0xb3, 0x46, 0x3d, 0x6f, 0xd4, 0xb5, 0xbe,
  0xdb, 0x34, 0x2f, 0x3e, 0xd0, 0xb9, 0x12, 0x3f, 0x9d, 0x60, 0xc0, 0x3d,
  0x3a, 0x4f, 0x9f, 0x3d, 0x45, 0x50, 0x16, 0xbe, 0xb1, 0x4d, 0x9a, 0x3e,
  0xda, 0x86, 0x56, 0xbe, 0xa5, 0x94, 0x94, 0xbe, 0xd7, 0x06, 0x13, 0x3f,
  0x80, 0x85, 0x1d, 0xbe, 0x9b, 0xe5, 0xd2, 0xbe, 0x2f, 0x25, 0xd4, 0xbe,
  0x4c, 0x1f, 0xba, 0x3e, 0x03, 0x9f, 0x2b, 0x3e, 0x0e, 0xc2, 0xfa, 0xbe,
  0x2d, 0x25, 0x78, 0x3e, 0x6d, 0x99, 0x8f, 0x3e, 0x34, 0xe9, 0xa9, 0x3e,
  0x49, 0x2b, 0x46, 0xbe, 0x58, 0x5d, 0x9a, 0xbe, 0x63, 0x9a, 0xde, 0xbe,
  0x61, 0x93, 0x14, 0xbe, 0x5a, 0x6d, 0x07, 0xbb, 0x40, 0x05, 0x5d, 0xbe,
  0xc0, 0xf5, 0xb5, 0x3e, 0xdc, 0x28, 0x87, 0x3e, 0x6a, 0xb6, 0x2a, 0x3e,
  0x2b, 0xe8, 0x10, 0xbf, 0xe9, 0x25, 0x62, 0x3d, 0x0f, 0x55, 0x8b, 0x3e,
  0x04, 0xd2, 0xb5, 0x3e, 0xd2, 0x4a, 0x05, 0x3e, 0x46, 0xfc, 0x0a, 0xbf,
  0x09, 0x99, 0x89, 0xbe, 0x3c, 0xd6, 0xdf, 0xbe, 0x97, 0x81, 0x32, 0xbe,
  0x12, 0xb5, 0x4e, 0x3e, 0x8e, 0x21, 0x94, 0xbd, 0x3c, 0x08, 0x40, 0x3e,
  0x29, 0xf1, 0x58, 0xbc, 0xff, 0x30, 0xbd, 0xbe, 0xad, 0x19, 0x9f, 0x3e,
  0xa8, 0x75, 0x78, 0x3d, 0x03, 0x8b, 0x66, 0x3d, 0x10, 0x5a, 0x96, 0xbe,
  0x4b, 0x24, 0xa2, 0xbe, 0x59, 0xe6, 0x6f, 0xbe, 0xae, 0x4e, 0x09, 0xbf,
  0xf0, 0xd6, 0xc8, 0xbe, 0xbf, 0xc2, 0x30, 0x3e, 0x5e, 0x9f, 0x16, 0x3f,
  0x71, 0x28, 0x27, 0xbd, 0x4f, 0x62, 0x08, 0x3e, 0x41, 0x71, 0x87, 0x3d,
  0x68, 0xba, 0x17, 0x3f, 0xc1, 0x36, 0xd7, 0xbe, 0x8c, 0xeb, 0xdb, 0x3e,
  0x5b, 0x02, 0xe5, 0xbe, 0x9f, 0x6d, 0x1c, 0x3e, 0x85, 0xe4, 0x3d, 0xbf,
  0xcb, 0xb2, 0xde, 0x3d, 0xa8, 0x61, 0x24, 0xbe, 0xe0, 0x3d, 0x0e, 0x3f,
  0xde, 0xe4, 0x96, 0x3d, 0xfe, 0x22, 0x07, 0xbf, 0x87, 0xf6, 0xc2, 0x3e,
  0x09, 0x6c, 0xc8, 0xbe, 0x0b, 0xcc, 0x16, 0x3e, 0x59, 0xf6, 0xd3, 0x3e,
  0x8c, 0x7e, 0x4c, 0xbe, 0x3d, 0xd3, 0x89, 0x3b, 0x3a, 0x3b, 0xb8, 0xbd,
  0xb0, 0x19, 0x9b, 0xbd, 0xa1, 0xa4, 0xa5, 0x3e, 0xe7, 0xea, 0x16, 0x3e,
  0xc8, 0x29, 0xe0, 0x3c, 0xdf, 0x6d, 0xe9, 0x3c, 0x56, 0xba, 0xb3, 0xbe,
  0x3c, 0xb8, 0xc7, 0xbd, 0xb6, 0x7c, 0xc4, 0xbe, 0xed, 0x5e, 0x09, 0x3e,
  0xcd, 0xb0, 0x7d, 0x3e, 0xed, 0x72, 0x2c, 0x3f, 0x94, 0xab, 0x7f, 0x3d,
  0x7a, 0x69, 0x16, 0xbe, 0xee, 0xd8, 0x56, 0xbe, 0x94, 0x85, 0x38, 0x3f,
  0xa1, 0xbc, 0x76, 0xbe, 0xe7, 0x49, 0x86, 0x3e, 0xfa, 0x89, 0x8d, 0xbe,
  0x8b, 0xb0, 0x42, 0xbe, 0x25, 0xcd, 0xce, 0xbe, 0xf4, 0xd0, 0x40, 0x3c,
  0xd9, 0xf9, 0x01, 0xbe, 0x46, 0xba, 0x01, 0x3f, 0x3b, 0x72, 0x11, 0xbd,
  0xe7, 0x10, 0xc8, 0xbe, 0x19, 0x77, 0x06, 0x3e, 0x83, 0xca, 0xb4, 0xbe,
  0x56, 0x2f, 0x8d, 0xbd, 0xc6, 0x26, 0x07, 0x3e, 0x19, 0x4d, 0x00, 0x3f,
  0x46, 0x25, 0x4e, 0x3e, 0x14, 0x67, 0x5d, 0xbd, 0xa6, 0xac, 0x0d, 0x3f,
  0x85, 0xcd, 0x8a, 0x3e, 0x36, 0x15, 0xdb, 0x3d, 0xe1, 0x10, 0x81, 0xbe,
  0x15, 0x46, 0x87, 0x3e, 0x28, 0x6a, 0x93, 0x3d, 0xfd, 0x4d, 0xd3, 0x3d,
  0x15, 0xcd, 0x34, 0xbe, 0x01, 0xec, 0x65, 0x3e, 0x3b, 0xd8, 0x05, 0x3f,
  0x87, 0x33, 0x12, 0x3e, 0x70, 0x58, 0x2c, 0xbe, 0x06, 0x62, 0xc1, 0xbd,
  0x35, 0x2b, 0x21, 0x3e, 0xa6, 0x70, 0x1e, 0x3f, 0x75, 0x37, 0x80, 0xbe,
  0xa3, 0x77, 0x13, 0x3f, 0x30, 0x1a, 0x6f, 0x3e, 0x8a, 0xc8, 0x19, 0xbf,
  0xab, 0x3e, 0x2f, 0x3d, 0x4f, 0x4f, 0xdd, 0xbe, 0x8a, 0xfe, 0x72, 0x3e,
  0x97, 0xbc, 0x9b, 0xbe, 0xb1, 0x3c, 0x5a, 0xbd, 0x4c, 0x82, 0x0f, 0x3e,
  0x95, 0xb9, 0x21, 0x3e, 0xe7, 0x0d, 0x26, 0x3d, 0xb2, 0x80, 0x9a, 0x3e,
  0x97, 0x28, 0xbc, 0xbc, 0xbf, 0x93, 0x11, 0x3f, 0x61, 0x31, 0x69, 0xbe,
  0xdd, 0x8a, 0x1e, 0xbf, 0x0e, 0x64, 0x0b, 0x3f, 0x3d, 0x5c, 0x47, 0xbe,
  0x10, 0xc1, 0x09, 0xbf, 0xb1, 0x9a, 0xfc, 0xbe, 0xad, 0xde, 0x9e, 0x3e,
  0xd2, 0xae, 0xdf, 0xbb, 0xea, 0x16, 0xd7, 0xbe, 0x88, 0x20, 0xb2, 0x3d,
  0xef, 0xcd, 0x0f, 0x3f, 0x5f, 0xb2, 0x41, 0x3e, 0x9a, 0xd2, 0xd1, 0xbe,
  0x2e, 0x81, 0xca, 0xbe, 0x6a, 0x1b, 0x04, 0xbf, 0x7b, 0x6b, 0xe5, 0xbc,
  0xa2, 0x3e, 0x4b, 0x3e, 0x4a, 0x2c, 0x89, 0xbe, 0x20, 0x4e, 0x9d, 0x3e,
  0xb6, 0x02, 0x1d, 0x3f, 0x2f, 0xbb, 0xff, 0xbc, 0xa8, 0xa6, 0x69, 0x3e,
  0xc2, 0x7b, 0x19, 0x3e, 0x86, 0xe1, 0x15, 0x3e, 0x12, 0x63, 0xfb, 0xbe,
  0x88, 0xfe, 0x44, 0x3e, 0xa6, 0xf0, 0x68, 0x3d, 0xb4, 0x8b, 0x91, 0xbd,
  0x69, 0x1b, 0x32, 0x3f, 0xb8, 0x7b, 0x34, 0xbe, 0x56, 0x4a, 0xa0, 0xbe,
  0xce, 0x5f, 0x8a, 0xbe, 0x64, 0x40, 0xcf, 0xbe, 0x86, 0xc9, 0x84, 0x3e,
  0x75, 0xd8, 0xff, 0xbe, 0xcb, 0x2a, 0xe8, 0xbd, 0xab, 0xf8, 0xbd, 0x3d,
  0xe8, 0x5b, 0x01, 0xbe, 0xf3, 0x26, 0x1c, 0xbf, 0x4b, 0xac, 0x35, 0xbd,
  0x6b, 0x7f, 0x78, 0x3e, 0xee, 0x19, 0x0c, 0x3e, 0xdc, 0xee, 0x96, 0xbe,
  0x67, 0x6f, 0x16, 0xbf, 0x2c, 0x3b, 0x4e, 0xbe, 0x1e, 0x38, 0x3f, 0x3e,
  0x03, 0xb3, 0xad, 0xbc, 0x78, 0x3c, 0xff, 0x3d, 0x25, 0x2e, 0x0d, 0xbf,
  0xd2, 0x0e, 0x74, 0x3e, 0xa2, 0x77, 0x38, 0xbe, 0x9c, 0x2b, 0x64, 0xbe,
  0x1c, 0x60, 0xb9, 0x3e, 0x35, 0x97, 0x0a, 0xbe, 0x2a, 0xc0, 0x0d, 0xbd,
  0x37, 0x0c, 0x0e, 0x3d, 0xa5, 0xe7, 0x74, 0x3e, 0xa2, 0x8f, 0x76, 0x3e,
  0x05, 0x80, 0x86, 0xbe, 0xa2, 0x8b, 0xa7, 0xbe, 0xdc, 0xf5, 0x40, 0xbe,
  0xb5, 0xb6, 0x32, 0xbe, 0x7f, 0xc8, 0x76, 0x3e, 0x89, 0xf7, 0xa1, 0xbd,
  0x1e, 0x41, 0xa3, 0x3e, 0x00, 0xd8, 0xbf, 0x3e, 0x81, 0x6c, 0x1e, 0xbf,
  0x80, 0x36, 0x5e, 0xbe, 0x35, 0x13, 0x06, 0x3f, 0x92, 0xd4, 0x4b, 0xbd,
  0xbe, 0x85, 0xc5, 0xbe, 0x3b, 0x67, 0x86, 0x3d, 0x3d, 0x2f, 0x7c, 0x3e,
  0x86, 0x6b, 0x3e, 0xbe, 0x48, 0xea, 0xbe, 0xbe, 0x64, 0xf8, 0xbb, 0xbd,
  0x6a, 0x30, 0x11, 0x3f, 0x80, 0xb7, 0xb6, 0x3e, 0xb5, 0xab, 0x2c, 0x3e,
  0x97, 0xe9, 0x16, 0xbd, 0x4a, 0xd9, 0x48, 0x3e, 0x19, 0x9d, 0xbb, 0xbd,
  0x29, 0x09, 0xde, 0xbd, 0x61, 0xd1, 0x1f, 0xbf, 0x73, 0x93, 0x46, 0xbe,
  0x5e, 0x9c, 0x4d, 0x3f, 0x5a, 0x46, 0x79, 0xbe, 0xfc, 0x59, 0xe5, 0x3d,
  0xbb, 0xec, 0xdf, 0xbe, 0xc0, 0xbd, 0xaa, 0x3d, 0x7a, 0xc7, 0x18, 0x3f,
  0x0f, 0x2e, 0xe6, 0x3e, 0x64, 0x2f, 0xb9, 0x3c, 0x8c, 0x89, 0x28, 0xbd,
  0xc6, 0xf7, 0xe8, 0xbe, 0xea, 0x1d, 0xa0, 0x3e, 0xc2, 0xf2, 0xd5, 0xbd,
  0x90, 0xf3, 0x18, 0xbd, 0x03, 0xf6, 0x18, 0x3f, 0xa1, 0xc7, 0x3b, 0xbe,
  0xaf, 0x37, 0x8a, 0xbd, 0x84, 0x4d, 0x05, 0xbc, 0x1f, 0x0c, 0x98, 0x3e,
  0xd9, 0xe6, 0x63, 0x3e, 0xc7, 0x20, 0xfd, 0x3d, 0x3c, 0xa3, 0xc2, 0x3e,
  0x62, 0xf2, 0xbd, 0x3e, 0xdd, 0xfa, 0x70, 0xbe, 0xa0, 0x26, 0xe5, 0xbe,
  0xe2, 0xeb, 0xc5, 0xbc, 0x9c, 0x75, 0x55, 0x3d, 0x60, 0x19, 0x8e, 0xbd,
  0xc6, 0xdc, 0x43, 0xbd, 0x50, 0xc1, 0x82, 0x3c, 0x7a, 0xc9, 0x3b, 0xbe,
  0x7d, 0xbf, 0x8e, 0x3e, 0x3a, 0x11, 0x4b, 0x3e, 0xcc, 0xa5, 0x03, 0xbf,
  0x03, 0x83, 0xd0, 0x3d, 0x7a, 0xae, 0x66, 0x3d, 0xa1, 0xa1, 0x8a, 0x3e,
  0x69, 0x7f, 0x16, 0x3d, 0xd9, 0x01, 0x06, 0xbf, 0xec, 0x0d, 0x60, 0xbe,
  0x69, 0xc0, 0x18, 0xbf, 0x31, 0x38, 0xd8, 0xbd, 0x16, 0x56, 0x52, 0x3e,
  0xb7, 0x47, 0xe4, 0xbd, 0x68, 0x4f, 0x06, 0x3f, 0x69, 0xa1, 0xed, 0xbc,
  0x01, 0xa2, 0xc1, 0xbe, 0x0e, 0xd7, 0x58, 0x3e, 0x61, 0x85, 0x6d, 0x3e,
  0x86, 0xc6, 0xae, 0xbd, 0xac, 0x89, 0x4c, 0xbe, 0xf6, 0xd4, 0x5d, 0x3e,
  0xc1, 0xf9, 0x9f, 0x3d, 0xc4, 0xf9, 0xe5, 0xbd, 0x16, 0xf7, 0xb1, 0xbe,
  0xb5, 0xba, 0xc9, 0x3e, 0xe0, 0x76, 0x15, 0x3f, 0x9e, 0x04, 0xdb, 0x3d,
  0xe8, 0xf0, 0x7c, 0x3e, 0x00, 0xd9, 0x3a, 0xbe, 0x4f, 0xd5, 0x18, 0x3e,
  0x50, 0xc4, 0xfe, 0x3c, 0x81, 0x50, 0x07, 0xbe, 0x6f, 0x5f, 0x19, 0xbf,
  0x1a, 0x24, 0x14, 0xbe, 0x14, 0xc8, 0xc5, 0xbe, 0x9f, 0x3b, 0x80, 0xbd,
  0xae, 0xf8, 0x81, 0x3d, 0x90, 0xed, 0x1c, 0x3f, 0x55, 0x8a, 0xfe, 0xbd,
  0xb1, 0x8b, 0xcf, 0xbe, 0xc6, 0x5e, 0x5b, 0x3d, 0x43, 0xb3, 0xfb, 0xbe,
  0xd0, 0x50, 0x9b, 0x3d, 0xf5, 0xd4, 0x07, 0x3e, 0x83, 0x8f, 0x3c, 0x3e,
  0xa6, 0x7f, 0x8f, 0x3e, 0x57, 0xcf, 0x4c, 0x3d, 0xb8, 0xea, 0x83, 0x3e,
  0x1f, 0x01, 0xfa, 0x3e, 0x27, 0xf3, 0x94, 0x3e, 0xe4, 0x40, 0xdb, 0xbc,
  0x49, 0x3a, 0x1d, 0xbd, 0xf4, 0x8b, 0xce, 0x3c, 0x38, 0xae, 0x74, 0xbd,
  0xe9, 0x96, 0xc7, 0x3b, 0x14, 0xb9, 0x51, 0xbe, 0x7f, 0x42, 0x1a, 0x3f,
  0xa8, 0x5b, 0x1c, 0x3f, 0xc3, 0xf8, 0x25, 0xbe, 0xa2, 0xf2, 0x98, 0x3e,
  0x26, 0x6c, 0x7b, 0xbe, 0xe9, 0xc5, 0x2b, 0x3f, 0xca, 0x98, 0xb5, 0xbe,
  0x0f, 0xe5, 0xce, 0x3e, 0xda, 0x7d, 0x53, 0x3c, 0x47, 0x67, 0x23, 0xbf,
  0x43, 0x9d, 0xf7, 0xbd, 0xc9, 0x58, 0xf1, 0xbe, 0x97, 0x4f, 0x2d, 0x3e,
  0xca, 0x16, 0x03, 0x3e, 0x0e, 0x1d, 0x01, 0xbf, 0x70, 0x2e, 0x33, 0x3e,
  0xc7, 0xa6, 0xc6, 0x3e, 0xcb, 0x17, 0x0b, 0xbe, 0x76, 0x01, 0xa1, 0x3e,
  0xc0, 0x65, 0xcc, 0xbe, 0x25, 0xe8, 0x95, 0x3e, 0xce, 0x47, 0x62, 0xbe,
  0xe4, 0xd3, 0xc2, 0xbe, 0x5f, 0x15, 0x0b, 0x3f, 0x95, 0x60, 0x2b, 0x3e,
  0xcc, 0x85, 0x2c, 0xbf, 0xb4, 0x96, 0xdf, 0xbe, 0x38, 0x83, 0x7c, 0x3e,
  0x49, 0x69, 0x06, 0x3e, 0x50, 0x94, 0xf0, 0xbe, 0x41, 0x00, 0x98, 0x3d,
  0x22, 0x13, 0xfb, 0x3e, 0x05, 0x37, 0x25, 0x3d, 0x9f, 0xcf, 0x99, 0xbe,
  0xdc, 0x84, 0x4c, 0xbe, 0x10, 0x12, 0x23, 0xbf, 0x58, 0x33, 0x67, 0xbd,
  0xa4, 0x2a, 0x30, 0x3d, 0x15, 0xe2, 0xe1, 0xbe, 0xd9, 0xee, 0x8d, 0x3e,
  0xc6, 0xec, 0x01, 0x3f, 0xa8, 0x33, 0x3b, 0xbe, 0x29, 0x55, 0x93, 0xbe,
  0xee, 0x29, 0xab, 0xbd, 0x40, 0x9e, 0xa3, 0xbc, 0x8a, 0x49, 0x00, 0xbe,
  0xed, 0x53, 0x8f, 0xbe, 0x45, 0x33, 0x81, 0xbd, 0x62, 0xe2, 0xfa, 0xbd,
  0x08, 0x03, 0x6f, 0xbe, 0xe9, 0x82, 0x66, 0xbe, 0x64, 0x4b, 0x24, 0x3e,
  0xe3, 0xea, 0x19, 0xbe, 0xb8, 0x0e, 0x08, 0x3e, 0xd5, 0x61, 0xb2, 0xbd,
  0x0f, 0x8d, 0x4b, 0x3e, 0x42, 0x02, 0x7a, 0x3e, 0x57, 0x8e, 0x85, 0xbe,
  0x62, 0xa8, 0xbe, 0xbd, 0x04, 0xf9, 0x18, 0xbe, 0x51, 0x41, 0x72, 0xbd,
  0xf1, 0x61, 0x97, 0xbd, 0x58, 0x31, 0x64, 0xbc, 0xcd, 0xe0, 0x0b, 0x3e,
  0x35, 0x9f, 0xb6, 0xbd, 0x71, 0x63, 0x13, 0xbe, 0xd3, 0xce, 0xdd, 0xbd,
  0x44, 0x5a, 0x6a, 0xbe, 0xb0, 0xa8, 0xcb, 0xbd, 0x30, 0xa4, 0x57, 0xbe,
  0xf0, 0xa1, 0x86, 0xbc, 0xdc, 0xe5, 0xba, 0xbb, 0x3c, 0x68, 0x0d, 0x3e,
  0x42, 0xf4, 0xff, 0xff, 0x04, 0x00, 0x00, 0x00, 0x00, 0x08, 0x00, 0x00,
  0xbb, 0xc2, 0x39, 0x3e, 0xa0, 0xb1, 0x56, 0xbc, 0x33, 0x85, 0x45, 0x3f,
  0x90, 0x4f, 0xc8, 0xbc, 0x06, 0x56, 0x6d, 0x3e, 0x8b, 0x41, 0x36, 0x3d,
  0xf3, 0x73, 0x6c, 0xbf, 0x8b, 0x91, 0x82, 0xbc, 0x8a, 0x7a, 0x77, 0x3e,
  0x10, 0x71, 0xf2, 0x3c, 0x32, 0x63, 0x07, 0xbe, 0xbc, 0x65, 0x98, 0x3d,
  0x30, 0x77, 0xb3, 0x3c, 0x3c, 0x8c, 0xaf, 0xbe, 0x75, 0xd0, 0xa9, 0xbd,
  0xa3, 0xc9, 0x9c, 0x3e, 0xba, 0x7b, 0xbf, 0x3d, 0x91, 0x0f, 0x4c, 0xbe,
  0x48, 0xfc, 0x73, 0xbf, 0x16, 0xa8, 0x25, 0x3e, 0x9f, 0xe5, 0x80, 0x3e,
  0x35, 0xac, 0x66, 0xbf, 0xda, 0x98, 0x37, 0x3f, 0xa0, 0x0b, 0x03, 0xbe,
  0xc0, 0x06, 0x64, 0xbd, 0x88, 0x95, 0x82, 0xbd, 0xca, 0x68, 0x58, 0xbb,
  0x54, 0x52, 0xa5, 0xbe, 0xba, 0x25, 0x7c, 0x3e, 0xf0, 0xce, 0xd4, 0xbd,
  0x96, 0xaf, 0x1e, 0x3f, 0x50, 0xfc, 0x53, 0x3e, 0x2a, 0x2a, 0xc3, 0xbd,
  0x82, 0x5b, 0x6a, 0x3e, 0xbe, 0xab, 0x39, 0xbd, 0xc2, 0xe1, 0xfa, 0xbd,
  0xf0, 0xd2, 0xa0, 0xbc, 0x3d, 0xe8, 0x03, 0xbe, 0x1d, 0xe0, 0xb3, 0xbc,
  0x9e, 0xcb, 0x27, 0x3f, 0x12, 0x7e, 0x73, 0x3e, 0x00, 0x4c, 0x25, 0xbd,
  0xfd, 0xe1, 0xde, 0x3d, 0x92, 0xd9, 0x46, 0x3e, 0xe2, 0xad, 0x2b, 0x3e,
  0xee, 0xa9, 0xa5, 0x3c, 0x14, 0x84, 0xb7, 0xbe, 0xc0, 0x03, 0x52, 0x3f,
  0x1d, 0xa5, 0x25, 0xbe, 0xd6, 0x9a, 0x7d, 0x3e, 0xeb, 0xa7, 0x77, 0x3d,
  0xee, 0x01, 0x6e, 0xbe, 0x0a, 0x20, 0xa2, 0xbe, 0x6a, 0x9c, 0x85, 0xbe,
  0x85, 0x18, 0x93, 0xbe, 0x9c, 0x58, 0x4c, 0xbd, 0x00, 0xb6, 0xae, 0xba,
  0xd8, 0x82, 0x2e, 0x3d, 0x7f, 0x4e, 0x2d, 0x3b, 0xec, 0x97, 0xe3, 0x3d,
  0x35, 0xba, 0x98, 0x3e, 0xe0, 0x34, 0x70, 0x3e, 0x6a, 0x9e, 0x1b, 0xbc,
  0xce, 0xd9, 0x07, 0x3e, 0x48, 0x10, 0xba, 0x3e, 0x80, 0xaf, 0x96, 0xbb,
  0x6c, 0xa8, 0x96, 0x3f, 0x55, 0x85, 0x92, 0x3e, 0x48, 0xa6, 0x41, 0x3d,
  0x93, 0xd3, 0xfb, 0x3e, 0xb5, 0x59, 0x80, 0xbf, 0xbc, 0x28, 0x46, 0x3d,
  0xac, 0x15, 0x14, 0x3e, 0x6a, 0x0b, 0x0d, 0xbe, 0x30, 0x11, 0x8b, 0x3e,
  0xea, 0xc7, 0x28, 0x3e, 0xcb, 0x0d, 0x62, 0xbe, 0x56, 0x26, 0x53, 0xbf,
  0xd8, 0xb5, 0x58, 0x3d, 0x51, 0x53, 0x75, 0x3d, 0x27, 0xf6, 0x50, 0x3e,
  0xfe, 0x8c, 0x72, 0xbe, 0x38, 0xd5, 0xc3, 0x3e, 0xb2, 0x68, 0x18, 0x3e,
  0xc5, 0x44, 0x95, 0x3e, 0x49, 0x3b, 0xcb, 0xbd, 0xc7, 0x74, 0x60, 0x3d,
  0x0b, 0xf0, 0x2b, 0x3f, 0xb8, 0x54, 0xaf, 0xbe, 0xaf, 0x3c, 0xa1, 0x3e,
  0x12, 0x2b, 0x2b, 0xbe, 0x35, 0x89, 0xa5, 0x3e, 0x3e, 0xcb, 0x00, 0x3e,
  0xa1, 0x09, 0x0c, 0xbe, 0x03, 0xa4, 0xf1, 0x3d, 0xa7, 0x54, 0xf5, 0x3e,
  0xe2, 0x67, 0x78, 0xbc, 0x76, 0x80, 0x1a, 0xbe, 0x70, 0x99, 0x80, 0xbf,
  0x90, 0x80, 0x87, 0x3c, 0xeb, 0xe7, 0x9c, 0xbe, 0xd5, 0xad, 0x80, 0xbf,
  0x04, 0x2e, 0xdf, 0x3e, 0xaf, 0xe3, 0x44, 0x3e, 0xa5, 0xbd, 0x85, 0xbe,
  0x20, 0x02, 0x72, 0xbd, 0xdf, 0xa2, 0xa3, 0x3d, 0xc8, 0xfb, 0x23, 0x3d,
  0xab, 0x66, 0x9d, 0x3e, 0x06, 0xbb, 0x28, 0x3d, 0x1a, 0x64, 0xcc, 0x3e,
  0x29, 0x4e, 0xbd, 0x3d, 0xa9, 0x64, 0x1e, 0xbf, 0x7c, 0x03, 0x83, 0xbd,
  0x27, 0xb9, 0x14, 0x3e, 0xa0, 0xcf, 0xa8, 0xbe, 0x21, 0xe3, 0xab, 0x3e,
  0xa0, 0xbe, 0x96, 0x3e, 0x23, 0xbb, 0x78, 0x3e, 0xd6, 0xec, 0x42, 0xbf,
  0x3e, 0xb4, 0xa3, 0xbe, 0x95, 0x28, 0x8a, 0x3e, 0x0f, 0x83, 0x16, 0x3e,
  0x8c, 0xbc, 0x21, 0xbe, 0x74, 0xfb, 0x80, 0x3d, 0x14, 0xdb, 0xa3, 0x3e,
  0x98, 0x4f, 0x9f, 0xbf, 0x24, 0xc4, 0x38, 0xbf, 0xb4, 0xd0, 0xe9, 0x3c,
  0x40, 0xdd, 0x77, 0xbc, 0x67, 0x15, 0xad, 0xbf, 0x62, 0x11, 0xed, 0xbd,
  0xc8, 0xc8, 0xb8, 0x3d, 0xbb, 0xa8, 0x92, 0xbf, 0x36, 0x4c, 0x4f, 0x3e,
  0x0f, 0xf0, 0xb5, 0x3e, 0xc4, 0xbb, 0x0a, 0x3e, 0x1f, 0xe9, 0x98, 0xbe,
  0x78, 0x22, 0x87, 0x3e, 0x68, 0xcd, 0xad, 0x3d, 0xfe, 0xfb, 0xad, 0xbe,
  0xf6, 0x87, 0x0e, 0x3e, 0x64, 0xcf, 0x08, 0x3f, 0x22, 0xf7, 0x73, 0xbd,
  0x4a, 0x49, 0xc3, 0xbe, 0xb0, 0x5f, 0xb9, 0x3c, 0xf8, 0x0c, 0x78, 0xbe,
  0x98, 0x58, 0x5b, 0xbd, 0x80, 0x86, 0x52, 0xbb, 0xbc, 0x8b, 0xa4, 0xbe,
  0x9f, 0x99, 0x1c, 0x3e, 0xa4, 0x21, 0x98, 0xbe, 0x6b, 0x7a, 0x9a, 0x3e,
  0x08, 0x78, 0x8b, 0x3d, 0x70, 0x05, 0x44, 0xbd, 0x52, 0x2c, 0x63, 0x3e,
  0x90, 0x8b, 0x29, 0xbe, 0xa6, 0xcd, 0x84, 0x3e, 0xa6, 0xdf, 0x76, 0xbf,
  0x69, 0xf2, 0xfa, 0xbe, 0x7f, 0xaa, 0xd4, 0x3e, 0x60, 0x49, 0x9c, 0xbd,
  0x86, 0x63, 0x66, 0x3f, 0x50, 0x0b, 0xbc, 0x3c, 0x20, 0xe7, 0xd3, 0x3c,
  0x4d, 0x52, 0x09, 0x3d, 0x10, 0x18, 0x93, 0xbf, 0x9c, 0x39, 0x85, 0xbd,
  0xf0, 0x65, 0x56, 0xbe, 0xbb, 0xd1, 0x90, 0xbe, 0x60, 0xab, 0x63, 0x3d,
  0xde, 0x7a, 0x98, 0xbe, 0x7e, 0xea, 0xa9, 0xbe, 0x43, 0x4b, 0x42, 0xbf,
  0xc4, 0x0c, 0x83, 0xbe, 0xe0, 0x21, 0x64, 0x3c, 0x7e, 0x34, 0x40, 0xbf,
  0x49, 0xf6, 0xa4, 0x3e, 0x1b, 0xd0, 0xa2, 0xbd, 0x0f, 0x0e, 0xb0, 0x3e,
  0x51, 0x8c, 0x86, 0x3e, 0x76, 0x9a, 0xf6, 0xbd, 0xdc, 0xd2, 0x5c, 0x3e,
  0x79, 0xc5, 0x38, 0xbf, 0x2a, 0x42, 0x56, 0x3e, 0xc7, 0xb1, 0xab, 0xbe,
  0xb0, 0x96, 0x97, 0xbd, 0x40, 0x4a, 0xb8, 0xbd, 0x5c, 0xa7, 0x29, 0xbe,
  0xb1, 0xf5, 0x6d, 0xbe, 0xa4, 0x6c, 0x33, 0xbf, 0x2e, 0x72, 0x1b, 0xbf,
  0xac, 0x77, 0x37, 0x3f, 0x42, 0xc3, 0x3d, 0x3e, 0x15, 0x43, 0xee, 0x3c,
  0x40, 0xd4, 0x97, 0x3b, 0x90, 0xa6, 0xc2, 0x3d, 0x38, 0x69, 0xcb, 0x3e,
  0xff, 0x37, 0x30, 0xbf, 0xe2, 0xc2, 0x1a, 0xbe, 0x60, 0x43, 0xdb, 0xbc,
  0x88, 0x87, 0x44, 0xbe, 0x8e, 0xcc, 0x19, 0x3e, 0xcb, 0xe2, 0x95, 0x3e,
  0x58, 0xb0, 0xab, 0x3d, 0x38, 0x18, 0xbe, 0xbe, 0x7e, 0xba, 0x31, 0xbe,
  0xcb, 0xb5, 0xf9, 0x3b, 0xad, 0x63, 0xca, 0x3d, 0xaa, 0x08, 0x53, 0x3e,
  0xc3, 0xef, 0x4d, 0xbf, 0xfc, 0x39, 0xa4, 0xbe, 0x18, 0xb6, 0xfd, 0x3d,
  0xcf, 0x1d, 0x4a, 0xbe, 0x2b, 0x94, 0x3d, 0x3d, 0x41, 0x6a, 0x30, 0x3f,
  0x0c, 0x64, 0x90, 0x3d, 0x80, 0x23, 0xd1, 0x3c, 0xc1, 0xe6, 0x8c, 0x3d,
  0x84, 0x0c, 0x83, 0xbe, 0xdc, 0x09, 0x0a, 0x3e, 0xb7, 0xcc, 0x23, 0xbe,
  0xea, 0x8c, 0xd3, 0x3e, 0x3d, 0xdf, 0x13, 0x3f, 0xe7, 0x70, 0x29, 0xbf,
  0xab, 0x95, 0xb0, 0xbe, 0x01, 0x17, 0x9d, 0xbd, 0x28, 0x95, 0x4e, 0xbe,
  0xc7, 0x82, 0xa9, 0xbe, 0x3b, 0xcd, 0xf6, 0x3d, 0x63, 0xb0, 0xb4, 0x3d,
  0x40, 0x2f, 0x3d, 0xbf, 0x2c, 0xa7, 0xcc, 0x3d, 0x35, 0xfb, 0xa5, 0xbe,
  0xa5, 0x3b, 0x38, 0xbe, 0xae, 0xcb, 0x59, 0xbe, 0x40, 0xeb, 0xa3, 0x3d,
  0xcc, 0x2c, 0xbb, 0x3e, 0x45, 0xca, 0x90, 0xbf, 0x90, 0x3c, 0x27, 0xbf,
  0xb6, 0x4a, 0x9d, 0x3d, 0x50, 0xd9, 0x86, 0xbd, 0xa8, 0x97, 0xae, 0x3f,
  0x42, 0xa1, 0x7f, 0x3e, 0xc0, 0xc2, 0xab, 0xbe, 0xdd, 0xc8, 0x07, 0x3f,
  0xba, 0xb8, 0x60, 0xbf, 0xa2, 0x4b, 0xd2, 0xbd, 0x28, 0x26, 0x36, 0xbe,
  0x18, 0xc9, 0x2e, 0x3d, 0xe0, 0x22, 0x9f, 0xbe, 0xef, 0xdf, 0x67, 0xbe,
  0xbe, 0x9b, 0x62, 0x3e, 0x04, 0x8d, 0x8d, 0xbf, 0xac, 0xb8, 0x4e, 0xbe,
  0xb3, 0xf8, 0x24, 0xbd, 0xe9, 0xce, 0x7a, 0xbd, 0x56, 0x2b, 0x51, 0x3e,
  0x96, 0xdb, 0x30, 0x3f, 0xda, 0xd0, 0x51, 0x3e, 0xba, 0x4d, 0x2a, 0xbe,
  0x2b, 0x9a, 0x85, 0x3c, 0xdd, 0xaa, 0xe6, 0xbe, 0xbf, 0x7e, 0xc7, 0x3e,
  0xb9, 0xb4, 0x7a, 0xbe, 0x8c, 0x76, 0x8e, 0xbe, 0xd9, 0x58, 0x34, 0x3e,
  0xfc, 0xcd, 0x03, 0xbe, 0x79, 0xb6, 0x21, 0xbe, 0x74, 0x00, 0x44, 0xbf,
  0x11, 0x8b, 0xea, 0x3d, 0xff, 0xd1, 0xd8, 0xbd, 0xe2, 0x10, 0x22, 0x3f,
  0x77, 0x49, 0x2e, 0xbe, 0x1b, 0x57, 0xea, 0x3d, 0xab, 0x6c, 0x9f, 0xbe,
  0x00, 0x24, 0x87, 0xbd, 0x20, 0x79, 0x87, 0xbe, 0x71, 0x8b, 0xab, 0xbb,
  0x90, 0x2b, 0x8a, 0x3e, 0xb0, 0x7e, 0x4d, 0xbe, 0x96, 0x87, 0x7c, 0x3e,
  0x25, 0x86, 0x3b, 0x3e, 0xb2, 0xea, 0x5f, 0x3e, 0xa3, 0x94, 0xb1, 0x3e,
  0x11, 0xe5, 0x0e, 0xbe, 0x8d, 0x5d, 0x89, 0x3f, 0x25, 0x98, 0xe9, 0x3e,
  0x33, 0x90, 0x1f, 0xbf, 0x41, 0x1c, 0xac, 0x3e, 0xa2, 0x6f, 0x60, 0xbd,
  0x72, 0x35, 0x66, 0x3e, 0x2c, 0x42, 0xe0, 0xbd, 0x9e, 0x86, 0x3c, 0xbf,
  0x04, 0x39, 0xac, 0xbb, 0x21, 0x4b, 0x09, 0xbf, 0xe8, 0x13, 0x81, 0xbe,
  0x84, 0x58, 0xd2, 0xbd, 0x9c, 0x0a, 0x0f, 0x3e, 0x2f, 0x92, 0x3b, 0xbe,
  0xc8, 0x24, 0x01, 0x3d, 0xfb, 0xea, 0x36, 0xbd, 0xbc, 0x70, 0x34, 0xbf,
  0xf7, 0xd6, 0x1a, 0xbf, 0x09, 0x26, 0x83, 0x3d, 0x74, 0x57, 0x47, 0xbe,
  0xe5, 0x25, 0x00, 0xbf, 0xbe, 0x61, 0x41, 0x3e, 0x30, 0xa3, 0xf3, 0x3d,
  0x5b, 0x84, 0xa7, 0xbe, 0x78, 0xeb, 0x2b, 0x3f, 0xae, 0xb8, 0x8b, 0xbe,
  0x9f, 0x7d, 0xb1, 0xbe, 0x51, 0x8d, 0x1f, 0xbe, 0x16, 0x90, 0x79, 0x3e,
  0xcf, 0x2d, 0xa4, 0xbe, 0x19, 0x09, 0xa3, 0xbe, 0xe9, 0x4a, 0xc7, 0x3e,
  0xba, 0x27, 0xc0, 0xbe, 0xb1, 0x6c, 0x3a, 0xbe, 0x92, 0xdc, 0xfa, 0x3e,
  0x60, 0x73, 0x90, 0xbe, 0xaf, 0xbc, 0x18, 0xbf, 0xc1, 0xd8, 0xa2, 0x3e,
  0x8e, 0xb9, 0xe6, 0xbd, 0x9a, 0xee, 0xed, 0xbd, 0x96, 0xa6, 0x2f, 0xbd,
  0x8b, 0xd5, 0xa4, 0x3e, 0xf2, 0x01, 0x82, 0xbe, 0x80, 0x6d, 0xa6, 0xbc,
  0x07, 0xd9, 0x82, 0x3e, 0x60, 0x32, 0x79, 0xbd, 0xc3, 0x8c, 0xb0, 0x3e,
  0x24, 0xbf, 0x2e, 0xbe, 0xd3, 0x8d, 0x44, 0x3f, 0x1f, 0xce, 0xf5, 0x3e,
  0x50, 0x17, 0xce, 0xbd, 0xa0, 0xd7, 0x2b, 0x3c, 0xb4, 0x5b, 0x7e, 0xbe,
  0xef, 0x42, 0xa8, 0x3e, 0x6c, 0xcb, 0xcf, 0x3d, 0x2e, 0x8a, 0x4e, 0xbf,
  0x71, 0x33, 0x34, 0xbe, 0x21, 0x39, 0x5e, 0xbd, 0xf8, 0x0c, 0x20, 0xbe,
  0x37, 0x09, 0x91, 0xbe, 0xf9, 0xba, 0x8d, 0xbd, 0x38, 0xf0, 0x63, 0x3d,
  0x05, 0xe3, 0xa9, 0x3e, 0x9c, 0xda, 0x4b, 0x3f, 0x31, 0x24, 0x6c, 0xbf,
  0x3c, 0xb9, 0x90, 0x3e, 0xaa, 0x64, 0x43, 0xbf, 0x83, 0x1c, 0x9c, 0x3e,
  0xfe, 0xa6, 0x72, 0xbe, 0xa8, 0x75, 0xe5, 0xbd, 0x8e, 0x13, 0x30, 0x3e,
  0xc9, 0x9f, 0xd7, 0x3e, 0xf4, 0xa5, 0x98, 0x3e, 0x2c, 0x13, 0x34, 0xbf,
  0xdb, 0xb0, 0x8d, 0x3e, 0x38, 0x62, 0xa1, 0x3d, 0x32, 0x2d, 0x39, 0xbe,
  0x66, 0x6e, 0x5f, 0xbe, 0xe0, 0xab, 0x96, 0x3d, 0xad, 0xeb, 0xf2, 0x3e,
  0xea, 0xef, 0x82, 0xbf, 0x7e, 0xc3, 0x3e, 0xbf, 0xa7, 0x6a, 0x4d, 0x3e,
  0xd8, 0xf1, 0x3e, 0xbd, 0x82, 0xb6, 0x87, 0x3f, 0x5c, 0xa0, 0xc1, 0x3d,
  0xcc, 0x87, 0x22, 0xbe, 0x97, 0xe4, 0x6e, 0x3f, 0x41, 0xd6, 0x80, 0xbf,
  0x48, 0x4b, 0x83, 0xbd, 0xb8, 0x59, 0x14, 0x3d, 0x39, 0xec, 0x5e, 0xbe,
  0x9f, 0xa1, 0x75, 0x3d, 0x07, 0x82, 0xa9, 0x3e, 0x5e, 0x63, 0x71, 0x3e,
  0x95, 0xfd, 0x59, 0xbf, 0x93, 0x6c, 0xab, 0xbe, 0xd6, 0x16, 0x86, 0x3d,
  0xf4, 0x7d, 0x2c, 0x3f, 0x6d, 0x0a, 0xaf, 0xbe, 0x0a, 0x50, 0x3e, 0x3f,
  0x9c, 0x9b, 0xae, 0xbe, 0x08, 0x8c, 0xeb, 0xbd, 0x70, 0xf6, 0x13, 0x3e,
  0xb2, 0x2e, 0x7c, 0xbf, 0x27, 0x9e, 0x5d, 0xbd, 0x19, 0x25, 0x96, 0xbe,
  0xea, 0x58, 0x14, 0x3e, 0x3a, 0x14, 0x17, 0xbe, 0xc8, 0xbd, 0xb8, 0x3d,
  0x4f, 0xa1, 0xa9, 0x3e, 0x42, 0x78, 0xbe, 0xbe, 0xcb, 0x45, 0x1c, 0xbe,
  0x47, 0x6d, 0x19, 0xbe, 0x48, 0x45, 0xdd, 0x3d, 0xe7, 0xdd, 0x0a, 0xbe,
  0x27, 0x5a, 0x9f, 0xbe, 0x08, 0xb0, 0x06, 0x3e, 0x44, 0xf0, 0xc4, 0xbd,
  0x46, 0x8f, 0x4e, 0xbe, 0xe0, 0xe7, 0xee, 0x3d, 0xce, 0x42, 0xd1, 0x3e,
  0x90, 0xd8, 0x9b, 0xbd, 0xd0, 0x6b, 0xaf, 0xbc, 0xef, 0x51, 0x72, 0x3e,
  0xc5, 0x2a, 0x89, 0x3e, 0xc0, 0xda, 0xd9, 0xbc, 0x11, 0x4d, 0x07, 0xbe,
  0x5b, 0x32, 0x87, 0x3f, 0x4b, 0x4d, 0xb7, 0x3e, 0x68, 0x80, 0x4a, 0x3d,
  0x30, 0x35, 0xb6, 0xbc, 0x81, 0xb0, 0xdf, 0x3e, 0x87, 0xa1, 0x42, 0xbe,
  0x71, 0x2e, 0x86, 0x3e, 0xf8, 0x32, 0xea, 0xbd, 0x8b, 0xfb, 0x49, 0xbd,
  0x64, 0x69, 0x4f, 0x3f, 0xee, 0xf6, 0x17, 0x3e, 0x32, 0x78, 0x48, 0xbe,
  0xea, 0x77, 0x00, 0xbe, 0xab, 0xe7, 0x9b, 0x3e, 0x3a, 0x65, 0x8f, 0xbe,
  0xd1, 0x1a, 0x08, 0xbe, 0x80, 0x1f, 0x21, 0x3f, 0x14, 0x04, 0x13, 0x3f,
  0xbb, 0x26, 0x3b, 0x3e, 0xf0, 0x19, 0xc2, 0x3d, 0x50, 0x64, 0x91, 0xbe,
  0xae, 0xad, 0x2d, 0xbe, 0x30, 0x28, 0x8c, 0x3d, 0x1b, 0xcc, 0x7a, 0xbd,
  0x8b, 0xa8, 0xac, 0xbe, 0xf6, 0x4c, 0x8e, 0xbe, 0x08, 0xfa, 0x79, 0x3d,
  0xf8, 0x07, 0x51, 0x3d, 0xfa, 0x14, 0x28, 0x3e, 0x2c, 0x22, 0xe2, 0x3d,
  0x9e, 0x73, 0x51, 0xbe, 0x55, 0x16, 0x96, 0xbe, 0x21, 0x3e, 0xc1, 0xbd,
  0x45, 0x2d, 0xad, 0x3d, 0x4c, 0x29, 0x8a, 0x3b, 0x1b, 0x82, 0xab, 0xbe,
  0xd2, 0xbc, 0xbc, 0x3f, 0x93, 0xd3, 0xa1, 0xbe, 0x93, 0xa6, 0x38, 0xbe,
  0x25, 0x29, 0x97, 0x3f, 0x93, 0xea, 0xda, 0xbe, 0x97, 0x4e, 0xfa, 0xbd,
  0x46, 0xec, 0x2f, 0x3e, 0x1a, 0xc8, 0x26, 0x3e, 0xfb, 0x9a, 0xab, 0xbe,
  0x85, 0x74, 0x13, 0xbe, 0x1a, 0x3c, 0x6d, 0x3e, 0x96, 0x40, 0xbe, 0xbe,
  0xd4, 0x34, 0x76, 0xbe, 0x18, 0xaa, 0x9b, 0xba, 0x8e, 0x6c, 0xb4, 0xbd,
  0xf0, 0x69, 0x0d, 0xbd, 0x05, 0x55, 0x71, 0xbf, 0xb3, 0x16, 0x9a, 0x3e,
  0xf4, 0x19, 0xcd, 0x3d, 0xe5, 0xd3, 0x6a, 0xbf, 0xee, 0xc7, 0x48, 0x3e,
  0x12, 0xcc, 0xc8, 0x3e, 0xb0, 0x4e, 0xda, 0xbc, 0x80, 0x7d, 0xf0, 0x3c,
  0xdc, 0x7f, 0xc4, 0xbd, 0x65, 0xeb, 0xb0, 0x3e, 0x3c, 0xa4, 0x93, 0x3d,
  0xc4, 0x70, 0x6f, 0x3d, 0xaf, 0x71, 0x21, 0x3f, 0x6e, 0xa0, 0xe4, 0x3e,
  0x5b, 0x0d, 0x44, 0xbe, 0x44, 0x90, 0xc6, 0x3d, 0xcd, 0x8d, 0x94, 0x3f,
  0x71, 0x4a, 0xad, 0xbe, 0x2b, 0x26, 0xa5, 0xbe, 0xcf, 0x8f, 0x76, 0x3f,
  0xe5, 0x0c, 0xf4, 0xbd, 0x73, 0xae, 0x86, 0xbe, 0x58, 0x17, 0x11, 0x3d,
  0xa5, 0xbe, 0xb3, 0x3e, 0x61, 0xc0, 0x6a, 0x3e, 0xd0, 0x95, 0x92, 0xbe,
  0x77, 0x5a, 0x1c, 0xbe, 0x8d, 0xd8, 0x58, 0x3e, 0x56, 0x08, 0x30, 0xbf,
  0x76, 0xf2, 0x92, 0xbd, 0xd4, 0x34, 0xb7, 0xbe, 0x8b, 0xb8, 0x98, 0x3e,
  0x8d, 0x6e, 0x2f, 0xbe, 0x90, 0x54, 0x99, 0x3d, 0x52, 0xa8, 0x7b, 0x3e,
  0x3a, 0x10, 0xc5, 0x3d, 0xbb, 0x39, 0x06, 0xbe, 0x80, 0x5c, 0x84, 0xbf,
  0x03, 0x41, 0x4e, 0xbe, 0xfe, 0xe1, 0x5b, 0x3e, 0x20, 0x69, 0xaf, 0xbd,
  0x47, 0x97, 0x80, 0xbe, 0xb2, 0xb5, 0x9b, 0xbe, 0xf1, 0x2b, 0xe6, 0x3e,
  0xcd, 0x1a, 0x80, 0xbf, 0x78, 0x6f, 0x2b, 0xbf, 0x4e, 0xfc, 0xff, 0xff,
  0x04, 0x00, 0x00, 0x00, 0xc0, 0x00, 0x00, 0x00, 0xa5, 0xc9, 0xed, 0x3e,
  0xb4, 0xe3, 0xf6, 0xbe, 0x1e, 0x8c, 0xdc, 0xbe, 0x26, 0xbe, 0x1d, 0xbe,
  0x6e, 0x41, 0xde, 0xbe, 0x80, 0x47, 0x70, 0xbd, 0x6a, 0x01, 0xb9, 0x3e,
  0xe1, 0xae, 0xae, 0x3e, 0x3f, 0x6c, 0x76, 0xbf, 0x88, 0x47, 0x57, 0xbe,
  0x34, 0x69, 0x70, 0xbe, 0x14, 0x88, 0x09, 0xbf, 0x00, 0xa4, 0x6a, 0xbc,
  0x88, 0x6d, 0xc4, 0xbd, 0x80, 0x46, 0x18, 0xbe, 0x3e, 0xb0, 0x3f, 0x3e,
  0x45, 0xbd, 0x29, 0x3f, 0x57, 0x04, 0xe4, 0xbe, 0x44, 0x15, 0x80, 0xbe,
  0x0e, 0xd6, 0xbf, 0x3a, 0x6c, 0x96, 0x6f, 0x3f, 0x36, 0x1d, 0xbc, 0x3e,
  0x22, 0x38, 0xab, 0xbe, 0x8e, 0x5f, 0x09, 0x3f, 0x5a, 0xd9, 0xa6, 0xbe,
  0x70, 0xb3, 0x96, 0x3d, 0x70, 0xbd, 0xc3, 0x3d, 0x9a, 0xa7, 0xfe, 0xbe,
  0x88, 0xb4, 0x99, 0x3d, 0x70, 0xbe, 0x67, 0x3e, 0x9e, 0x17, 0xed, 0x3c,
  0x93, 0x77, 0xe1, 0xbe, 0x31, 0xf9, 0xaf, 0x3e, 0x1a, 0xfc, 0xc4, 0xbe,
  0x28, 0x49, 0x5a, 0xbe, 0x80, 0x6b, 0xcc, 0xbe, 0x8a, 0x28, 0x81, 0xbe,
  0x10, 0xf5, 0x60, 0x3d, 0x53, 0x0d, 0x02, 0xbf, 0xee, 0x24, 0x4c, 0xbe,
  0x21, 0x24, 0xce, 0x3e, 0xf2, 0xe0, 0x22, 0x3e, 0xe0, 0xbf, 0xd7, 0x3d,
  0x21, 0xa8, 0x05, 0xbf, 0x81, 0x05, 0x31, 0x3f, 0xc2, 0x1e, 0xf5, 0x3e,
  0x99, 0x3b, 0x06, 0xbf, 0xfe, 0x8d, 0xef, 0x3e, 0x1a, 0xfd, 0xff, 0xff,
  0x04, 0x00, 0x00, 0x00, 0x40, 0x00, 0x00, 0x00, 0x40, 0xfb, 0xa4, 0xbc,
  0x00, 0x00, 0x00, 0x00, 0x0d, 0x82, 0x05, 0xbe, 0x00, 0x00, 0x00, 0x00,
  0x00, 0x00, 0x00, 0x00, 0xe3, 0xae, 0x3d, 0xbe, 0xd6, 0x3f, 0x84, 0xba,
  0xfd, 0xa4, 0x2f, 0xbe, 0x00, 0x00, 0x00, 0x00, 0x00, 0x00, 0x00, 0x00,
  0x85, 0x92, 0x32, 0xbc, 0x00, 0x00, 0x00, 0x00, 0x00, 0x00, 0x00, 0x00,
  0x3c, 0x17, 0x08, 0xbd, 0x2a, 0xe0, 0xb6, 0xbc, 0x43, 0xe0, 0x09, 0xbe,
  0x66, 0xfd, 0xff, 0xff, 0x04, 0x00, 0x00, 0x00, 0x80, 0x00, 0x00, 0x00,
  0xfa, 0x3b, 0x36, 0xbc, 0x52, 0xab, 0xb2, 0xbc, 0xea, 0x3f, 0xed, 0x3b,
  0x9d, 0xbd, 0xcc, 0xbc, 0xb7, 0x59, 0xa0, 0xbc, 0xa5, 0x8b, 0x3e, 0x3b,
  0x94, 0x45, 0x9f, 0x3a, 0x63, 0x83, 0x89, 0x3b, 0x69, 0xc3, 0x6e, 0xbb,
  0xda, 0x6a, 0x85, 0x3c, 0xe9, 0x1d, 0xc8, 0xbc, 0x59, 0x8f, 0xda, 0x3c,
  0x0c, 0xdb, 0x24, 0xbd, 0x1f, 0x41, 0xcf, 0xbb, 0x05, 0x09, 0xb4, 0xbb,
  0xac, 0x23, 0xc0, 0x3c, 0xe6, 0x76, 0x40, 0xbc, 0xac, 0x52, 0xa0, 0x3c,
  0xb5, 0x9f, 0x03, 0x3d, 0xeb, 0xd1, 0x26, 0xbd, 0x8e, 0xb1, 0x94, 0x3c,
  0x25, 0xcf, 0x6c, 0xbc, 0xb2, 0xbd, 0x81, 0xbc, 0xbb, 0xeb, 0x3e, 0x3c,
  0x72, 0x56, 0xa1, 0xbc, 0x7f, 0x6b, 0x93, 0x3b, 0x26, 0x62, 0x8b, 0x3c,
  0xa7, 0x98, 0x9e, 0xbd, 0x06, 0x36, 0x94, 0x3c, 0x9e, 0x48, 0x26, 0xbc,
  0x36, 0x59, 0xa7, 0x3c, 0x8d, 0x4b, 0x0c, 0x3d, 0xf2, 0xfd, 0xff, 0xff,
  0x04, 0x00, 0x00, 0x00, 0xc0, 0x00, 0x00, 0x00, 0x3c, 0x93, 0xff, 0x3c,
  0x6a, 0x45, 0x9c, 0x3c, 0xc4, 0xa0, 0xce, 0x3c, 0x51, 0x5c, 0x29, 0x3d,
  0x22, 0x6c, 0xe5, 0xbc, 0x73, 0x1d, 0x94, 0x3c, 0x20, 0x87, 0xbf, 0xbd,
  0x4a, 0x06, 0x46, 0xbc, 0x60, 0x4e, 0xbf, 0x3d, 0xae, 0x32, 0x30, 0x3d,
  0xa4, 0x43, 0x3a, 0x3d, 0xe5, 0xfe, 0xa0, 0x3b, 0xeb, 0xa0, 0x1e, 0x3d,
  0xca, 0xfb, 0xf0, 0x3b, 0x3a, 0x34, 0x54, 0x3c, 0x5a, 0xec, 0xd9, 0xbc,
  0x2c, 0xd8, 0xce, 0x3c, 0xa8, 0x28, 0xac, 0xbd, 0x5d, 0x84, 0x22, 0x3d,
  0x82, 0x71, 0xac, 0xbb, 0xd0, 0x06, 0x35, 0x3d, 0x60, 0xd5, 0xf1, 0xbc,
  0xcc, 0xb7, 0x00, 0x3d, 0x2d, 0xdb, 0x28, 0x3b, 0xb6, 0x02, 0x66, 0x3c,
  0x0c, 0x37, 0x2e, 0xbd, 0x39, 0x07, 0x23, 0x3d, 0xc8, 0x64, 0x2a, 0x3c,
  0x93, 0x86, 0x8f, 0x3c, 0x24, 0x7a, 0xbd, 0x3c, 0x97, 0x9f, 0x2e, 0x3d,
  0x90, 0xe0, 0xf9, 0x3c, 0xee, 0x1f, 0xd6, 0x3c, 0x8f, 0x67, 0x64, 0x3d,
  0x24, 0x73, 0x1a, 0x3d, 0x42, 0x68, 0x39, 0x3c, 0xf9, 0xa9, 0xb1, 0x3c,
  0xc6, 0x86, 0x7e, 0xbc, 0xde, 0xb4, 0x1c, 0x3d, 0xc2, 0x12, 0x6a, 0x3d,
  0xe6, 0x03, 0x7c, 0x3c, 0x31, 0xdc, 0x71, 0xbb, 0x44, 0x24, 0x80, 0x3d,
  0x73, 0x4a, 0x5b, 0x3b, 0xfa, 0x9b, 0x0c, 0xbb, 0x90, 0x58, 0x4b, 0x3d,
  0x7a, 0x1f, 0x24, 0x3d, 0x52, 0x6d, 0x3c, 0xbd, 0xbe, 0xfe, 0xff, 0xff,
  0x04, 0x00, 0x00, 0x00, 0x80, 0x00, 0x00, 0x00, 0x54, 0x8e, 0x67, 0x3d,
  0xda, 0xca, 0xf1, 0x3d, 0xad, 0xcc, 0xe6, 0x3d, 0xc0, 0x89, 0xc7, 0x3d,
  0xcb, 0x19, 0xe7, 0xbd, 0x68, 0x3e, 0xa7, 0xbb, 0xc6, 0xba, 0xc0, 0x3d,
  0x55, 0xf4, 0xf3, 0xbd, 0x74, 0x23, 0xf5, 0x3d, 0x4c, 0xa8, 0xac, 0x3d,
  0xf8, 0xab, 0x84, 0x3d, 0x01, 0xb2, 0x1c, 0x3e, 0xe5, 0x51, 0x8c, 0x3d,
  0x8d, 0x92, 0x85, 0x3d, 0x16, 0x36, 0x75, 0x3d, 0x32, 0xc8, 0xb3, 0x3d,
  0x4e, 0x98, 0xc0, 0x3d, 0x27, 0x25, 0xcf, 0x3d, 0x34, 0xa0, 0xd8, 0xbc,
  0xfb, 0xb0, 0xd6, 0x3d, 0x94, 0x21, 0x88, 0x3d, 0x25, 0xff, 0x96, 0x3c,
  0xce, 0xa8, 0x32, 0x3d, 0xc5, 0x16, 0x7e, 0x3d, 0x64, 0x72, 0x06, 0x3e,
  0xa7, 0xcc, 0xe3, 0x3d, 0x48, 0xff, 0xb7, 0x3d, 0x1d, 0xbf, 0xa5, 0x3d,
  0xed, 0x86, 0xfc, 0x3d, 0x77, 0x7e, 0x08, 0x3e, 0xd0, 0x95, 0xb2, 0x3d,
  0xe1, 0x55, 0x89, 0x3b, 0x4a, 0xff, 0xff, 0xff, 0x04, 0x00, 0x00, 0x00,
  0x0c, 0x00, 0x00, 0x00, 0x2a, 0x68, 0x8a, 0xbd, 0xe0, 0x0b, 0x9a, 0xbb,
  0x35, 0x8e, 0x1f, 0x3d, 0x28, 0xf7, 0xff, 0xff, 0x2c, 0xf7, 0xff, 0xff,
  0x0f, 0x00, 0x00, 0x00, 0x4d, 0x4c, 0x49, 0x52, 0x20, 0x43, 0x6f, 0x6e,
  0x76, 0x65, 0x72, 0x74, 0x65, 0x64, 0x2e, 0x00, 0x01, 0x00, 0x00, 0x00,
  0x14, 0x00, 0x00, 0x00, 0x00, 0x00, 0x0e, 0x00, 0x18, 0x00, 0x14, 0x00,
  0x10, 0x00, 0x0c, 0x00, 0x08, 0x00, 0x04, 0x00, 0x0e, 0x00, 0x00, 0x00,
  0x14, 0x00, 0x00, 0x00, 0x1c, 0x00, 0x00, 0x00, 0x94, 0x01, 0x00, 0x00,
  0x98, 0x01, 0x00, 0x00, 0x9c, 0x01, 0x00, 0x00, 0x04, 0x00, 0x00, 0x00,
  0x6d, 0x61, 0x69, 0x6e, 0x00, 0x00, 0x00, 0x00, 0x06, 0x00, 0x00, 0x00,
  0x3c, 0x01, 0x00, 0x00, 0xf4, 0x00, 0x00, 0x00, 0xbc, 0x00, 0x00, 0x00,
  0x84, 0x00, 0x00, 0x00, 0x50, 0x00, 0x00, 0x00, 0x14, 0x00, 0x00, 0x00,
  0x00, 0x00, 0x0e, 0x00, 0x1a, 0x00, 0x14, 0x00, 0x10, 0x00, 0x0c, 0x00,
  0x0b, 0x00, 0x04, 0x00, 0x0e, 0x00, 0x00, 0x00, 0x1c, 0x00, 0x00, 0x00,
