const unsigned char model[] = {
  0x1c, 0x00, 0x00, 0x00, 0x54, 0x46, 0x4c, 0x33, 0x14, 0x00, 0x20, 0x00,
  0x1c, 0x00, 0x18, 0x00, 0x14, 0x00, 0x10, 0x00, 0x0c, 0x00, 0x00, 0x00,
  0x08, 0x00, 0x04, 0x00, 0x14, 0x00, 0x00, 0x00, 0x1c, 0x00, 0x00, 0x00,
  0x90, 0x00, 0x00, 0x00, 0xe8, 0x00, 0x00, 0x00, 0x08, 0x0d, 0x00, 0x00,
  0x18, 0x0d, 0x00, 0x00, 0x0c, 0x13, 0x00, 0x00, 0x03, 0x00, 0x00, 0x00,
  0x01, 0x00, 0x00, 0x00, 0x10, 0x00, 0x00, 0x00, 0x00, 0x00, 0x0a, 0x00,
  0x10, 0x00, 0x0c, 0x00, 0x08, 0x00, 0x04, 0x00, 0x0a, 0x00, 0x00, 0x00,
  0x0c, 0x00, 0x00, 0x00, 0x1c, 0x00, 0x00, 0x00, 0x3c, 0x00, 0x00, 0x00,
  0x0f, 0x00, 0x00, 0x00, 0x73, 0x65, 0x72, 0x76, 0x69, 0x6e, 0x67, 0x5f,
  0x64, 0x65, 0x66, 0x61, 0x75, 0x6c, 0x74, 0x00, 0x01, 0x00, 0x00, 0x00,
  0x04, 0x00, 0x00, 0x00, 0x98, 0xff, 0xff, 0xff, 0x0a, 0x00, 0x00, 0x00,
  0x04, 0x00, 0x00, 0x00, 0x08, 0x00, 0x00, 0x00, 0x64, 0x65, 0x6e, 0x73,
  0x65, 0x5f, 0x32, 0x34, 0x00, 0x00, 0x00, 0x00, 0x01, 0x00, 0x00, 0x00,
  0x04, 0x00, 0x00, 0x00, 0xde, 0xf2, 0xff, 0xff, 0x04, 0x00, 0x00, 0x00,
  0x07, 0x00, 0x00, 0x00, 0x69, 0x6e, 0x70, 0x75, 0x74, 0x5f, 0x35, 0x00,
  0x02, 0x00, 0x00, 0x00, 0x34, 0x00, 0x00, 0x00, 0x04, 0x00, 0x00, 0x00,
  0xdc, 0xff, 0xff, 0xff, 0x0d, 0x00, 0x00, 0x00, 0x04, 0x00, 0x00, 0x00,
  0x13, 0x00, 0x00, 0x00, 0x43, 0x4f, 0x4e, 0x56, 0x45, 0x52, 0x53, 0x49,
  0x4f, 0x4e, 0x5f, 0x4d, 0x45, 0x54, 0x41, 0x44, 0x41, 0x54, 0x41, 0x00,
  0x08, 0x00, 0x0c, 0x00, 0x08, 0x00, 0x04, 0x00, 0x08, 0x00, 0x00, 0x00,
  0x0c, 0x00, 0x00, 0x00, 0x04, 0x00, 0x00, 0x00, 0x13, 0x00, 0x00, 0x00,
  0x6d, 0x69, 0x6e, 0x5f, 0x72, 0x75, 0x6e, 0x74, 0x69, 0x6d, 0x65, 0x5f,
  0x76, 0x65, 0x72, 0x73, 0x69, 0x6f, 0x6e, 0x00, 0x0e, 0x00, 0x00, 0x00,
  0x1c, 0x0c, 0x00, 0x00, 0x14, 0x0c, 0x00, 0x00, 0xf8, 0x0b, 0x00, 0x00,
  0x68, 0x0b, 0x00, 0x00, 0x18, 0x0b, 0x00, 0x00, 0x48, 0x0a, 0x00, 0x00,
  0x38, 0x02, 0x00, 0x00, 0xa8, 0x00, 0x00, 0x00, 0xa0, 0x00, 0x00, 0x00,
  0x98, 0x00, 0x00, 0x00, 0x90, 0x00, 0x00, 0x00, 0x88, 0x00, 0x00, 0x00,
  0x68, 0x00, 0x00, 0x00, 0x04, 0x00, 0x00, 0x00, 0x8a, 0xf3, 0xff, 0xff,
  0x04, 0x00, 0x00, 0x00, 0x54, 0x00, 0x00, 0x00, 0x0c, 0x00, 0x00, 0x00,
  0x08, 0x00, 0x0e, 0x00, 0x08, 0x00, 0x04, 0x00, 0x08, 0x00, 0x00, 0x00,
  0x10, 0x00, 0x00, 0x00, 0x24, 0x00, 0x00, 0x00, 0x00, 0x00, 0x06, 0x00,
  0x08, 0x00, 0x04, 0x00, 0x06, 0x00, 0x00, 0x00, 0x04, 0x00, 0x00, 0x00,
  0x00, 0x00, 0x00, 0x00, 0x00, 0x00, 0x0a, 0x00, 0x10, 0x00, 0x0c, 0x00,
  0x08, 0x00, 0x04, 0x00, 0x0a, 0x00, 0x00, 0x00, 0x02, 0x00, 0x00, 0x00,
  0x02, 0x00, 0x00, 0x00, 0x04, 0x00, 0x00, 0x00, 0x06, 0x00, 0x00, 0x00,
  0x32, 0x2e, 0x31, 0x35, 0x2e, 0x30, 0x00, 0x00, 0xea, 0xf3, 0xff, 0xff,
  0x04, 0x00, 0x00, 0x00, 0x10, 0x00, 0x00, 0x00, 0x31, 0x2e, 0x35, 0x2e,
  0x30, 0x00, 0x00, 0x00, 0x00, 0x00, 0x00, 0x00, 0x00, 0x00, 0x00, 0x00,
  0xbc, 0xee, 0xff, 0xff, 0xc0, 0xee, 0xff, 0xff, 0xc4, 0xee, 0xff, 0xff,
  0xc8, 0xee, 0xff, 0xff, 0x16, 0xf4, 0xff, 0xff, 0x04, 0x00, 0x00, 0x00,
  0x80, 0x01, 0x00, 0x00, 0x70, 0x0f, 0x1b, 0x3f, 0xf0, 0xe4, 0xcc, 0xbf,
  0x6e, 0xe5, 0xd4, 0xbf, 0x48, 0x19, 0x62, 0x3e, 0xc3, 0x34, 0x08, 0xc0,
  0xef, 0xde, 0x3c, 0xbf, 0x9a, 0x99, 0xfa, 0x3e, 0xa7, 0xa7, 0x8c, 0xbf,
  0xdb, 0xbb, 0x92, 0x3f, 0xc8, 0x25, 0x42, 0xbd, 0x0a, 0x5e, 0xef, 0xbe,
  0xa1, 0x3d, 0xc4, 0x3f, 0x8c, 0x7c, 0x91, 0xbe, 0xcb, 0x7a, 0x72, 0xbe,
  0x22, 0x83, 0x56, 0x3f, 0x23, 0x77, 0x5f, 0xbf, 0x10, 0x8b, 0x43, 0x3e,
  0x4a, 0xd3, 0xbd, 0x3f, 0x29, 0x92, 0xe5, 0xbe, 0x4b, 0x6b, 0x37, 0x3f,
  0x7c, 0x51, 0x59, 0xbf, 0x85, 0x32, 0x99, 0xbf, 0xe4, 0x2d, 0x76, 0x3f,
  0x89, 0x25, 0xa9, 0x3e, 0x79, 0x6f, 0x88, 0xbf, 0x2a, 0xbe, 0x0e, 0xc0,
  0xd8, 0xad, 0xe4, 0xbe, 0xf9, 0x7e, 0x9e, 0xbf, 0xab, 0xba, 0xce, 0x3f,
  0x18, 0x9e, 0x0c, 0xc0, 0x5a, 0x8d, 0xa2, 0x3f, 0x30, 0x53, 0x83, 0xbf,
  0x1b, 0x82, 0xa7, 0xbf, 0xb2, 0xd2, 0x8b, 0x3f, 0x6e, 0xc0, 0x05, 0x3f,
  0xf2, 0x61, 0xed, 0xbf, 0xec, 0x74, 0x35, 0x3f, 0x4b, 0xbf, 0xaa, 0x3f,
  0x2b, 0xe5, 0xc3, 0xbf, 0x93, 0xfe, 0xd6, 0x3f, 0xd6, 0x86, 0xe9, 0x3c,
  0xc1, 0x3b, 0x84, 0xbf, 0xaa, 0x71, 0x47, 0xbf, 0xc4, 0x33, 0x08, 0x3e,
  0xf8, 0x4f, 0x7b, 0x3e, 0x46, 0x8c, 0x68, 0xbe, 0x9b, 0xee, 0x8f, 0xbe,
  0x58, 0xe7, 0xa6, 0x3f, 0x69, 0x42, 0x8c, 0xbe, 0xde, 0xb5, 0xc0, 0xbe,
  0xa2, 0xff, 0xcc, 0x3f, 0xc9, 0x99, 0xbc, 0xbf, 0xea, 0xc8, 0xba, 0x3f,
  0xd3, 0x25, 0xe7, 0x3f, 0x55, 0xda, 0xe6, 0xbf, 0x2b, 0x42, 0x92, 0xbe,
  0xd5, 0x1c, 0xd5, 0x3f, 0x15, 0x3b, 0xca, 0x3e, 0x3e, 0x58, 0x29, 0xbf,
  0x6c, 0x54, 0x03, 0x3f, 0xd5, 0x9e, 0xb4, 0xbe, 0xe5, 0x34, 0xda, 0x3e,
  0x8f, 0x9a, 0x86, 0x3e, 0xb7, 0x0e, 0xd2, 0x3f, 0xf9, 0x50, 0x00, 0x3f,
  0x04, 0x67, 0x1e, 0xbf, 0x88, 0xd7, 0x43, 0x3f, 0x55, 0x45, 0xbe, 0x3e,
  0xc1, 0x32, 0xb3, 0x3f, 0x5a, 0x9c, 0xa2, 0xbf, 0x85, 0x83, 0x42, 0x3e,
  0xcc, 0x21, 0x4c, 0xbf, 0x83, 0x82, 0xdd, 0xbf, 0x25, 0xac, 0x68, 0x3f,
  0x22, 0xcc, 0x91, 0x3f, 0x7a, 0x6a, 0xb2, 0xbf, 0x6d, 0x23, 0x83, 0x3e,
  0x34, 0xf6, 0xa8, 0xbd, 0xf8, 0x27, 0x4e, 0xbf, 0xe9, 0xd4, 0xb0, 0xbf,
  0x1b, 0xcc, 0x9d, 0x3e, 0xb3, 0x22, 0x9a, 0xbf, 0x53, 0xd7, 0xa8, 0xbf,
  0xa9, 0x93, 0x20, 0x3e, 0x36, 0x0b, 0x62, 0xbf, 0x84, 0x65, 0x68, 0xbf,
  0x06, 0x7c, 0xdc, 0xbd, 0xd0, 0xe7, 0xb0, 0xbd, 0xd9, 0x19, 0xb9, 0xbf,
  0xf3, 0xc8, 0xb3, 0x3f, 0x71, 0xeb, 0xa4, 0x3f, 0x2f, 0x2b, 0xbb, 0x3e,
  0x5b, 0x4e, 0xaa, 0xbf, 0x4d, 0x91, 0x84, 0x3f, 0x24, 0x05, 0xa6, 0xbf,
  0x4b, 0x7a, 0xa4, 0xbf, 0xa2, 0xf5, 0xff, 0xff, 0x04, 0x00, 0x00, 0x00,
  0x00, 0x08, 0x00, 0x00, 0x09, 0xa6, 0xba, 0x3e, 0xa6, 0xcb, 0xa8, 0xbe,
  0x6e, 0xf8, 0x06, 0x40, 0x20, 0x4a, 0x23, 0x3d, 0xb8, 0xc4, 0x53, 0xbd,
  0x2f, 0xd4, 0x84, 0x3f, 0x5c, 0xae, 0xdd, 0x3d, 0xa1, 0x14, 0xaf, 0x3e,
  0x3f, 0xb1, 0xc1, 0x3f, 0x0e, 0x3e, 0x0a, 0x3e, 0x03, 0xa1, 0xe0, 0xbe,
  0x74, 0x29, 0xd4, 0x3f, 0x7f, 0xef, 0x47, 0xbf, 0x40, 0x45, 0xb5, 0x3b,
  0x5c, 0x09, 0xe7, 0xbe, 0xf2, 0x0f, 0x6e, 0x3e, 0x49, 0xd9, 0xaf, 0xbe,
  0x27, 0x67, 0xa2, 0x3e, 0x50, 0xc3, 0xbe, 0xbf, 0xa0, 0xcd, 0x20, 0xbc,
  0x5f, 0x80, 0x1a, 0xbe, 0xe5, 0x9f, 0x85, 0xbf, 0x00, 0x70, 0x1e, 0xbc,
  0x1e, 0x11, 0x9f, 0x3d, 0x40, 0xca, 0xa9, 0xbf, 0xe8, 0x45, 0x80, 0xbe,
  0x5e, 0xd9, 0x2b, 0x3f, 0x7d, 0x9f, 0xaf, 0xbf, 0x98, 0x33, 0x56, 0x3f,
  0x52, 0x92, 0xdc, 0xbd, 0x73, 0xe9, 0x93, 0x3f, 0x42, 0x7a, 0xdc, 0xbd,
  0x08, 0x3c, 0xc0, 0xbf, 0x97, 0x11, 0x83, 0x3e, 0xfd, 0x36, 0xe5, 0xbc,
  0x18, 0x32, 0x6a, 0x3d, 0x00, 0x7e, 0x8a, 0xba, 0x71, 0x05, 0x82, 0x3e,
  0x89, 0x8b, 0x86, 0xbe, 0x7a, 0x15, 0x25, 0x3f, 0x12, 0x0f, 0x67, 0xbe,
  0xd0, 0x0a, 0xce, 0x3d, 0xa6, 0xb3, 0x87, 0x3e, 0xc8, 0xa7, 0xe1, 0xbe,
  0xeb, 0x12, 0x10, 0x40, 0x89, 0xe3, 0xa2, 0xbe, 0xba, 0x2a, 0x1c, 0x40,
  0x73, 0x77, 0xf4, 0x3f, 0xbf, 0x3d, 0xa4, 0x3e, 0xfd, 0x8e, 0xa4, 0x3e,
  0x27, 0xa3, 0xe6, 0x3f, 0x40, 0x2c, 0x5a, 0x3d, 0x58, 0xde, 0x13, 0xbd,
  0x95, 0x8f, 0x92, 0x3f, 0x46, 0x27, 0x40, 0x3e, 0x96, 0xa5, 0x5a, 0x3e,
  0x1b, 0x09, 0xcf, 0x3f, 0x48, 0x8d, 0x23, 0xbd, 0x8c, 0x98, 0x00, 0xbf,
  0x05, 0x0c, 0xed, 0x3f, 0x38, 0x20, 0xd1, 0xbe, 0x9f, 0xde, 0x88, 0x3e,
  0xb1, 0xe7, 0xbd, 0xbe, 0x51, 0xa3, 0x0f, 0x3f, 0x1c, 0x21, 0xbe, 0xbf,
  0x06, 0x89, 0x5e, 0x3e, 0xa0, 0xb6, 0xf9, 0xbd, 0x39, 0x34, 0x3c, 0xbe,
  0x00, 0x0c, 0x02, 0xbc, 0x60, 0x38, 0x97, 0x3e, 0xde, 0x6f, 0x89, 0xbe,
  0x3b, 0x2d, 0xb0, 0x3e, 0x77, 0x44, 0x32, 0xbd, 0xc4, 0xdd, 0x8b, 0xbd,
  0x3d, 0x62, 0x6f, 0xbf, 0x99, 0xe9, 0x0e, 0xbe, 0x6b, 0xe3, 0x15, 0x40,
  0x72, 0x59, 0x9c, 0xbe, 0x7d, 0x90, 0x1f, 0x40, 0xab, 0xbc, 0x19, 0x40,
  0xce, 0x8c, 0xb0, 0x3e, 0x0c, 0x3d, 0x14, 0x3e, 0xe0, 0x5b, 0x12, 0xc0,
  0x60, 0xaf, 0x7f, 0xbd, 0xa2, 0xd1, 0xfd, 0xbd, 0x42, 0xdb, 0xd9, 0xbe,
  0xec, 0xec, 0x81, 0xbe, 0x01, 0xf7, 0xfc, 0xbd, 0x2a, 0x9c, 0x5a, 0xbf,
  0x60, 0x27, 0x6f, 0xbc, 0x79, 0x00, 0xdb, 0x3e, 0xb6, 0x36, 0xd6, 0xbf,
  0x53, 0xaa, 0xed, 0x3e, 0xa8, 0x91, 0xa7, 0x3d, 0x5a, 0x6e, 0x9d, 0x3e,
  0x66, 0x6c, 0xf1, 0xbe, 0x47, 0xa0, 0x49, 0x3f, 0x8e, 0x7c, 0x5c, 0xbe,
  0x5d, 0x4a, 0x04, 0x40, 0xce, 0xba, 0x6b, 0x3e, 0x92, 0x33, 0xdc, 0xbd,
  0x3b, 0xfd, 0x81, 0x3f, 0xdf, 0xe8, 0x80, 0x3e, 0xd5, 0x0f, 0x92, 0x3e,
  0x32, 0xda, 0x88, 0x3f, 0xeb, 0x06, 0x89, 0x3e, 0x21, 0xaf, 0x9c, 0xbe,
  0xe1, 0x8b, 0xec, 0x3f, 0x9a, 0x9f, 0x54, 0xbf, 0xf3, 0x7c, 0x61, 0xbe,
  0x42, 0x64, 0x75, 0xbf, 0x78, 0xe9, 0xa6, 0xbd, 0xa3, 0xc9, 0x0b, 0xbe,
  0xe9, 0x41, 0xa7, 0x3e, 0xdd, 0xc1, 0x0c, 0xc0, 0xd8, 0xce, 0x48, 0x3d,
  0x03, 0x5b, 0x80, 0x3e, 0x33, 0xa3, 0x51, 0xbf, 0x33, 0x91, 0x0b, 0xbe,
  0xd0, 0xb1, 0x87, 0x3e, 0x4e, 0xbe, 0xc0, 0xbf, 0x34, 0xad, 0xff, 0xbd,
  0xe0, 0x24, 0xdb, 0x3e, 0xb3, 0xe7, 0xf7, 0xbf, 0xf6, 0x50, 0x74, 0x3f,
  0x5d, 0x8b, 0x94, 0xbe, 0x2d, 0x8a, 0xa1, 0x3e, 0x5a, 0xd5, 0xbd, 0xbe,
  0x6f, 0x8c, 0xc7, 0x3f, 0xa8, 0xa0, 0x09, 0x3e, 0x3f, 0xc3, 0x6d, 0x3d,
  0x20, 0x28, 0xa1, 0x3c, 0x16, 0xd4, 0x7d, 0x3e, 0x30, 0x23, 0x52, 0xbe,
  0xd8, 0x59, 0xe4, 0xbd, 0x0d, 0x47, 0xb0, 0xbe, 0x84, 0x51, 0xaa, 0xbe,
  0x17, 0xa5, 0x28, 0xbe, 0x58, 0xbe, 0x8c, 0x3f, 0x35, 0x9b, 0xb3, 0x3d,
  0xc7, 0x57, 0x70, 0xbf, 0x98, 0xa7, 0x35, 0x3d, 0xde, 0xb6, 0xa4, 0xbf,
  0x47, 0x31, 0xfc, 0xbf, 0x37, 0x64, 0x12, 0xbf, 0xed, 0x6c, 0x90, 0x3e,
  0x03, 0xa6, 0x0c, 0x3f, 0xb0, 0xc3, 0xb5, 0xbc, 0x72, 0x58, 0x6c, 0x3e,
  0x54, 0x13, 0x65, 0x3f, 0x0f, 0x34, 0xa0, 0x3e, 0x5a, 0xd7, 0x8a, 0x3e,
  0x03, 0x33, 0x1e, 0x3f, 0xe8, 0x9e, 0x73, 0xbd, 0x08, 0x93, 0xdf, 0x3c,
  0xab, 0x13, 0xad, 0x3e, 0x7c, 0x3c, 0x09, 0x3e, 0xa0, 0x26, 0x64, 0xbc,
  0xb3, 0xdb, 0xb0, 0x3e, 0xe4, 0xb6, 0x97, 0x3f, 0x3d, 0x94, 0xb8, 0xbf,
  0xeb, 0xa6, 0x07, 0xbe, 0xb7, 0x6e, 0x06, 0x3f, 0x67, 0xd2, 0xad, 0x3e,
  0xc0, 0x02, 0xa5, 0x3c, 0x5a, 0xa9, 0x30, 0x3f, 0x9a, 0x8b, 0x4b, 0x3e,
  0x13, 0x0c, 0x06, 0x3f, 0x6a, 0xbc, 0xdb, 0x3e, 0xb4, 0x3e, 0x11, 0x3e,
  0x4a, 0xa3, 0xda, 0xbe, 0x64, 0xe7, 0x88, 0x3e, 0x18, 0x5d, 0xaf, 0x3e,
  0x42, 0x37, 0x5c, 0xbe, 0x2f, 0xff, 0xb8, 0x3e, 0x59, 0x09, 0xe4, 0x3f,
  0xe5, 0x94, 0xe6, 0x3f, 0x16, 0x0b, 0x61, 0x3e, 0x85, 0x64, 0x61, 0x3e,
  0xe1, 0x07, 0xa8, 0x3e, 0x49, 0x0f, 0xb2, 0x3e, 0xfa, 0x38, 0xe6, 0xbd,
  0xfc, 0x3e, 0x86, 0xbd, 0x6e, 0x89, 0x81, 0xbe, 0x34, 0x1f, 0xad, 0xbe,
  0xa4, 0xc1, 0xf8, 0x3d, 0x28, 0x0a, 0x83, 0x3f, 0x56, 0x58, 0x71, 0x3e,
  0x01, 0x86, 0xff, 0xbf, 0x70, 0x37, 0x44, 0x3d, 0xa4, 0x1a, 0x09, 0xc0,
  0x7a, 0x5d, 0x11, 0xc0, 0x27, 0x18, 0x8c, 0xbb, 0xfd, 0x9b, 0x45, 0xbe,
  0xd5, 0xd8, 0x8c, 0xbe, 0xb1, 0x6b, 0x91, 0xbe, 0xa8, 0xe3, 0x43, 0x3d,
  0x7e, 0x78, 0x24, 0xbe, 0x68, 0x9b, 0x8a, 0x3d, 0xa9, 0x6f, 0x1f, 0xbe,
  0x96, 0xb6, 0x65, 0x3d, 0x98, 0x42, 0xf6, 0xbd, 0xd3, 0x88, 0x9c, 0xbd,
  0xa8, 0x48, 0x0b, 0xbe, 0x00, 0x55, 0xa9, 0xbc, 0x8d, 0xfc, 0x95, 0x3e,
  0xa8, 0xad, 0x3e, 0xbe, 0x77, 0x20, 0xa1, 0xbe, 0xc9, 0xba, 0xa4, 0xbe,
  0x74, 0x83, 0x03, 0xbe, 0x27, 0xa5, 0xf4, 0x3c, 0xce, 0x3b, 0x1d, 0x3e,
  0xbf, 0x85, 0x00, 0xbe, 0x88, 0xfe, 0x17, 0xbc, 0x63, 0xe8, 0x99, 0xbe,
  0xbb, 0xdd, 0xec, 0x3c, 0x15, 0x71, 0xac, 0xbd, 0x13, 0x1b, 0x9f, 0x3e,
  0xaa, 0x6f, 0xec, 0x3d, 0xa1, 0x44, 0x42, 0xbe, 0x1f, 0xaa, 0x2e, 0xbe,
  0x1c, 0xa0, 0x9f, 0xbe, 0x37, 0xee, 0xba, 0x3d, 0x75, 0x26, 0x7d, 0x3d,
  0xd7, 0xc0, 0xdf, 0x3e, 0xa8, 0x01, 0x0f, 0x3e, 0x09, 0xab, 0xfc, 0xbe,
  0x8e, 0xfe, 0x68, 0x3e, 0xfa, 0xee, 0x17, 0x3e, 0x77, 0xd6, 0x2f, 0x3c,
  0xc0, 0xe1, 0x6f, 0xbc, 0xe3, 0xb3, 0x13, 0xbf, 0x63, 0x1f, 0xcb, 0xbb,
  0x64, 0x32, 0x48, 0xbe, 0x06, 0x5f, 0x24, 0xbd, 0x72, 0xe9, 0x08, 0x3f,
  0x95, 0xa9, 0xd5, 0xbe, 0x6c, 0x59, 0xab, 0xbe, 0xf2, 0xfd, 0xae, 0xbe,
  0x08, 0x3a, 0x37, 0xbf, 0xb9, 0x54, 0xae, 0xbd, 0x39, 0x5a, 0x85, 0x3e,
  0xe8, 0x3b, 0xd4, 0xbf, 0x2d, 0x16, 0xb4, 0x3e, 0x22, 0x86, 0x1b, 0xbe,
  0xce, 0xcd, 0x77, 0xbf, 0x9e, 0x79, 0x74, 0x3e, 0xe4, 0xca, 0x57, 0x3e,
  0x83, 0xb9, 0x6c, 0xbf, 0xe1, 0x73, 0x87, 0x3e, 0x04, 0xb2, 0x6e, 0xbe,
  0xbd, 0xc1, 0xf2, 0xbf, 0x5c, 0xb7, 0xf3, 0x3e, 0x2e, 0xd5, 0x15, 0x3e,
  0x85, 0x01, 0xe4, 0x3e, 0x01, 0xc4, 0x4a, 0xbe, 0x3e, 0xe6, 0x33, 0xbc,
  0x00, 0x69, 0xa1, 0xbc, 0xe1, 0x4e, 0x9b, 0x3e, 0xd0, 0xbb, 0xe7, 0x3c,
  0x3b, 0xb7, 0x2c, 0xbe, 0x08, 0x90, 0x1c, 0x3d, 0x0e, 0x10, 0x11, 0x3e,
  0x42, 0xb7, 0x5f, 0xbd, 0x88, 0x02, 0x9c, 0xbe, 0xe0, 0xe8, 0x92, 0xbc,
  0xcc, 0x44, 0xa6, 0x3c, 0x0f, 0xb0, 0x8d, 0x3e, 0xd2, 0x74, 0x3a, 0x3e,
  0x18, 0xaa, 0x04, 0x3e, 0x8c, 0xd1, 0x86, 0x3e, 0x1f, 0xfd, 0xc8, 0x3e,
  0x28, 0xd7, 0xb4, 0x3f, 0x3c, 0x81, 0x44, 0xbe, 0x16, 0xee, 0x34, 0x3e,
  0xa2, 0xdc, 0x42, 0x3e, 0xe7, 0x32, 0x43, 0xbe, 0x39, 0x7c, 0xa0, 0xbd,
  0x44, 0x92, 0xb9, 0xbd, 0xdb, 0x96, 0xe0, 0xbd, 0x73, 0x7c, 0x79, 0x3e,
  0x82, 0x58, 0x23, 0x3e, 0x47, 0xde, 0xa3, 0x3e, 0xe9, 0xe3, 0xc7, 0x3e,
  0xec, 0x7d, 0x11, 0xc0, 0xe0, 0x1f, 0xa8, 0xbe, 0x70, 0x91, 0xfe, 0xbf,
  0xb9, 0x9d, 0xef, 0xbf, 0xe3, 0x52, 0x22, 0x3e, 0x50, 0xc2, 0x93, 0xbc,
  0xf1, 0xf8, 0xd3, 0xbf, 0xe6, 0x3e, 0x09, 0xbe, 0x6a, 0xff, 0x18, 0x3e,
  0x7c, 0x38, 0x12, 0xbf, 0x28, 0xa4, 0x6b, 0x3d, 0xc8, 0x74, 0xd3, 0x3d,
  0x94, 0xf0, 0x0b, 0xbf, 0xb0, 0x84, 0x8b, 0xbc, 0x74, 0x68, 0x21, 0x3e,
  0xc5, 0xfe, 0x04, 0xc0, 0x5f, 0xaa, 0x80, 0x3e, 0xbc, 0x76, 0x80, 0xbd,
  0x84, 0x28, 0x7a, 0x3e, 0x8e, 0x3f, 0xab, 0xbe, 0x87, 0x46, 0x25, 0x3f,
  0x90, 0x6d, 0xeb, 0x3c, 0xa0, 0x62, 0x97, 0x3f, 0x50, 0xb6, 0xbe, 0xbd,
  0xb6, 0x9c, 0x1b, 0x3e, 0x6b, 0xf1, 0x49, 0x3f, 0x80, 0x79, 0xbf, 0xbc,
  0x56, 0x1b, 0x70, 0x3d, 0x5c, 0xa4, 0x52, 0x3f, 0x0c, 0x82, 0x8d, 0x3d,
  0x32, 0xb8, 0xe4, 0xbd, 0x9e, 0x5b, 0x8e, 0x3f, 0xed, 0xa3, 0x48, 0xbf,
  0x10, 0x5f, 0x54, 0x3d, 0xd8, 0x8c, 0x8a, 0xbf, 0xdd, 0x9b, 0xa4, 0xbe,
  0xc2, 0x8b, 0x7d, 0x3e, 0x46, 0xee, 0x78, 0xbe, 0x4d, 0xf5, 0x0f, 0xc0,
  0xec, 0x05, 0xc7, 0xbd, 0xbc, 0xf4, 0x9a, 0xbd, 0x8e, 0x76, 0x85, 0xbf,
  0xf6, 0x57, 0x54, 0x3e, 0x96, 0x7a, 0x79, 0xbd, 0x2c, 0x65, 0xbb, 0xbf,
  0xe8, 0xc7, 0x05, 0xbd, 0x7c, 0x5b, 0x3e, 0x3f, 0xaf, 0xdd, 0xd5, 0xbf,
  0x31, 0x58, 0x3c, 0x3f, 0x97, 0x1e, 0xa2, 0x3e, 0xc6, 0x6b, 0x4b, 0x3f,
  0x94, 0xef, 0xca, 0xbe, 0x46, 0x44, 0x9a, 0xbe, 0x3d, 0x77, 0x9e, 0x3e,
  0x9b, 0xfe, 0x0b, 0xc0, 0x13, 0xad, 0x2f, 0xbe, 0x3b, 0xc2, 0xa7, 0x3e,
  0x4d, 0x15, 0x85, 0xbf, 0xb8, 0x47, 0xe4, 0x3d, 0x9f, 0x39, 0x60, 0x3d,
  0xe8, 0x81, 0x96, 0xbf, 0x2b, 0xce, 0x91, 0x3e, 0x61, 0x4f, 0xeb, 0x3e,
  0xaa, 0xac, 0xf4, 0xbf, 0x38, 0x19, 0xdb, 0x3e, 0x06, 0xb5, 0x63, 0x3e,
  0x09, 0x84, 0x3c, 0x3f, 0x62, 0x8d, 0x1b, 0x3d, 0xba, 0x46, 0x78, 0x3f,
  0xe0, 0xbb, 0xef, 0x3d, 0x27, 0x42, 0xac, 0x3f, 0x9c, 0xef, 0xc4, 0x3d,
  0x50, 0x9c, 0xd3, 0xbc, 0x43, 0x12, 0xba, 0x3e, 0xe9, 0xca, 0x04, 0xbe,
  0x71, 0x03, 0x74, 0xbe, 0xa2, 0x20, 0x1b, 0x3f, 0x22, 0x15, 0x59, 0xbe,
  0xc3, 0x73, 0xd9, 0xbd, 0x9c, 0x61, 0x85, 0x3f, 0x9f, 0x68, 0x99, 0xbf,
  0x69, 0x7b, 0x5b, 0xbe, 0x87, 0x83, 0x74, 0xbf, 0xf3, 0x89, 0x8b, 0xbf,
  0x53, 0xab, 0x8e, 0xbd, 0x00, 0xc1, 0x0e, 0x3e, 0xe6, 0x0f, 0x82, 0xbe,
  0x08, 0x78, 0x69, 0xbd, 0x59, 0xfd, 0x73, 0xbe, 0x78, 0xa1, 0xbc, 0xbe,
  0x19, 0x26, 0x8d, 0x3e, 0x7c, 0x63, 0xa3, 0x3b, 0xf0, 0x25, 0x66, 0x3e,
  0x58, 0x6b, 0x4a, 0xbd, 0xd9, 0x97, 0xfb, 0xbd, 0xee, 0x14, 0x26, 0xbe,
  0x9e, 0xee, 0x09, 0xbe, 0x1d, 0x37, 0x86, 0x3e, 0xdf, 0x3f, 0x81, 0x3e,
  0x79, 0xb3, 0x16, 0xbe, 0xcc, 0xaf, 0x9e, 0xbd, 0x9e, 0x4b, 0x3e, 0x3e,
  0xc2, 0xe0, 0xed, 0xbf, 0x0c, 0x06, 0x7e, 0xbe, 0xfc, 0xca, 0xfc, 0x3d,
  0xed, 0xb6, 0x5f, 0xbf, 0xfa, 0xe9, 0x7e, 0x3e, 0xc8, 0x7f, 0x80, 0xbd,
  0xce, 0xa4, 0x60, 0xbf, 0x50, 0x01, 0xe6, 0x3d, 0x6b, 0xa8, 0x82, 0xbd,
  0x9d, 0xe0, 0xdd, 0xbf, 0x4c, 0x70, 0x6e, 0x3e, 0x7e, 0xd5, 0x72, 0xbe,
  0x9c, 0x6a, 0x1e, 0x3f, 0xf7, 0x2f, 0xeb, 0xbd, 0x14, 0x33, 0xbd, 0xbf,
  0x10, 0x5a, 0xfe, 0xbd, 0x0a, 0xc2, 0x6b, 0x3d, 0x10, 0xae, 0xd1, 0x3c,
  0x32, 0x39, 0x37, 0x3e, 0xea, 0x50, 0x04, 0x3e, 0x55, 0xbb, 0xb4, 0x3e,
  0x2f, 0xd9, 0xfe, 0x3e, 0x3c, 0x0a, 0x20, 0x3e, 0x70, 0x5b, 0x7d, 0xbe,
  0x81, 0xee, 0x6e, 0xbf, 0x3b, 0x68, 0x83, 0xbe, 0x7b, 0x37, 0xf0, 0x3f,
  0x72, 0x32, 0x73, 0x3e, 0x5c, 0xab, 0x0b, 0x40, 0xcc, 0xc6, 0x1b, 0x40,
  0x9e, 0x52, 0xc4, 0xbf, 0xdf, 0x7c, 0x87, 0x3e, 0xbb, 0x56, 0x58, 0x3e,
  0xb9, 0x42, 0x80, 0x3e, 0x20, 0x07, 0xd3, 0x3c, 0x9f, 0x05, 0x0f, 0x3f,
  0x20, 0x5b, 0x45, 0x3d, 0xfc, 0xf3, 0x8b, 0x3e, 0x78, 0x63, 0x2b, 0x3f,
  0xe0, 0xc8, 0x17, 0xbc, 0xb1, 0xde, 0xf5, 0xbe, 0x2d, 0x04, 0x10, 0x3f,
  0xca, 0x56, 0x29, 0x3f, 0x0c, 0xc5, 0x82, 0xbd, 0x00, 0xa2, 0x20, 0x3f,
  0xd4, 0x93, 0x00, 0x40, 0x94, 0x58, 0x4f, 0xbf, 0x89, 0xb5, 0xb3, 0x3e,
  0xed, 0xf3, 0x0e, 0xbf, 0xb0, 0x83, 0xb6, 0x3c, 0xdd, 0x5a, 0x82, 0x3e,
  0x9e, 0x99, 0x73, 0x3e, 0x58, 0x40, 0x6c, 0x3d, 0xad, 0xd3, 0x0a, 0x3f,
  0xef, 0x73, 0x9c, 0xbe, 0x04, 0x9f, 0x5e, 0xbe, 0x46, 0xb8, 0xed, 0x3e,
  0xc9, 0xa2, 0x55, 0xbe, 0xb4, 0x2a, 0xe8, 0x3f, 0xcd, 0x47, 0x90, 0xbe,
  0xc3, 0xa0, 0xd8, 0x3f, 0x3f, 0x5a, 0x08, 0x40, 0xd2, 0x06, 0xae, 0x3f,
  0x13, 0x58, 0xb1, 0x3e, 0x30, 0xdf, 0x00, 0x3f, 0x7d, 0xb6, 0x81, 0x3e,
  0xde, 0x19, 0x7e, 0xbe, 0xd7, 0x4b, 0xef, 0x3d, 0xd7, 0xc3, 0x6d, 0xbe,
  0xe7, 0xba, 0xb4, 0xbe, 0xb4, 0x15, 0xb6, 0xbc, 0x92, 0x42, 0x36, 0x3e,
  0xc3, 0x61, 0xfb, 0x3e, 0x69, 0xeb, 0xc3, 0x3e, 0x8f, 0xbf, 0x1b, 0xc0,
  0xc6, 0xe0, 0x4f, 0x3e, 0xcb, 0xcf, 0xfd, 0xbf, 0xcb, 0x4a, 0x06, 0xc0,
  0x1b, 0x9b, 0xb3, 0xbf, 0xbe, 0x25, 0x5b, 0x3e, 0x4a, 0x12, 0x79, 0xbe,
  0xea, 0x4d, 0x4f, 0x3e, 0x90, 0xd1, 0x9a, 0x3d, 0x83, 0x91, 0x13, 0x3e,
  0x48, 0xbf, 0xa2, 0xbe, 0xbf, 0x2c, 0x00, 0x3f, 0xb7, 0xcc, 0x2f, 0xbe,
  0x16, 0xde, 0x25, 0x3e, 0x98, 0x4f, 0x15, 0xbf, 0xe8, 0x73, 0xb8, 0x3d,
  0xb8, 0xbc, 0x05, 0x40, 0xa9, 0x1d, 0xa3, 0xbe, 0x58, 0x79, 0x10, 0x40,
  0x19, 0xb7, 0x0a, 0x40, 0xdb, 0xf8, 0xee, 0x3f, 0x31, 0x08, 0x1d, 0xbe,
  0x43, 0xd1, 0x17, 0x3e, 0x90, 0x09, 0x4f, 0xbe, 0x85, 0xe2, 0xa5, 0x3e,
  0x0d, 0xd2, 0xab, 0x3d, 0x02, 0xc8, 0xa3, 0xbe, 0x73, 0x58, 0xeb, 0xbd,
  0x70, 0x19, 0xc4, 0xbe, 0x3e, 0x97, 0x2b, 0xbe, 0xfb, 0xc7, 0x0f, 0x3f,
  0xbe, 0x7e, 0xf8, 0xbd, 0xdd, 0xed, 0xaa, 0xbf, 0x96, 0x25, 0x03, 0xbe,
  0x17, 0xda, 0xbf, 0xbf, 0x3f, 0x6c, 0x02, 0xc0, 0x9a, 0x83, 0xd6, 0x3d,
  0xac, 0xe8, 0x26, 0xbe, 0x36, 0x3b, 0xed, 0xbf, 0x0c, 0x72, 0xce, 0x3d,
  0xae, 0x81, 0x15, 0xbe, 0x4b, 0x84, 0x87, 0xbf, 0x7b, 0x0d, 0x85, 0x3e,
  0x64, 0x4c, 0x32, 0x3d, 0x74, 0x47, 0x9e, 0xbf, 0x0c, 0xc9, 0x77, 0xbe,
  0x92, 0x9d, 0xc3, 0x3e, 0x9c, 0x59, 0x07, 0xc0, 0x49, 0x90, 0x04, 0x3f,
  0x20, 0x5a, 0xa8, 0xbe, 0x46, 0x72, 0xd7, 0x3e, 0xd8, 0xf6, 0x69, 0xbe,
  0xae, 0xfd, 0xff, 0xff, 0x04, 0x00, 0x00, 0x00, 0xc0, 0x00, 0x00, 0x00,
  0x5e, 0x21, 0x74, 0xbd, 0x33, 0x81, 0xb4, 0xbe, 0x75, 0xcb, 0x85, 0x3f,
  0x90, 0x44, 0xe5, 0xbe, 0x30, 0x6b, 0x49, 0xbe, 0x3a, 0xd7, 0xec, 0xbe,
  0x3c, 0x69, 0xf3, 0x3e, 0x5e, 0xab, 0x6a, 0xbf, 0x11, 0x9b, 0x1c, 0x3f,
  0x86, 0x5a, 0xb7, 0xbe, 0xfc, 0x34, 0x89, 0x3e, 0x60, 0xec, 0x09, 0x3d,
  0xe4, 0xfd, 0x9c, 0xbe, 0xc0, 0xcc, 0x3b, 0x3d, 0xec, 0x0c, 0xd1, 0xbe,
  0x22, 0xff, 0x07, 0x3f, 0x0e, 0x5c, 0xaa, 0xbe, 0x01, 0x09, 0xef, 0xbe,
  0x47, 0x9a, 0xb0, 0xbe, 0x60, 0x08, 0x8c, 0xbe, 0xa0, 0xef, 0x1a, 0x3e,
  0x41, 0xb9, 0x9d, 0x3e, 0x4a, 0xae, 0xc8, 0x3e, 0xe2, 0x44, 0xe7, 0xbe,
  0x44, 0xa8, 0x10, 0x3f, 0x54, 0x78, 0x28, 0xbf, 0xf8, 0x94, 0xd5, 0xbe,
  0x70, 0xe4, 0xb4, 0xbe, 0x5e, 0xef, 0x66, 0xbe, 0x4c, 0x47, 0xda, 0x3e,
  0x34, 0xea, 0x03, 0xbf, 0xad, 0x8e, 0x9a, 0x3e, 0xfa, 0xcd, 0x83, 0x3f,
  0x2c, 0x60, 0xfd, 0x3e, 0x8a, 0x32, 0x70, 0xbf, 0x2e, 0x41, 0x1c, 0x3f,
  0x9b, 0x45, 0xca, 0xbc, 0x04, 0x82, 0x4a, 0x3f, 0xae, 0x30, 0x89, 0xbf,
  0xc8, 0x61, 0xd4, 0xbd, 0x14, 0x55, 0xf0, 0xbe, 0x1e, 0x4b, 0xba, 0xbe,
  0xab, 0x7b, 0x11, 0xbd, 0x5b, 0xe0, 0x3e, 0x3f, 0x23, 0x8d, 0x5d, 0xbf,
  0x6b, 0xdd, 0xd2, 0x3e, 0xa4, 0x53, 0xa6, 0x3e, 0x21, 0x78, 0xaa, 0xbf,
  0x7a, 0xfe, 0xff, 0xff, 0x04, 0x00, 0x00, 0x00, 0x40, 0x00, 0x00, 0x00,
  0xe7, 0xb9, 0x2f, 0xbd, 0x00, 0x00, 0x00, 0x00, 0x47, 0xce, 0x1a, 0xbd,
  0x00, 0x00, 0x00, 0x00, 0x00, 0x00, 0x00, 0x00, 0xc2, 0xa7, 0x5b, 0xbd,
  0x00, 0x00, 0x00, 0x00, 0x41, 0x54, 0x43, 0xbe, 0xae, 0xcb, 0x35, 0x3c,
  0x00, 0x00, 0x00, 0x00, 0xa6, 0x71, 0x99, 0x3d, 0xb9, 0x04, 0x0a, 0xbd,
  0x8c, 0xbf, 0x0c, 0x3b, 0x00, 0x00, 0x00, 0x00, 0xfe, 0x2b, 0xa7, 0xbc,
  0x98, 0x5c, 0xad, 0xbd, 0xc6, 0xfe, 0xff, 0xff, 0x04, 0x00, 0x00, 0x00,
  0x80, 0x00, 0x00, 0x00, 0xd6, 0xbb, 0x23, 0x3e, 0xed, 0x99, 0x7d, 0x3e,
  0x67, 0x82, 0x04, 0x3e, 0xdf, 0x97, 0x2e, 0x3e, 0x83, 0x52, 0xfa, 0x3d,
  0x29, 0x16, 0x59, 0x3e, 0x4f, 0xcc, 0x43, 0x3e, 0x1c, 0x32, 0x41, 0x3e,
  0x1d, 0x64, 0x85, 0x3e, 0xa3, 0x9f, 0xaa, 0x3c, 0x41, 0x75, 0xa1, 0x3d,
  0x9a, 0xed, 0x0c, 0x3e, 0x60, 0x81, 0xd6, 0xbc, 0xde, 0x69, 0x49, 0xbd,
  0xc2, 0x54, 0x42, 0x3d, 0x69, 0x5a, 0x31, 0x3e, 0xe0, 0x09, 0x70, 0xbc,
  0x8b, 0x8f, 0xf1, 0x3d, 0x8d, 0x96, 0x2d, 0x3e, 0x25, 0xee, 0x49, 0x3e,
  0x3e, 0xbd, 0x1f, 0x3e, 0x24, 0xc6, 0x4a, 0x3e, 0x17, 0x38, 0x7e, 0x3e,
  0x1e, 0xe4, 0x86, 0xbd, 0x71, 0xc2, 0x2c, 0x3e, 0x85, 0xd8, 0xe6, 0x3d,
  0xd7, 0x49, 0xfa, 0x3d, 0x6b, 0xc8, 0x2b, 0x3e, 0x76, 0xf3, 0xff, 0x3d,
  0x6f, 0xe8, 0xef, 0x3d, 0xbf, 0xc0, 0x0d, 0x3e, 0xfa, 0xa0, 0x27, 0x3e,
  0x52, 0xff, 0xff, 0xff, 0x04, 0x00, 0x00, 0x00, 0x0c, 0x00, 0x00, 0x00,
  0xe4, 0x71, 0x05, 0x3c, 0x17, 0x61, 0x19, 0xbd, 0xcc, 0x2b, 0x16, 0x3c,
  0x20, 0xfa, 0xff, 0xff, 0x24, 0xfa, 0xff, 0xff, 0x0f, 0x00, 0x00, 0x00,
  0x4d, 0x4c, 0x49, 0x52, 0x20, 0x43, 0x6f, 0x6e, 0x76, 0x65, 0x72, 0x74,
  0x65, 0x64, 0x2e, 0x00, 0x01, 0x00, 0x00, 0x00, 0x14, 0x00, 0x00, 0x00,
  0x00, 0x00, 0x0e, 0x00, 0x18, 0x00, 0x14, 0x00, 0x10, 0x00, 0x0c, 0x00,
  0x08, 0x00, 0x04, 0x00, 0x0e, 0x00, 0x00, 0x00, 0x14, 0x00, 0x00, 0x00,
  0x1c, 0x00, 0x00, 0x00, 0x24, 0x01, 0x00, 0x00, 0x28, 0x01, 0x00, 0x00,
  0x2c, 0x01, 0x00, 0x00, 0x04, 0x00, 0x00, 0x00, 0x6d, 0x61, 0x69, 0x6e,
  0x00, 0x00, 0x00, 0x00, 0x04, 0x00, 0x00, 0x00, 0xcc, 0x00, 0x00, 0x00,
  0x84, 0x00, 0x00, 0x00, 0x50, 0x00, 0x00, 0x00, 0x14, 0x00, 0x00, 0x00,
  0x00, 0x00, 0x0e, 0x00, 0x1a, 0x00, 0x14, 0x00, 0x10, 0x00, 0x0c, 0x00,
  0x0b, 0x00, 0x04, 0x00, 0x0e, 0x00, 0x00, 0x00, 0x1c, 0x00, 0x00, 0x00,
  0x00, 0x00, 0x00, 0x09, 0x1c, 0x00, 0x00, 0x00, 0x20, 0x00, 0x00, 0x00,
  0x01, 0x00, 0x00, 0x00, 0x00, 0x00, 0x06, 0x00, 0x08, 0x00, 0x04, 0x00,
  0x06, 0x00, 0x00, 0x00, 0x00, 0x00, 0x80, 0x3f, 0x01, 0x00, 0x00, 0x00,
  0x0a, 0x00, 0x00, 0x00, 0x01, 0x00, 0x00, 0x00, 0x09, 0x00, 0x00, 0x00,
  0x9a, 0xff, 0xff, 0xff, 0x10, 0x00, 0x00, 0x00, 0x00, 0x00, 0x00, 0x08,
  0x0c, 0x00, 0x00, 0x00, 0x10, 0x00, 0x00, 0x00, 0xe8, 0xfa, 0xff, 0xff,
  0x01, 0x00, 0x00, 0x00, 0x09, 0x00, 0x00, 0x00, 0x03, 0x00, 0x00, 0x00,
  0x08, 0x00, 0x00, 0x00, 0x06, 0x00, 0x00, 0x00, 0x01, 0x00, 0x00, 0x00,
  0xca, 0xff, 0xff, 0xff, 0x10, 0x00, 0x00, 0x00, 0x00, 0x00, 0x00, 0x08,
  0x10, 0x00, 0x00, 0x00, 0x14, 0x00, 0x00, 0x00, 0xba, 0xff, 0xff, 0xff,
  0x00, 0x00, 0x00, 0x01, 0x01, 0x00, 0x00, 0x00, 0x08, 0x00, 0x00, 0x00,
  0x03, 0x00, 0x00, 0x00, 0x07, 0x00, 0x00, 0x00, 0x05, 0x00, 0x00, 0x00,
  0x02, 0x00, 0x00, 0x00, 0x00, 0x00, 0x0e, 0x00, 0x16, 0x00, 0x00, 0x00,
  0x10, 0x00, 0x0c, 0x00, 0x0b, 0x00, 0x04, 0x00, 0x0e, 0x00, 0x00, 0x00,
  0x18, 0x00, 0x00, 0x00, 0x00, 0x00, 0x00, 0x08, 0x18, 0x00, 0x00, 0x00,
  0x1c, 0x00, 0x00, 0x00, 0x00, 0x00, 0x06, 0x00, 0x08, 0x00, 0x07, 0x00,
  0x06, 0x00, 0x00, 0x00, 0x00, 0x00, 0x00, 0x01, 0x01, 0x00, 0x00, 0x00,
  0x07, 0x00, 0x00, 0x00, 0x03, 0x00, 0x00, 0x00, 0x00, 0x00, 0x00, 0x00,
  0x04, 0x00, 0x00, 0x00, 0x03, 0x00, 0x00, 0x00, 0x01, 0x00, 0x00, 0x00,
  0x0a, 0x00, 0x00, 0x00, 0x01, 0x00, 0x00, 0x00, 0x00, 0x00, 0x00, 0x00,
  0x0b, 0x00, 0x00, 0x00, 0x40, 0x04, 0x00, 0x00, 0xcc, 0x03, 0x00, 0x00,
  0x58, 0x03, 0x00, 0x00, 0xfc, 0x02, 0x00, 0x00, 0xac, 0x02, 0x00, 0x00,
  0x5c, 0x02, 0x00, 0x00, 0x0c, 0x02, 0x00, 0x00, 0x74, 0x01, 0x00, 0x00,
  0xdc, 0x00, 0x00, 0x00, 0x60, 0x00, 0x00, 0x00, 0x04, 0x00, 0x00, 0x00,
  0x02, 0xfc, 0xff, 0xff, 0x00, 0x00, 0x00, 0x01, 0x14, 0x00, 0x00, 0x00,
  0x1c, 0x00, 0x00, 0x00, 0x1c, 0x00, 0x00, 0x00, 0x0b, 0x00, 0x00, 0x00,
  0x34, 0x00, 0x00, 0x00, 0x02, 0x00, 0x00, 0x00, 0xff, 0xff, 0xff, 0xff,
  0x03, 0x00, 0x00, 0x00, 0xec, 0xfb, 0xff, 0xff, 0x19, 0x00, 0x00, 0x00,
  0x53, 0x74, 0x61, 0x74, 0x65, 0x66, 0x75, 0x6c, 0x50, 0x61, 0x72, 0x74,
  0x69, 0x74, 0x69, 0x6f, 0x6e, 0x65, 0x64, 0x43, 0x61, 0x6c, 0x6c, 0x3a,
  0x30, 0x00, 0x00, 0x00, 0x02, 0x00, 0x00, 0x00, 0x01, 0x00, 0x00, 0x00,
  0x03, 0x00, 0x00, 0x00, 0x5a, 0xfc, 0xff, 0xff, 0x00, 0x00, 0x00, 0x01,
  0x14, 0x00, 0x00, 0x00, 0x1c, 0x00, 0x00, 0x00, 0x1c, 0x00, 0x00, 0x00,
  0x0a, 0x00, 0x00, 0x00, 0x54, 0x00, 0x00, 0x00, 0x02, 0x00, 0x00, 0x00,
  0xff, 0xff, 0xff, 0xff, 0x03, 0x00, 0x00, 0x00, 0x44, 0xfc, 0xff, 0xff,
  0x3a, 0x00, 0x00, 0x00, 0x73, 0x65, 0x71, 0x75, 0x65, 0x6e, 0x74, 0x69,
  0x61, 0x6c, 0x5f, 0x34, 0x2f, 0x64, 0x65, 0x6e, 0x73, 0x65, 0x5f, 0x32,
  0x34, 0x2f, 0x4d, 0x61, 0x74, 0x4d, 0x75, 0x6c, 0x3b, 0x73, 0x65, 0x71,
  0x75, 0x65, 0x6e, 0x74, 0x69, 0x61, 0x6c, 0x5f, 0x34, 0x2f, 0x64, 0x65,
  0x6e, 0x73, 0x65, 0x5f, 0x32, 0x34, 0x2f, 0x42, 0x69, 0x61, 0x73, 0x41,
  0x64, 0x64, 0x00, 0x00, 0x02, 0x00, 0x00, 0x00, 0x01, 0x00, 0x00, 0x00,
  0x03, 0x00, 0x00, 0x00, 0xd2, 0xfc, 0xff, 0xff, 0x00, 0x00, 0x00, 0x01,
  0x14, 0x00, 0x00, 0x00, 0x1c, 0x00, 0x00, 0x00, 0x1c, 0x00, 0x00, 0x00,
  0x09, 0x00, 0x00, 0x00, 0x70, 0x00, 0x00, 0x00, 0x02, 0x00, 0x00, 0x00,
  0xff, 0xff, 0xff, 0xff, 0x20, 0x00, 0x00, 0x00, 0xbc, 0xfc, 0xff, 0xff,
  0x55, 0x00, 0x00, 0x00, 0x73, 0x65, 0x71, 0x75, 0x65, 0x6e, 0x74, 0x69,
  0x61, 0x6c, 0x5f, 0x34, 0x2f, 0x64, 0x65, 0x6e, 0x73, 0x65, 0x5f, 0x32,
  0x33, 0x2f, 0x4d, 0x61, 0x74, 0x4d, 0x75, 0x6c, 0x3b, 0x73, 0x65, 0x71,
  0x75, 0x65, 0x6e, 0x74, 0x69, 0x61, 0x6c, 0x5f, 0x34, 0x2f, 0x64, 0x65,
  0x6e, 0x73, 0x65, 0x5f, 0x32, 0x33, 0x2f, 0x52, 0x65, 0x6c, 0x75, 0x3b,
  0x73, 0x65, 0x71, 0x75, 0x65, 0x6e, 0x74, 0x69, 0x61, 0x6c, 0x5f, 0x34,
  0x2f, 0x64, 0x65, 0x6e, 0x73, 0x65, 0x5f, 0x32, 0x33, 0x2f, 0x42, 0x69,
  0x61, 0x73, 0x41, 0x64, 0x64, 0x00, 0x00, 0x00, 0x02, 0x00, 0x00, 0x00,
  0x01, 0x00, 0x00, 0x00, 0x20, 0x00, 0x00, 0x00, 0x66, 0xfd, 0xff, 0xff,
  0x00, 0x00, 0x00, 0x01, 0x14, 0x00, 0x00, 0x00, 0x1c, 0x00, 0x00, 0x00,
  0x1c, 0x00, 0x00, 0x00, 0x08, 0x00, 0x00, 0x00, 0x70, 0x00, 0x00, 0x00,
  0x02, 0x00, 0x00, 0x00, 0xff, 0xff, 0xff, 0xff, 0x10, 0x00, 0x00, 0x00,
  0x50, 0xfd, 0xff, 0xff, 0x55, 0x00, 0x00, 0x00, 0x73, 0x65, 0x71, 0x75,
  0x65, 0x6e, 0x74, 0x69, 0x61, 0x6c, 0x5f, 0x34, 0x2f, 0x64, 0x65, 0x6e,
  0x73, 0x65, 0x5f, 0x32, 0x32, 0x2f, 0x4d, 0x61, 0x74, 0x4d, 0x75, 0x6c,
  0x3b, 0x73, 0x65, 0x71, 0x75, 0x65, 0x6e, 0x74, 0x69, 0x61, 0x6c, 0x5f,
  0x34, 0x2f, 0x64, 0x65, 0x6e, 0x73, 0x65, 0x5f, 0x32, 0x32, 0x2f, 0x52,
  0x65, 0x6c, 0x75, 0x3b, 0x73, 0x65, 0x71, 0x75, 0x65, 0x6e, 0x74, 0x69,
  0x61, 0x6c, 0x5f, 0x34, 0x2f, 0x64, 0x65, 0x6e, 0x73, 0x65, 0x5f, 0x32,
  0x32, 0x2f, 0x42, 0x69, 0x61, 0x73, 0x41, 0x64, 0x64, 0x00, 0x00, 0x00,
  0x02, 0x00, 0x00, 0x00, 0x01, 0x00, 0x00, 0x00, 0x10, 0x00, 0x00, 0x00,
  0x6a, 0xfe, 0xff, 0xff, 0x00, 0x00, 0x00, 0x01, 0x10, 0x00, 0x00, 0x00,
  0x10, 0x00, 0x00, 0x00, 0x07, 0x00, 0x00, 0x00, 0x2c, 0x00, 0x00, 0x00,
  0xd4, 0xfd, 0xff, 0xff, 0x1c, 0x00, 0x00, 0x00, 0x73, 0x65, 0x71, 0x75,
  0x65, 0x6e, 0x74, 0x69, 0x61, 0x6c, 0x5f, 0x34, 0x2f, 0x64, 0x65, 0x6e,
  0x73, 0x65, 0x5f, 0x32, 0x34, 0x2f, 0x4d, 0x61, 0x74, 0x4d, 0x75, 0x6c,
  0x00, 0x00, 0x00, 0x00, 0x02, 0x00, 0x00, 0x00, 0x03, 0x00, 0x00, 0x00,
  0x20, 0x00, 0x00, 0x00, 0xb6, 0xfe, 0xff, 0xff, 0x00, 0x00, 0x00, 0x01,
  0x10, 0x00, 0x00, 0x00, 0x10, 0x00, 0x00, 0x00, 0x06, 0x00, 0x00, 0x00,
  0x2c, 0x00, 0x00, 0x00, 0x20, 0xfe, 0xff, 0xff, 0x1c, 0x00, 0x00, 0x00,
  0x73, 0x65, 0x71, 0x75, 0x65, 0x6e, 0x74, 0x69, 0x61, 0x6c, 0x5f, 0x34,
  0x2f, 0x64, 0x65, 0x6e, 0x73, 0x65, 0x5f, 0x32, 0x33, 0x2f, 0x4d, 0x61,
  0x74, 0x4d, 0x75, 0x6c, 0x00, 0x00, 0x00, 0x00, 0x02, 0x00, 0x00, 0x00,
  0x20, 0x00, 0x00, 0x00, 0x10, 0x00, 0x00, 0x00, 0x02, 0xff, 0xff, 0xff,
  0x00, 0x00, 0x00, 0x01, 0x10, 0x00, 0x00, 0x00, 0x10, 0x00, 0x00, 0x00,
  0x05, 0x00, 0x00, 0x00, 0x2c, 0x00, 0x00, 0x00, 0x6c, 0xfe, 0xff, 0xff,
  0x1c, 0x00, 0x00, 0x00, 0x73, 0x65, 0x71, 0x75, 0x65, 0x6e, 0x74, 0x69,
  0x61, 0x6c, 0x5f, 0x34, 0x2f, 0x64, 0x65, 0x6e, 0x73, 0x65, 0x5f, 0x32,
  0x32, 0x2f, 0x4d, 0x61, 0x74, 0x4d, 0x75, 0x6c, 0x00, 0x00, 0x00, 0x00,
  0x02, 0x00, 0x00, 0x00, 0x10, 0x00, 0x00, 0x00, 0x03, 0x00, 0x00, 0x00,
  0x4e, 0xff, 0xff, 0xff, 0x00, 0x00, 0x00, 0x01, 0x10, 0x00, 0x00, 0x00,
  0x10, 0x00, 0x00, 0x00, 0x04, 0x00, 0x00, 0x00, 0x3c, 0x00, 0x00, 0x00,
  0xb8, 0xfe, 0xff, 0xff, 0x2c, 0x00, 0x00, 0x00, 0x73, 0x65, 0x71, 0x75,
  0x65, 0x6e, 0x74, 0x69, 0x61, 0x6c, 0x5f, 0x34, 0x2f, 0x64, 0x65, 0x6e,
  0x73, 0x65, 0x5f, 0x32, 0x32, 0x2f, 0x42, 0x69, 0x61, 0x73, 0x41, 0x64,
  0x64, 0x2f, 0x52, 0x65, 0x61, 0x64, 0x56, 0x61, 0x72, 0x69, 0x61, 0x62,
  0x6c, 0x65, 0x4f, 0x70, 0x00, 0x00, 0x00, 0x00, 0x01, 0x00, 0x00, 0x00,
  0x10, 0x00, 0x00, 0x00, 0xa6, 0xff, 0xff, 0xff, 0x00, 0x00, 0x00, 0x01,
  0x10, 0x00, 0x00, 0x00, 0x10, 0x00, 0x00, 0x00, 0x03, 0x00, 0x00, 0x00,
  0x3c, 0x00, 0x00, 0x00, 0x10, 0xff, 0xff, 0xff, 0x2c, 0x00, 0x00, 0x00,
  0x73, 0x65, 0x71, 0x75, 0x65, 0x6e, 0x74, 0x69, 0x61, 0x6c, 0x5f, 0x34,
  0x2f, 0x64, 0x65, 0x6e, 0x73, 0x65, 0x5f, 0x32, 0x33, 0x2f, 0x42, 0x69,
  0x61, 0x73, 0x41, 0x64, 0x64, 0x2f, 0x52, 0x65, 0x61, 0x64, 0x56, 0x61,
  0x72, 0x69, 0x61, 0x62, 0x6c, 0x65, 0x4f, 0x70, 0x00, 0x00, 0x00, 0x00,
  0x01, 0x00, 0x00, 0x00, 0x20, 0x00, 0x00, 0x00, 0x00, 0x00, 0x16, 0x00,
  0x18, 0x00, 0x14, 0x00, 0x00, 0x00, 0x10, 0x00, 0x0c, 0x00, 0x08, 0x00,
  0x00, 0x00, 0x00, 0x00, 0x00, 0x00, 0x07, 0x00, 0x16, 0x00, 0x00, 0x00,
  0x00, 0x00, 0x00, 0x01, 0x10, 0x00, 0x00, 0x00, 0x10, 0x00, 0x00, 0x00,
  0x02, 0x00, 0x00, 0x00, 0x3c, 0x00, 0x00, 0x00, 0x80, 0xff, 0xff, 0xff,
  0x2c, 0x00, 0x00, 0x00, 0x73, 0x65, 0x71, 0x75, 0x65, 0x6e, 0x74, 0x69,
  0x61, 0x6c, 0x5f, 0x34, 0x2f, 0x64, 0x65, 0x6e, 0x73, 0x65, 0x5f, 0x32,
  0x34, 0x2f, 0x42, 0x69, 0x61, 0x73, 0x41, 0x64, 0x64, 0x2f, 0x52, 0x65,
  0x61, 0x64, 0x56, 0x61, 0x72, 0x69, 0x61, 0x62, 0x6c, 0x65, 0x4f, 0x70,
  0x00, 0x00, 0x00, 0x00, 0x01, 0x00, 0x00, 0x00, 0x03, 0x00, 0x00, 0x00,
  0x00, 0x00, 0x16, 0x00, 0x1c, 0x00, 0x18, 0x00, 0x00, 0x00, 0x14, 0x00,
  0x10, 0x00, 0x0c, 0x00, 0x00, 0x00, 0x00, 0x00, 0x08, 0x00, 0x07, 0x00,
  0x16, 0x00, 0x00, 0x00, 0x00, 0x00, 0x00, 0x01, 0x14, 0x00, 0x00, 0x00,
  0x20, 0x00, 0x00, 0x00, 0x20, 0x00, 0x00, 0x00, 0x01, 0x00, 0x00, 0x00,
  0x38, 0x00, 0x00, 0x00, 0x02, 0x00, 0x00, 0x00, 0xff, 0xff, 0xff, 0xff,
  0x03, 0x00, 0x00, 0x00, 0x04, 0x00, 0x04, 0x00, 0x04, 0x00, 0x00, 0x00,
  0x19, 0x00, 0x00, 0x00, 0x73, 0x65, 0x72, 0x76, 0x69, 0x6e, 0x67, 0x5f,
  0x64, 0x65, 0x66, 0x61, 0x75, 0x6c, 0x74, 0x5f, 0x69, 0x6e, 0x70, 0x75,
  0x74, 0x5f, 0x35, 0x3a, 0x30, 0x00, 0x00, 0x00, 0x02, 0x00, 0x00, 0x00,
  0x01, 0x00, 0x00, 0x00, 0x03, 0x00, 0x00, 0x00, 0x02, 0x00, 0x00, 0x00,
  0x20, 0x00, 0x00, 0x00, 0x04, 0x00, 0x00, 0x00, 0xf4, 0xff, 0xff, 0xff,
  0x19, 0x00, 0x00, 0x00, 0x00, 0x00, 0x00, 0x19, 0x0c, 0x00, 0x0c, 0x00,
  0x0b, 0x00, 0x00, 0x00, 0x00, 0x00, 0x04, 0x00, 0x0c, 0x00, 0x00, 0x00,
  0x09, 0x00, 0x00, 0x00, 0x00, 0x00, 0x00, 0x09
};
