const unsigned char model[] = {
  0x1c, 0x00, 0x00, 0x00, 0x54, 0x46, 0x4c, 0x33, 0x14, 0x00, 0x20, 0x00,
  0x1c, 0x00, 0x18, 0x00, 0x14, 0x00, 0x10, 0x00, 0x0c, 0x00, 0x00, 0x00,
  0x08, 0x00, 0x04, 0x00, 0x14, 0x00, 0x00, 0x00, 0x1c, 0x00, 0x00, 0x00,
  0x90, 0x00, 0x00, 0x00, 0xe8, 0x00, 0x00, 0x00, 0x98, 0x3e, 0x00, 0x00,
  0xa8, 0x3e, 0x00, 0x00, 0x94, 0x47, 0x00, 0x00, 0x03, 0x00, 0x00, 0x00,
  0x01, 0x00, 0x00, 0x00, 0x10, 0x00, 0x00, 0x00, 0x00, 0x00, 0x0a, 0x00,
  0x10, 0x00, 0x0c, 0x00, 0x08, 0x00, 0x04, 0x00, 0x0a, 0x00, 0x00, 0x00,
  0x0c, 0x00, 0x00, 0x00, 0x1c, 0x00, 0x00, 0x00, 0x3c, 0x00, 0x00, 0x00,
  0x0f, 0x00, 0x00, 0x00, 0x73, 0x65, 0x72, 0x76, 0x69, 0x6e, 0x67, 0x5f,
  0x64, 0x65, 0x66, 0x61, 0x75, 0x6c, 0x74, 0x00, 0x01, 0x00, 0x00, 0x00,
  0x04, 0x00, 0x00, 0x00, 0x98, 0xff, 0xff, 0xff, 0x10, 0x00, 0x00, 0x00,
  0x04, 0x00, 0x00, 0x00, 0x08, 0x00, 0x00, 0x00, 0x64, 0x65, 0x6e, 0x73,
  0x65, 0x5f, 0x33, 0x39, 0x00, 0x00, 0x00, 0x00, 0x01, 0x00, 0x00, 0x00,
  0x04, 0x00, 0x00, 0x00, 0x46, 0xc1, 0xff, 0xff, 0x04, 0x00, 0x00, 0x00,
  0x07, 0x00, 0x00, 0x00, 0x69, 0x6e, 0x70, 0x75, 0x74, 0x5f, 0x38, 0x00,
  0x02, 0x00, 0x00, 0x00, 0x34, 0x00, 0x00, 0x00, 0x04, 0x00, 0x00, 0x00,
  0xdc, 0xff, 0xff, 0xff, 0x13, 0x00, 0x00, 0x00, 0x04, 0x00, 0x00, 0x00,
  0x13, 0x00, 0x00, 0x00, 0x43, 0x4f, 0x4e, 0x56, 0x45, 0x52, 0x53, 0x49,
  0x4f, 0x4e, 0x5f, 0x4d, 0x45, 0x54, 0x41, 0x44, 0x41, 0x54, 0x41, 0x00,
  0x08, 0x00, 0x0c, 0x00, 0x08, 0x00, 0x04, 0x00, 0x08, 0x00, 0x00, 0x00,
  0x12, 0x00, 0x00, 0x00, 0x04, 0x00, 0x00, 0x00, 0x13, 0x00, 0x00, 0x00,
  0x6d, 0x69, 0x6e, 0x5f, 0x72, 0x75, 0x6e, 0x74, 0x69, 0x6d, 0x65, 0x5f,
  0x76, 0x65, 0x72, 0x73, 0x69, 0x6f, 0x6e, 0x00, 0x14, 0x00, 0x00, 0x00,
  0xac, 0x3d, 0x00, 0x00, 0xa4, 0x3d, 0x00, 0x00, 0x88, 0x3d, 0x00, 0x00,
  0xf8, 0x3c, 0x00, 0x00, 0x28, 0x3c, 0x00, 0x00, 0x98, 0x3b, 0x00, 0x00,
  0x48, 0x3b, 0x00, 0x00, 0x78, 0x3a, 0x00, 0x00, 0x68, 0x32, 0x00, 0x00,
  0x58, 0x1a, 0x00, 0x00, 0x48, 0x02, 0x00, 0x00, 0xb8, 0x00, 0x00, 0x00,
  0xb0, 0x00, 0x00, 0x00, 0xa8, 0x00, 0x00, 0x00, 0xa0, 0x00, 0x00, 0x00,
  0x98, 0x00, 0x00, 0x00, 0x90, 0x00, 0x00, 0x00, 0x88, 0x00, 0x00, 0x00,
  0x68, 0x00, 0x00, 0x00, 0x04, 0x00, 0x00, 0x00, 0x0a, 0xc2, 0xff, 0xff,
  0x04, 0x00, 0x00, 0x00, 0x54, 0x00, 0x00, 0x00, 0x0c, 0x00, 0x00, 0x00,
  0x08, 0x00, 0x0e, 0x00, 0x08, 0x00, 0x04, 0x00, 0x08, 0x00, 0x00, 0x00,
  0x10, 0x00, 0x00, 0x00, 0x24, 0x00, 0x00, 0x00, 0x00, 0x00, 0x06, 0x00,
  0x08, 0x00, 0x04, 0x00, 0x06, 0x00, 0x00, 0x00, 0x04, 0x00, 0x00, 0x00,
  0x00, 0x00, 0x00, 0x00, 0x00, 0x00, 0x0a, 0x00, 0x10, 0x00, 0x0c, 0x00,
  0x08, 0x00, 0x04, 0x00, 0x0a, 0x00, 0x00, 0x00, 0x02, 0x00, 0x00, 0x00,
  0x02, 0x00, 0x00, 0x00, 0x04, 0x00, 0x00, 0x00, 0x06, 0x00, 0x00, 0x00,
  0x32, 0x2e, 0x31, 0x35, 0x2e, 0x30, 0x00, 0x00, 0x6a, 0xc2, 0xff, 0xff,
  0x04, 0x00, 0x00, 0x00, 0x10, 0x00, 0x00, 0x00, 0x31, 0x2e, 0x35, 0x2e,
  0x30, 0x00, 0x00, 0x00, 0x00, 0x00, 0x00, 0x00, 0x00, 0x00, 0x00, 0x00,
  0x4c, 0xba, 0xff, 0xff, 0x50, 0xba, 0xff, 0xff, 0x54, 0xba, 0xff, 0xff,
  0x58, 0xba, 0xff, 0xff, 0x5c, 0xba, 0xff, 0xff, 0x60, 0xba, 0xff, 0xff,
  0x9e, 0xc2, 0xff, 0xff, 0x04, 0x00, 0x00, 0x00, 0x80, 0x01, 0x00, 0x00,
  0xe3, 0x0a, 0x02, 0x3f, 0x95, 0x1a, 0x4c, 0xbf, 0xf7, 0xdb, 0xdb, 0x3e,
  0x90, 0x6d, 0x08, 0x3f, 0xe3, 0x5e, 0x0f, 0x3e, 0x0c, 0x9a, 0x18, 0x3d,
  0x23, 0x92, 0xa8, 0xbd, 0xb6, 0x0f, 0x96, 0xbe, 0xce, 0x6f, 0x53, 0x3e,
  0x3f, 0x7e, 0x16, 0xbf, 0xc1, 0x2e, 0x1b, 0x3e, 0xd4, 0x2d, 0x58, 0xbe,
  0x12, 0xf5, 0xe1, 0xbd, 0x6e, 0xeb, 0x3a, 0xbe, 0xc3, 0xc7, 0x39, 0x3e,
  0xab, 0x3a, 0xc3, 0xbe, 0xee, 0x1e, 0x00, 0x3f, 0xcd, 0x70, 0x91, 0x3e,
  0xfb, 0x23, 0x09, 0x3f, 0x9e, 0x1a, 0x23, 0xbf, 0xda, 0x4d, 0xcf, 0xbe,
  0xaf, 0x1c, 0x95, 0xbe, 0xfd, 0x0b, 0xd8, 0x3e, 0x6f, 0xeb, 0x00, 0xbf,
  0x83, 0x01, 0xe1, 0x3d, 0xc2, 0xa3, 0x01, 0x3f, 0x39, 0xd3, 0xc5, 0xbe,
  0xeb, 0x11, 0x75, 0xbe, 0xd5, 0x5a, 0x71, 0xbd, 0x3e, 0x8e, 0xa0, 0x3e,
  0xd5, 0xb1, 0x13, 0xbf, 0xd9, 0x61, 0x01, 0x3e, 0x8d, 0x7f, 0x4c, 0xbf,
  0x11, 0x57, 0xb7, 0xbc, 0xc5, 0xbf, 0xbc, 0xbe, 0x8d, 0xae, 0x85, 0xbf,
  0xbb, 0xa5, 0x99, 0x3c, 0x37, 0x22, 0x12, 0x3e, 0x60, 0x5d, 0xf8, 0x3e,
  0x6d, 0xdf, 0xa6, 0x3e, 0x88, 0x70, 0x5e, 0xbe, 0x31, 0x76, 0xba, 0x3e,
  0x23, 0xbd, 0x46, 0xbe, 0xe3, 0xe9, 0x41, 0x3f, 0x2a, 0x2d, 0x35, 0x3f,
  0x70, 0x70, 0x7e, 0xbe, 0x29, 0x84, 0xcb, 0xbe, 0x62, 0x37, 0x21, 0x3f,
  0x8c, 0x2c, 0x1d, 0xbe, 0x4e, 0x23, 0x0a, 0xbf, 0x48, 0x53, 0x80, 0xbf,
  0xe6, 0xbd, 0x4c, 0x3e, 0x16, 0xdd, 0x02, 0x3f, 0x57, 0xff, 0x7e, 0xbe,
  0x6d, 0x32, 0x33, 0xbf, 0x45, 0x34, 0xdf, 0xbe, 0x4f, 0xf9, 0x10, 0xbf,
  0xd9, 0x9f, 0xf6, 0x3e, 0x86, 0x4b, 0x40, 0x3f, 0x07, 0x63, 0x62, 0x3e,
  0x76, 0x26, 0x11, 0xbe, 0xd8, 0x42, 0x20, 0xbf, 0x8c, 0x03, 0xb2, 0xbe,
  0x89, 0x60, 0x2b, 0x3f, 0x5b, 0x08, 0x88, 0x3d, 0x4d, 0xa1, 0xfa, 0x3e,
  0x48, 0xe3, 0xba, 0xba, 0x75, 0x19, 0x2d, 0x3e, 0xb6, 0xb1, 0xda, 0x3e,
  0x0c, 0x09, 0x91, 0x3e, 0xe9, 0xaa, 0x6b, 0xbe, 0xd6, 0x41, 0xa4, 0x3e,
  0x01, 0x5f, 0xb4, 0x3e, 0x42, 0xeb, 0x29, 0xbf, 0xdf, 0xa7, 0xef, 0xbd,
  0x49, 0x59, 0xc2, 0xbe, 0x51, 0x50, 0x21, 0xbe, 0x4d, 0x4b, 0x71, 0x3e,
  0xe9, 0xbe, 0x90, 0xbe, 0x9b, 0x4e, 0x4b, 0x3e, 0x58, 0x5d, 0x52, 0xbf,
  0xb2, 0x74, 0xdf, 0x3e, 0x16, 0x5f, 0xa9, 0x3e, 0x6c, 0x65, 0xa1, 0xbe,
  0x0f, 0x30, 0x0b, 0x3e, 0xb8, 0x71, 0x52, 0xbe, 0x29, 0x1f, 0xe8, 0x3e,
  0x9d, 0x33, 0xe1, 0x3e, 0x02, 0xcf, 0x5f, 0x3e, 0xb3, 0x5d, 0x4e, 0xbf,
  0x74, 0x03, 0x16, 0xbe, 0x92, 0x56, 0xcd, 0x3e, 0x16, 0xc5, 0x19, 0xbd,
  0x73, 0x07, 0x12, 0x3e, 0x48, 0x49, 0x19, 0x3f, 0x00, 0x59, 0x4f, 0xbe,
  0x2a, 0xc4, 0xff, 0xff, 0x04, 0x00, 0x00, 0x00, 0x00, 0x18, 0x00, 0x00,
  0xde, 0x8c, 0x65, 0x3e, 0x17, 0x0f, 0x19, 0xbf, 0x90, 0xba, 0x23, 0xbe,
  0x26, 0x30, 0x77, 0xbe, 0x17, 0x0e, 0xa5, 0xbe, 0x2f, 0x5e, 0xc1, 0x3e,
  0xce, 0x8c, 0x16, 0x3f, 0x7b, 0x30, 0x71, 0xbe, 0xc3, 0xc5, 0x52, 0xbe,
  0x8e, 0xf6, 0x89, 0xbe, 0xa7, 0xf7, 0x9c, 0x3d, 0x2a, 0x4c, 0x2a, 0xbe,
  0xc9, 0xd1, 0xf4, 0xbd, 0xf9, 0x76, 0x5a, 0x3e, 0xa4, 0x5a, 0x8e, 0x3d,
  0xc5, 0x6f, 0x09, 0x3f, 0xba, 0xce, 0x3d, 0xbe, 0x4c, 0x1a, 0x87, 0x3e,
  0xef, 0xc8, 0xc2, 0xbe, 0xfa, 0x0a, 0x88, 0xbe, 0x78, 0x19, 0x0e, 0x3e,
  0x51, 0xe0, 0xf4, 0xbe, 0x2a, 0xd4, 0xe0, 0xbe, 0x82, 0xec, 0x19, 0xbe,
  0x2d, 0x67, 0xa8, 0xbe, 0xab, 0xd7, 0x93, 0x3e, 0x2c, 0x71, 0x25, 0xbf,
  0x07, 0x65, 0x02, 0xbf, 0xfb, 0x37, 0xf3, 0x3d, 0xb4, 0x70, 0x95, 0x3e,
  0xa6, 0xf5, 0x23, 0xbe, 0x89, 0xc8, 0x27, 0x3e, 0x8b, 0xa3, 0x16, 0xbf,
  0x89, 0xde, 0x25, 0xbe, 0x1c, 0x99, 0xe9, 0x3e, 0xbe, 0x2b, 0xf3, 0x3c,
  0xd6, 0xe4, 0x66, 0x3e, 0x9e, 0x05, 0xde, 0xbe, 0xed, 0x3d, 0x96, 0x3e,
  0x56, 0xe5, 0x86, 0xbe, 0x9d, 0xa9, 0x45, 0xbe, 0x2d, 0x03, 0xe2, 0x3d,
  0x59, 0x8e, 0x98, 0xbe, 0x7f, 0xeb, 0x34, 0xbe, 0xdb, 0xd6, 0xcf, 0x3e,
  0x1d, 0xf5, 0x7b, 0x3e, 0x0e, 0x26, 0x18, 0x3f, 0x98, 0x73, 0x90, 0xbe,
  0x79, 0xc9, 0x0c, 0xbf, 0x91, 0xd4, 0xb1, 0xbe, 0x01, 0x9d, 0x17, 0x3f,
  0xee, 0x82, 0x58, 0xbe, 0x16, 0x50, 0x0c, 0xbe, 0xb8, 0xc6, 0x8f, 0xbd,
  0x9d, 0x08, 0x50, 0x3e, 0x93, 0x7f, 0x12, 0x3f, 0x17, 0x39, 0xea, 0x3e,
  0xfa, 0x6b, 0x09, 0x3f, 0x23, 0xa2, 0x80, 0x3e, 0x01, 0xec, 0xdd, 0x3d,
  0x56, 0xcc, 0xc7, 0xbd, 0x69, 0xe0, 0x0b, 0xbe, 0x09, 0xa4, 0x23, 0xbd,
  0x3f, 0x3d, 0x05, 0x3e, 0xb6, 0x05, 0xff, 0x3e, 0x1e, 0xbb, 0x43, 0x3e,
  0xf8, 0xa3, 0x48, 0xbe, 0xa6, 0x27, 0xf1, 0x3e, 0x94, 0x2d, 0x31, 0xbc,
  0xab, 0xfc, 0x61, 0x3e, 0x38, 0x54, 0xca, 0x3d, 0x36, 0xb0, 0x26, 0x3d,
  0x8f, 0x19, 0x1d, 0x3d, 0x1c, 0xe8, 0xdd, 0x3d, 0xcd, 0x3f, 0x84, 0xbc,
  0x86, 0xd5, 0x80, 0x3d, 0x87, 0x1e, 0xac, 0x3d, 0xb1, 0x94, 0x66, 0xbe,
  0xb5, 0x5d, 0xa4, 0x3e, 0xb6, 0x06, 0x93, 0xbe, 0x87, 0x0d, 0xd0, 0xbd,
  0xb5, 0x14, 0xe9, 0xbe, 0x15, 0x1a, 0xc8, 0xbd, 0x02, 0xa2, 0x36, 0x3e,
  0x7e, 0xce, 0xbc, 0x3c, 0xbc, 0x29, 0x7d, 0x3e, 0xd4, 0x30, 0x82, 0xbe,
  0xe4, 0x92, 0x2e, 0x3f, 0x28, 0x9e, 0xe8, 0x3e, 0x33, 0xb7, 0x3e, 0x3d,
  0x75, 0x5b, 0x65, 0x3e, 0xa1, 0xf9, 0x98, 0xbd, 0x41, 0x43, 0x15, 0xbd,
  0xbb, 0x53, 0x85, 0xbe, 0x8f, 0x2c, 0xca, 0xbe, 0x7e, 0x8c, 0x87, 0x3e,
  0x74, 0xb0, 0x2c, 0x3e, 0xb2, 0xae, 0x28, 0xbf, 0xdc, 0xab, 0xa7, 0xbd,
  0x01, 0x59, 0xa0, 0xbe, 0x9c, 0x88, 0x18, 0xbe, 0x4d, 0xf4, 0x64, 0x3d,
  0xc3, 0x81, 0x8b, 0x3d, 0x10, 0x63, 0xbc, 0xbd, 0x2b, 0xdb, 0xa8, 0x3c,
  0x41, 0x0f, 0x85, 0xbe, 0x97, 0xa2, 0x8e, 0xbe, 0x90, 0x3a, 0xbc, 0xbe,
  0x45, 0x93, 0x38, 0xbe, 0x9c, 0x76, 0x59, 0x3e, 0x42, 0xd4, 0x3d, 0x3e,
  0x63, 0xb5, 0x5a, 0x3d, 0x17, 0x9c, 0x89, 0x3d, 0x8f, 0xb4, 0x6b, 0x3e,
  0x19, 0xa4, 0x94, 0xbe, 0x06, 0x5d, 0x88, 0xbe, 0x58, 0xc7, 0x78, 0x3e,
  0xa8, 0x3c, 0xa5, 0xbe, 0x79, 0x95, 0x77, 0xbe, 0x22, 0xcb, 0xe6, 0xbd,
  0x1f, 0x01, 0x0a, 0xbe, 0x1b, 0xd3, 0x99, 0x3d, 0x2e, 0xb0, 0xc9, 0xbe,
  0xa9, 0x8b, 0x3b, 0xbe, 0x7b, 0xf8, 0x15, 0x3e, 0xe6, 0x7c, 0xeb, 0xbd,
  0x34, 0x4a, 0x8c, 0xbe, 0x48, 0xe6, 0x8a, 0x3e, 0x14, 0x88, 0xc6, 0xbe,
  0x71, 0xfb, 0x79, 0xbd, 0x70, 0xdd, 0xd1, 0x3e, 0xd1, 0x41, 0x76, 0xbe,
  0x1a, 0x2b, 0xb2, 0xbe, 0x6f, 0xb2, 0x04, 0xbd, 0x5c, 0xb0, 0x9d, 0x3e,
  0x04, 0x6d, 0xf4, 0xbd, 0x9d, 0x65, 0xcc, 0xbd, 0x3d, 0x3d, 0x99, 0xbd,
  0x25, 0xc1, 0x9c, 0xbe, 0x99, 0x2f, 0xfa, 0xbe, 0x79, 0x1a, 0xae, 0x3d,
  0x27, 0x2c, 0x37, 0x3e, 0x09, 0x25, 0xc2, 0x3e, 0xa9, 0x0b, 0x15, 0xbe,
  0x04, 0x6b, 0x4c, 0x3d, 0xc7, 0x55, 0xdd, 0xbe, 0x3c, 0x3c, 0xf2, 0xbc,
  0x10, 0xd1, 0x93, 0xbe, 0xd7, 0x69, 0x9f, 0xbe, 0x2d, 0x86, 0x1a, 0x3f,
  0xf6, 0xdc, 0x18, 0x3f, 0xd9, 0x93, 0x14, 0x3b, 0x85, 0x07, 0x08, 0xbe,
  0x4d, 0xff, 0x5a, 0x3c, 0xbd, 0xb3, 0xef, 0xbd, 0xd5, 0x91, 0xa1, 0xbe,
  0xe4, 0xf8, 0xfd, 0xbe, 0x1b, 0x68, 0xbd, 0xbc, 0x66, 0x02, 0x9f, 0x3e,
  0x9a, 0xbe, 0x94, 0x3e, 0x6b, 0x4c, 0xa6, 0xbd, 0x52, 0x90, 0x53, 0x3e,
  0x23, 0x19, 0x89, 0xbe, 0x46, 0x70, 0xcc, 0x3e, 0x2f, 0x70, 0x71, 0x3e,
  0x61, 0xa7, 0x2a, 0x3d, 0xc6, 0x89, 0x46, 0xbe, 0x9f, 0xac, 0x9b, 0x3e,
  0xa7, 0xc3, 0xab, 0xbe, 0xef, 0x96, 0xae, 0x3e, 0xfb, 0x6a, 0x14, 0xbf,
  0x63, 0x7d, 0x06, 0xbe, 0x2b, 0xe1, 0x47, 0x3e, 0x1c, 0x4c, 0x89, 0x3d,
  0x31, 0x12, 0x84, 0xbc, 0x9b, 0x14, 0xc1, 0x3e, 0x01, 0xf2, 0xde, 0xbe,
  0x52, 0x1b, 0xb3, 0xba, 0xbf, 0x84, 0xf3, 0x3e, 0x95, 0x0e, 0xa1, 0x3e,
  0x0b, 0x48, 0x37, 0x3c, 0xce, 0xbe, 0x62, 0xbe, 0x94, 0x06, 0xc2, 0xbc,
  0x58, 0x70, 0xcd, 0xbd, 0xa2, 0xf0, 0xe6, 0x3d, 0xb2, 0x8a, 0x21, 0x3f,
  0xcd, 0x2e, 0x81, 0xbd, 0x4e, 0x57, 0xec, 0xbe, 0x82, 0x20, 0xc7, 0x3e,
  0x7a, 0x98, 0x2b, 0x3e, 0xe2, 0x93, 0xb9, 0x3e, 0x9c, 0xe4, 0x95, 0x3e,
  0x30, 0xfa, 0x50, 0xbe, 0xd7, 0xc8, 0x80, 0xbd, 0x1e, 0xef, 0x26, 0x3d,
  0x81, 0x80, 0xaa, 0xbe, 0x33, 0x2b, 0x82, 0xbe, 0x3d, 0xac, 0x1c, 0x3c,
  0xf1, 0xd6, 0x26, 0x3e, 0x1d, 0x2c, 0xa1, 0x3e, 0xc4, 0x25, 0x39, 0x3e,
  0x54, 0x57, 0xce, 0x3e, 0x48, 0x4a, 0xb1, 0x3e, 0x95, 0xe1, 0x8e, 0xbe,
  0x2a, 0x85, 0x04, 0xbe, 0xe5, 0x27, 0x1a, 0xbe, 0x0c, 0x1a, 0x64, 0xbe,
  0xfb, 0x47, 0x31, 0x3e, 0x7b, 0x0e, 0x82, 0x3e, 0x6d, 0xdf, 0x9e, 0x3e,
  0x07, 0x10, 0x1c, 0x3d, 0x48, 0x18, 0x0f, 0x3e, 0xcc, 0x97, 0x7c, 0x3d,
  0x03, 0x76, 0xfc, 0x3e, 0x78, 0x65, 0x81, 0xbd, 0x40, 0xf0, 0x38, 0x3e,
  0xb0, 0x4a, 0xef, 0xbe, 0x35, 0xba, 0x9b, 0xbc, 0x6b, 0xb1, 0xe4, 0xbe,
  0x9b, 0xef, 0x05, 0xbe, 0xba, 0x7d, 0xd6, 0xbd, 0x85, 0xc6, 0x88, 0x3e,
  0x74, 0x52, 0xb5, 0x3e, 0x4d, 0xa5, 0x5e, 0xbe, 0x8f, 0x6d, 0xe2, 0x3d,
  0xd3, 0x6d, 0xc0, 0xbd, 0xdb, 0xa4, 0x1a, 0xbe, 0xb1, 0x49, 0x16, 0x3c,
  0x91, 0x08, 0x99, 0x3e, 0x81, 0x7d, 0xfa, 0x3a, 0x97, 0x93, 0xb4, 0xbe,
  0xde, 0xb9, 0xbb, 0x3d, 0xf6, 0xe6, 0x19, 0x3d, 0xab, 0xdc, 0xee, 0x3d,
  0x18, 0x26, 0x49, 0xbe, 0xeb, 0x8d, 0x0a, 0x3e, 0x20, 0xbe, 0xe1, 0xbc,
  0xb2, 0x3b, 0xab, 0x3d, 0x0c, 0x8f, 0xe7, 0xbd, 0x0c, 0x22, 0xbc, 0x3e,
  0xc5, 0x19, 0xf4, 0xbe, 0x0d, 0xd4, 0xea, 0xbd, 0x27, 0x59, 0x81, 0xbe,
  0xd8, 0x8e, 0x84, 0xbe, 0x8e, 0xf3, 0xd7, 0x3d, 0x02, 0xa5, 0x84, 0x3d,
  0x18, 0xcc, 0x68, 0xbe, 0xfd, 0x5a, 0x7d, 0xbd, 0xe1, 0x46, 0x33, 0x3e,
  0x64, 0x84, 0xee, 0x3d, 0x17, 0xaa, 0x2a, 0xbe, 0x7a, 0xaf, 0xa5, 0xbd,
  0xe9, 0xf0, 0xbf, 0xbe, 0xe9, 0x13, 0x75, 0x3e, 0xf0, 0x21, 0x8e, 0xbd,
  0x13, 0xff, 0xc7, 0xbd, 0xc3, 0x5a, 0x04, 0x3e, 0x42, 0x62, 0x80, 0xbe,
  0xb9, 0x66, 0x82, 0xbc, 0xd7, 0xe4, 0x0c, 0x3d, 0x47, 0x17, 0x81, 0xbd,
  0xf5, 0xf0, 0x46, 0x3e, 0x3c, 0xe6, 0x64, 0xbe, 0x67, 0x99, 0x7a, 0xbe,
  0x14, 0xcb, 0x45, 0x3e, 0x1d, 0x1c, 0xbc, 0x3c, 0x5b, 0xf8, 0x0b, 0x3c,
  0xa0, 0xab, 0x52, 0xbe, 0xe2, 0x83, 0x51, 0x3e, 0xdf, 0xa0, 0x43, 0xbe,
  0x73, 0x63, 0xd5, 0xbd, 0x3d, 0x1f, 0x02, 0x3d, 0x11, 0xe2, 0x2d, 0x3e,
  0x83, 0x75, 0xfc, 0xbb, 0x8d, 0x44, 0x8a, 0xbe, 0x7b, 0x3f, 0xab, 0x3c,
  0x3b, 0x70, 0x01, 0xbe, 0xce, 0x4a, 0xab, 0x3d, 0x2e, 0x3d, 0xd1, 0x3c,
  0xf8, 0x88, 0x2e, 0xbe, 0x93, 0xcc, 0x51, 0xbc, 0xd9, 0x6a, 0x93, 0xbe,
  0xbc, 0x55, 0xb4, 0xbe, 0xb9, 0x30, 0xae, 0x3d, 0x63, 0x38, 0x77, 0xbd,
  0x30, 0xf3, 0xaf, 0xbd, 0x9e, 0x55, 0x1b, 0xbe, 0x97, 0x55, 0x36, 0xbe,
  0x18, 0xd2, 0x24, 0x3f, 0x3b, 0xf8, 0x29, 0x3f, 0x6d, 0x17, 0x01, 0xbe,
  0x97, 0xe3, 0x86, 0x3d, 0x45, 0x15, 0xa0, 0x3e, 0xbb, 0x04, 0x29, 0xbe,
  0x03, 0xff, 0x03, 0xbe, 0x99, 0x82, 0xe6, 0xbd, 0xcb, 0xc3, 0x24, 0xbc,
  0x18, 0x96, 0x98, 0x3e, 0x53, 0x4f, 0xa9, 0x3e, 0x8c, 0x46, 0x99, 0x3e,
  0x42, 0x90, 0x25, 0x3f, 0x53, 0xc4, 0x95, 0x3a, 0xb0, 0xee, 0xcf, 0x3e,
  0xe4, 0xe5, 0x9f, 0xbe, 0xfd, 0x5e, 0x66, 0xbe, 0x63, 0xd8, 0x22, 0xbf,
  0x4e, 0xa5, 0x93, 0x3d, 0x2d, 0x07, 0xbb, 0x3c, 0x7b, 0xa3, 0xc5, 0xbe,
  0xaf, 0x3a, 0x37, 0xbe, 0xa4, 0x44, 0x24, 0x3f, 0x21, 0xa7, 0x64, 0x3e,
  0xbc, 0x3e, 0xdf, 0x3e, 0x4e, 0x54, 0xb5, 0xbd, 0xfc, 0x92, 0x33, 0x3f,
  0xd6, 0xf6, 0xcd, 0x3e, 0x77, 0x85, 0x59, 0xbe, 0x0d, 0xef, 0x65, 0x3e,
  0xe3, 0xab, 0xb1, 0xbe, 0x0b, 0xd4, 0x2c, 0xbe, 0xe5, 0x2c, 0xbd, 0x3e,
  0x07, 0x57, 0x22, 0x3f, 0xbd, 0x14, 0x98, 0x3e, 0xa3, 0x38, 0x1e, 0x3d,
  0x32, 0xf2, 0xe0, 0xbe, 0xdd, 0x4e, 0x1e, 0xbe, 0xb6, 0xab, 0x04, 0x3e,
  0x89, 0x24, 0x81, 0xbd, 0x2a, 0xe3, 0x38, 0x3e, 0xc3, 0xa0, 0x88, 0xbd,
  0x86, 0xfe, 0xbb, 0x3e, 0x00, 0x0e, 0x1c, 0x3f, 0x59, 0xcd, 0x85, 0xbe,
  0x4a, 0x54, 0x52, 0x3e, 0xf9, 0x91, 0x83, 0x3e, 0x5a, 0x17, 0x97, 0x3e,
  0xa7, 0x17, 0x1e, 0xbe, 0xee, 0x7c, 0x90, 0x3e, 0x60, 0xb8, 0xf1, 0x3e,
  0x07, 0xf7, 0x7d, 0xbc, 0x9b, 0x52, 0x53, 0x3e, 0x0f, 0xd3, 0x37, 0x3e,
  0x07, 0x50, 0x67, 0x3e, 0x08, 0x4e, 0xdd, 0x3e, 0xd8, 0xa2, 0x12, 0x3f,
  0x33, 0xd8, 0xf6, 0x3e, 0x73, 0xec, 0xdd, 0x3e, 0x12, 0xc4, 0x74, 0xbd,
  0xaa, 0xf1, 0x05, 0x3f, 0x96, 0x7a, 0xda, 0xbb, 0x65, 0xce, 0xf4, 0xbd,
  0x0c, 0x1e, 0x82, 0x3d, 0x78, 0x46, 0x06, 0x3f, 0x53, 0x9a, 0xd8, 0xbd,
  0xef, 0xe6, 0xe2, 0x3d, 0x74, 0xed, 0x1c, 0x3e, 0x7c, 0xa5, 0x87, 0x3e,
  0x07, 0x19, 0xf7, 0x3d, 0x08, 0xac, 0xcb, 0xbc, 0xc3, 0x31, 0x64, 0x3e,
  0x0a, 0x9d, 0xfb, 0x3e, 0x9d, 0xd4, 0x34, 0xbe, 0x6e, 0x14, 0x40, 0x3e,
  0x31, 0x87, 0x02, 0x3f, 0xc8, 0x58, 0xeb, 0x3c, 0xa7, 0x25, 0x61, 0xbc,
  0x55, 0x1c, 0x62, 0x3d, 0xcf, 0x71, 0x41, 0xbe, 0xa5, 0x7b, 0x80, 0x3d,
  0x61, 0x15, 0x84, 0x3e, 0x25, 0x61, 0x06, 0xbe, 0x17, 0x9a, 0x83, 0x3d,
  0x6e, 0x92, 0x2c, 0x3e, 0x2f, 0x76, 0xd8, 0x3e, 0x01, 0xbe, 0x40, 0xbe,
  0xc5, 0xa7, 0x56, 0x3e, 0x76, 0x8b, 0xf7, 0x3d, 0x4b, 0xc5, 0x16, 0xbe,
  0x54, 0x86, 0x65, 0x3e, 0x01, 0x1f, 0x32, 0x3c, 0x32, 0xee, 0x42, 0x3e,
  0xdc, 0x43, 0x8f, 0xbe, 0xaa, 0xa3, 0x84, 0xbe, 0x76, 0x3c, 0x8f, 0xbc,
  0x81, 0x07, 0x3d, 0x3d, 0xb6, 0xb7, 0x8a, 0xbd, 0x07, 0xda, 0x97, 0x3e,
  0x0a, 0xa4, 0x0d, 0xbd, 0x25, 0xdd, 0x2c, 0xbe, 0x4f, 0x93, 0xa5, 0x3d,
  0x54, 0xea, 0x3d, 0x3c, 0x82, 0x29, 0xbb, 0x3d, 0x14, 0xc1, 0x43, 0x3e,
  0x1e, 0xc5, 0x09, 0x3e, 0x16, 0x27, 0xf1, 0xbc, 0x58, 0x17, 0x08, 0x3c,
  0xd5, 0xd4, 0x80, 0xbd, 0xe0, 0xe7, 0x6d, 0xbc, 0x25, 0xd1, 0xd3, 0xbd,
  0x65, 0x21, 0xc9, 0x3d, 0x10, 0x7f, 0xcd, 0x3d, 0x76, 0xdc, 0x05, 0x3e,
  0x82, 0xff, 0x6d, 0xbe, 0x00, 0x6d, 0xa0, 0x3e, 0x3f, 0x65, 0xb6, 0x3e,
  0xf9, 0x13, 0xcb, 0x3e, 0x33, 0xeb, 0xf0, 0xbd, 0xf6, 0x70, 0x88, 0x3c,
  0x8a, 0x0a, 0xdb, 0xbd, 0xf5, 0x73, 0x90, 0x3e, 0xa1, 0x11, 0xc4, 0xbe,
  0xaf, 0xfd, 0x9d, 0xbe, 0xe4, 0x7a, 0x25, 0xbe, 0x76, 0x8f, 0xcc, 0x3d,
  0x59, 0x5f, 0x00, 0xbe, 0xec, 0x79, 0xfc, 0xbd, 0x07, 0x9a, 0xeb, 0xbd,
  0x2f, 0x36, 0x78, 0xbe, 0x37, 0xe6, 0x54, 0x3e, 0x68, 0x9a, 0xc8, 0xba,
  0xa0, 0x00, 0x28, 0x3e, 0xc1, 0x7f, 0x9a, 0x3d, 0xeb, 0x09, 0x80, 0xbe,
  0x85, 0x5e, 0x6b, 0x3e, 0x5d, 0x9e, 0x87, 0x3e, 0x69, 0xc0, 0x8d, 0x3c,
  0xb0, 0xea, 0x6e, 0x3c, 0x1f, 0x3a, 0x47, 0x3d, 0x20, 0xcf, 0x79, 0xbd,
  0x0f, 0x6c, 0xe1, 0x3b, 0xba, 0x27, 0xd3, 0xbe, 0x8c, 0xd5, 0x96, 0x3e,
  0x8a, 0xcf, 0x05, 0x3f, 0x72, 0x0f, 0x2f, 0x3f, 0x97, 0x01, 0xeb, 0xbd,
  0x1d, 0xd8, 0x71, 0x3e, 0x9a, 0xe1, 0x2a, 0x3f, 0xa5, 0x97, 0x22, 0xbf,
  0x26, 0x7b, 0x0a, 0xbe, 0xc6, 0x05, 0xc0, 0xbb, 0x12, 0xd9, 0xe9, 0x3d,
  0x08, 0xe4, 0x52, 0x3e, 0xec, 0x0a, 0xca, 0x3e, 0x15, 0x01, 0x8f, 0x3e,
  0xad, 0x0e, 0x1b, 0x3e, 0x64, 0x1a, 0x0f, 0xbc, 0x4d, 0x98, 0x6e, 0x3e,
  0x22, 0x49, 0x04, 0xbf, 0x34, 0x58, 0x50, 0xbe, 0x8e, 0x50, 0x0f, 0xbf,
  0x0a, 0x81, 0x11, 0x3f, 0xee, 0xe2, 0x06, 0x3e, 0x5f, 0x81, 0xdc, 0xbe,
  0xbb, 0xcd, 0x32, 0xbe, 0xda, 0xce, 0xd2, 0x3e, 0xf6, 0x71, 0x65, 0xbe,
  0xe0, 0x29, 0x05, 0x3f, 0xe2, 0x87, 0xde, 0xbe, 0x56, 0x88, 0x20, 0x3f,
  0x67, 0x0b, 0xea, 0x3e, 0x8f, 0x23, 0xb7, 0xbc, 0xa8, 0xce, 0x11, 0xbe,
  0x70, 0x8e, 0xad, 0x3d, 0x8b, 0xb2, 0x58, 0x3e, 0x72, 0x5d, 0xe3, 0x3e,
  0xaa, 0x29, 0x1b, 0x3f, 0xb5, 0xe9, 0x6b, 0x3e, 0x31, 0x98, 0xd4, 0xbd,
  0x43, 0x64, 0xd2, 0xbe, 0x0f, 0xf4, 0x5b, 0xbc, 0x39, 0x90, 0x46, 0x3e,
  0xf0, 0x4e, 0x3e, 0xbc, 0x88, 0x44, 0x0e, 0x3e, 0x96, 0x03, 0x81, 0xbe,
  0xc8, 0x41, 0xa3, 0x3e, 0xf8, 0x66, 0xd2, 0x3e, 0x93, 0x4e, 0xcf, 0xbe,
  0x6c, 0xb1, 0xac, 0x3c, 0xf9, 0x8d, 0xac, 0x3e, 0x1b, 0x57, 0xc5, 0x3d,
  0x43, 0x51, 0x99, 0xbd, 0xad, 0x99, 0xbf, 0xbe, 0xbe, 0xc8, 0xfa, 0xbd,
  0xbd, 0x69, 0x22, 0xbe, 0xbe, 0x8a, 0x75, 0x3d, 0x1f, 0x2c, 0xd9, 0x3d,
  0xdd, 0x22, 0x0e, 0xbd, 0x52, 0xd6, 0xaf, 0xbe, 0x98, 0x4c, 0xd9, 0x3d,
  0xc5, 0xa7, 0x23, 0xbe, 0xb4, 0x95, 0xa8, 0xbd, 0x25, 0xd0, 0xc5, 0xbe,
  0x30, 0xf9, 0x99, 0xbe, 0x28, 0xad, 0x07, 0x3f, 0x01, 0x0b, 0x78, 0x3e,
  0x64, 0xb0, 0x36, 0x3e, 0x14, 0x59, 0xe9, 0xbd, 0x4f, 0xf1, 0x88, 0xbe,
  0x8d, 0x23, 0x96, 0xbe, 0xa1, 0xb6, 0xd6, 0xbd, 0x21, 0xcb, 0x9e, 0x3d,
  0x2a, 0xf0, 0xd7, 0xbe, 0x16, 0x1c, 0x0a, 0x3e, 0x88, 0x3d, 0x72, 0xbe,
  0x0e, 0x58, 0x83, 0xbe, 0x76, 0x9c, 0xb2, 0x3d, 0xd0, 0x10, 0x06, 0x3e,
  0xe5, 0xca, 0x3b, 0xbe, 0x10, 0x8c, 0x9d, 0xbe, 0x55, 0xb8, 0x23, 0xbe,
  0x67, 0xfb, 0x58, 0xbd, 0xd6, 0x83, 0x66, 0x3e, 0xe1, 0xc6, 0x2e, 0xbe,
  0x2b, 0xae, 0x56, 0xbe, 0x59, 0xc9, 0x4d, 0x3e, 0x3c, 0x07, 0x09, 0xbd,
  0xfc, 0x02, 0xb0, 0xbe, 0x44, 0x8c, 0x83, 0xbe, 0xe8, 0x92, 0x33, 0x3e,
  0x9b, 0xdd, 0xf6, 0xbe, 0xf8, 0x0b, 0x9a, 0xbd, 0x76, 0x3c, 0x19, 0x3e,
  0x24, 0x39, 0xa5, 0xbe, 0x9d, 0x56, 0xe2, 0xbe, 0x77, 0x63, 0x23, 0x3e,
  0x92, 0x5d, 0x40, 0xbe, 0x86, 0x45, 0xad, 0x3e, 0xe9, 0x87, 0x00, 0xbe,
  0x1f, 0x0a, 0x37, 0x3e, 0xda, 0xc9, 0xf4, 0x3e, 0xc9, 0x10, 0x67, 0x3e,
  0xea, 0xc2, 0xee, 0x3e, 0xba, 0x1b, 0x1c, 0x3f, 0xe0, 0x72, 0x22, 0xbf,
  0xbf, 0xdc, 0x6c, 0xbe, 0x27, 0x53, 0x7c, 0x3e, 0x59, 0xcf, 0xf9, 0x3d,
  0x71, 0xdf, 0x9f, 0x3e, 0x6a, 0x36, 0x52, 0x3d, 0x77, 0x14, 0xb7, 0x3e,
  0xf8, 0x6b, 0x7e, 0x3e, 0x61, 0x64, 0x74, 0x3e, 0x21, 0x59, 0xba, 0x3e,
  0xc9, 0x70, 0xd1, 0xbe, 0x42, 0x4b, 0x1e, 0x3e, 0xe2, 0xf5, 0x38, 0xbf,
  0x82, 0x6e, 0x8b, 0x3e, 0x64, 0x4d, 0x5f, 0x3c, 0xc7, 0x80, 0xff, 0xbe,
  0x47, 0x4f, 0x8e, 0x3d, 0x89, 0xcf, 0x16, 0x3f, 0xa2, 0x99, 0x80, 0x3c,
  0x41, 0xee, 0x45, 0x3e, 0xb2, 0xc8, 0xfa, 0xb9, 0x1d, 0x7a, 0x25, 0x3f,
  0x32, 0xd4, 0xa3, 0x3e, 0x27, 0x28, 0x72, 0xbe, 0x77, 0xee, 0xb7, 0x3d,
  0x2e, 0x1b, 0x5f, 0xbe, 0xe7, 0x27, 0x4f, 0xbe, 0x41, 0x49, 0xc2, 0x3e,
  0x01, 0x70, 0xd3, 0x3e, 0xe7, 0x0f, 0x79, 0x3e, 0x91, 0xc3, 0x7f, 0xbd,
  0x94, 0xa2, 0x26, 0xbe, 0x0f, 0xf4, 0x1a, 0xbe, 0x2e, 0x0a, 0xaa, 0x3e,
  0x14, 0xa2, 0x84, 0x3c, 0x6a, 0xf0, 0x60, 0x3e, 0xf7, 0x77, 0x08, 0xbe,
  0x8b, 0xab, 0x05, 0x3f, 0xba, 0x6d, 0x96, 0x3e, 0x85, 0x69, 0x8e, 0xbe,
  0x73, 0xc7, 0x3e, 0x3e, 0xe3, 0x26, 0xdb, 0x3e, 0xe0, 0x79, 0x83, 0x3e,
  0x15, 0xf3, 0xd8, 0x3e, 0x45, 0x8c, 0xda, 0x3e, 0xf3, 0xac, 0x91, 0x3e,
  0x9b, 0x3f, 0xbc, 0x3e, 0x48, 0xeb, 0xc5, 0x3e, 0xbb, 0xfb, 0xce, 0xbe,
  0x85, 0x75, 0x14, 0xbb, 0xac, 0x70, 0xe9, 0xbd, 0xe3, 0x90, 0x19, 0xba,
  0x13, 0x64, 0xd2, 0x3d, 0xbd, 0xfb, 0xbe, 0x3e, 0x07, 0x5f, 0x89, 0x3e,
  0x8b, 0x3d, 0x21, 0x3f, 0x3f, 0xbb, 0x3b, 0xbe, 0x63, 0x59, 0x97, 0x3d,
  0xc5, 0xdd, 0x06, 0xbf, 0x7e, 0x77, 0x29, 0xbe, 0x8a, 0x2e, 0x08, 0xbf,
  0x59, 0x51, 0xef, 0x3d, 0x6a, 0xf9, 0x77, 0xbe, 0xfc, 0x55, 0x86, 0xbe,
  0xb9, 0xe3, 0xd0, 0x3d, 0xf3, 0xff, 0xba, 0x3e, 0xbc, 0x20, 0x06, 0x3e,
  0xba, 0x96, 0x02, 0x3f, 0x2b, 0x9e, 0x52, 0xbe, 0xcb, 0x99, 0xa3, 0x3e,
  0x26, 0x54, 0x18, 0x3f, 0xa7, 0x04, 0xc2, 0xbe, 0xb7, 0x0c, 0x76, 0x3d,
  0x1b, 0x71, 0x02, 0xbe, 0x21, 0x16, 0xe0, 0x3c, 0x6a, 0x28, 0xe5, 0x3e,
  0x78, 0x64, 0x13, 0x3f, 0x40, 0x0b, 0x50, 0xbe, 0xbb, 0x7c, 0xb2, 0x3d,
  0x97, 0x4d, 0x7a, 0xbe, 0xfb, 0xb6, 0xef, 0x3d, 0x0c, 0x09, 0xc0, 0x3e,
  0x4c, 0xef, 0x45, 0xbe, 0xfc, 0x27, 0xba, 0xbd, 0xb3, 0x0f, 0x17, 0xbe,
  0xd0, 0x42, 0xef, 0x3e, 0x5e, 0xde, 0x5a, 0x3e, 0xfd, 0x5f, 0x9c, 0xbe,
  0x64, 0x9c, 0x3a, 0xbe, 0xec, 0xf4, 0x4f, 0x3e, 0xec, 0xcc, 0xa8, 0x3e,
  0xda, 0xae, 0xf7, 0xbd, 0x53, 0x73, 0xde, 0xbd, 0x1a, 0x57, 0xdd, 0x3c,
  0x3a, 0x09, 0x2d, 0xbe, 0xfc, 0x0b, 0xa2, 0xbd, 0x46, 0x8b, 0xa4, 0x3e,
  0xab, 0x46, 0x55, 0x3d, 0xd4, 0x5d, 0x07, 0x3f, 0x31, 0x2b, 0xbb, 0x3e,
  0x0c, 0x84, 0x5f, 0x3e, 0x20, 0x2d, 0x3c, 0x3e, 0xe0, 0x14, 0x81, 0xbd,
  0x0e, 0x1b, 0x76, 0xbe, 0x71, 0x4d, 0x5c, 0xbd, 0xa1, 0x14, 0xb3, 0xbe,
  0xfa, 0xea, 0xdb, 0x3d, 0x0a, 0x88, 0xab, 0x3e, 0xd3, 0x1c, 0xb9, 0x3d,
  0xac, 0xd8, 0x50, 0x3c, 0xd0, 0x58, 0x4e, 0x3e, 0x7d, 0x13, 0xf0, 0xbd,
  0x60, 0x0a, 0xd0, 0x3d, 0xc0, 0x81, 0x75, 0xbe, 0xf9, 0x4e, 0x13, 0xbe,
  0xec, 0x3d, 0x24, 0xbe, 0xc1, 0xf9, 0x2d, 0xbe, 0x43, 0x56, 0xc2, 0xbe,
  0x81, 0xc8, 0x5e, 0xbe, 0xe7, 0x07, 0x86, 0x3e, 0x92, 0xf4, 0x3d, 0x3e,
  0x3b, 0x36, 0xc7, 0x3e, 0xce, 0xf5, 0x8e, 0xbd, 0xa6, 0xcc, 0x16, 0xbe,
  0xce, 0x98, 0x3c, 0xbe, 0xc1, 0x12, 0x8c, 0x3d, 0xb7, 0x0e, 0x06, 0xbe,
  0x2d, 0x1a, 0x8e, 0x3e, 0xb4, 0xc0, 0x0b, 0x3f, 0x3c, 0xe0, 0xcd, 0x3d,
  0xd9, 0xcd, 0x0a, 0x3f, 0x13, 0x1f, 0x91, 0x3e, 0x71, 0x26, 0xd8, 0x3d,
  0xc8, 0x44, 0x9e, 0xbd, 0x4a, 0xf1, 0xcf, 0x3d, 0x52, 0xdf, 0x07, 0x3e,
  0x22, 0x59, 0x87, 0xbe, 0x03, 0xc6, 0xbd, 0xbe, 0xd6, 0x51, 0x9a, 0x3d,
  0x85, 0x2a, 0x92, 0xbd, 0x23, 0x45, 0xb2, 0xbc, 0xd9, 0x29, 0x79, 0xbe,
  0x14, 0x6c, 0xd9, 0xbd, 0x47, 0x73, 0x3b, 0xbd, 0x05, 0xea, 0x22, 0xbe,
  0x75, 0x7e, 0x96, 0xbe, 0x96, 0x61, 0xd9, 0xbd, 0x02, 0xd5, 0x66, 0xbe,
  0x6e, 0xb5, 0x67, 0xbe, 0x7f, 0x24, 0x4b, 0x3e, 0xaa, 0x17, 0x15, 0xbe,
  0xe4, 0x64, 0xd9, 0xbb, 0x6e, 0xc7, 0x08, 0xbe, 0x1a, 0x3e, 0x7e, 0xbe,
  0xdd, 0xc5, 0x93, 0xbe, 0x41, 0x6f, 0x2c, 0xbe, 0x26, 0x6a, 0x58, 0x3e,
  0x10, 0xed, 0x18, 0xbe, 0x23, 0x71, 0x5d, 0xbc, 0x57, 0xa0, 0x68, 0x3e,
  0x15, 0x11, 0x3e, 0xbd, 0x14, 0x6e, 0x25, 0xbe, 0xa1, 0xd2, 0x63, 0xbd,
  0xba, 0xb6, 0x77, 0xbe, 0x6f, 0x5a, 0x95, 0xbe, 0x34, 0xb3, 0x87, 0xbd,
  0xbf, 0x66, 0x71, 0x3e, 0x5e, 0x1c, 0x63, 0xbe, 0x3b, 0x5a, 0x74, 0x3e,
  0xab, 0x1b, 0x46, 0xbe, 0x5c, 0x6f, 0xdc, 0x3d, 0x4c, 0xc3, 0x06, 0xbe,
  0x1b, 0x32, 0xb0, 0xbd, 0x18, 0x80, 0x3a, 0xbe, 0x55, 0x9e, 0x2c, 0xbe,
  0x4f, 0x3e, 0x8f, 0xbe, 0x28, 0x0d, 0x1e, 0x3e, 0x66, 0x9c, 0xf6, 0xbd,
  0x19, 0x04, 0xf2, 0x3d, 0x1f, 0x3f, 0x78, 0xbe, 0x72, 0xeb, 0x26, 0x3a,
  0xbb, 0xed, 0x2c, 0xbe, 0x73, 0x50, 0x1f, 0x3d, 0x4b, 0x65, 0xe4, 0x3d,
  0xc1, 0xd0, 0x00, 0x3e, 0x16, 0x2d, 0x9a, 0x3d, 0x31, 0x85, 0xc8, 0x3c,
  0x6c, 0xe1, 0x5a, 0x3d, 0x2f, 0x61, 0x35, 0x3e, 0x29, 0x92, 0xa8, 0x3e,
  0x1b, 0xe9, 0xcc, 0x3e, 0xa2, 0xbe, 0x8d, 0x3e, 0xb0, 0xd7, 0x80, 0x3d,
  0xae, 0x80, 0x99, 0xbe, 0x18, 0x60, 0x2a, 0x3e, 0xf5, 0x5a, 0x90, 0x3e,
  0x63, 0x88, 0x9c, 0x3e, 0x5c, 0x74, 0xd5, 0x3e, 0x59, 0xc2, 0x5c, 0x3e,
  0x71, 0xed, 0xfd, 0x3e, 0x02, 0xd3, 0x4c, 0xbe, 0x17, 0xb4, 0x4b, 0xbd,
  0xc9, 0x50, 0x55, 0x3e, 0x42, 0xfb, 0x8a, 0x3d, 0x2e, 0xb0, 0xb7, 0x3c,
  0x95, 0x1f, 0xcc, 0x3e, 0x84, 0xa8, 0x74, 0xbd, 0xa7, 0x4c, 0x0a, 0x3e,
  0x30, 0xc9, 0xb0, 0x3e, 0xa9, 0x7b, 0xbd, 0x3e, 0xbb, 0x59, 0x61, 0xbe,
  0x7b, 0xab, 0x12, 0x3f, 0x20, 0xe5, 0x7a, 0xbe, 0xbd, 0x4d, 0xd9, 0x3e,
  0xf3, 0x3a, 0xab, 0x3e, 0x1f, 0x1d, 0x30, 0xbe, 0x37, 0xf6, 0xd8, 0xbd,
  0x50, 0xe6, 0xbb, 0x3e, 0x79, 0x66, 0x84, 0xbe, 0x2e, 0xd9, 0x0a, 0x3f,
  0x29, 0x12, 0xd5, 0x3e, 0x56, 0x43, 0xe9, 0x3d, 0xf3, 0xfc, 0x21, 0x3e,
  0xaa, 0xb8, 0x16, 0xbe, 0xb5, 0x79, 0x8d, 0x3e, 0xd2, 0x79, 0x04, 0x3e,
  0x7b, 0xdd, 0x68, 0x3e, 0x08, 0x76, 0x68, 0x3e, 0xe4, 0xc1, 0x6d, 0x3d,
  0xc8, 0x24, 0x8e, 0x3e, 0x3f, 0x9c, 0xc4, 0x3e, 0x07, 0x0f, 0x11, 0x3c,
  0xe6, 0x25, 0xbc, 0xbe, 0xa4, 0x66, 0xaf, 0xbe, 0x7b, 0xfd, 0x81, 0x3e,
  0x8d, 0x3c, 0x15, 0x3f, 0x9f, 0x96, 0x95, 0x3c, 0x0e, 0x2e, 0xa4, 0xbe,
  0xb7, 0x08, 0x15, 0x3c, 0x50, 0xcb, 0x80, 0xbe, 0xf2, 0x52, 0x4c, 0x3e,
  0xba, 0x9c, 0x8a, 0x3d, 0x95, 0xac, 0x08, 0xbf, 0x62, 0x23, 0xc2, 0xbe,
  0x9a, 0x56, 0x09, 0xbf, 0x74, 0xdf, 0xaf, 0xbe, 0x15, 0xd8, 0xae, 0xbe,
  0x20, 0xe4, 0x51, 0xbe, 0xd6, 0x51, 0x6d, 0x3e, 0x81, 0xf5, 0x12, 0x3f,
  0xc4, 0xa5, 0xe9, 0x3d, 0xbb, 0x7c, 0xae, 0xbe, 0x75, 0x42, 0x45, 0x3e,
  0x66, 0xd4, 0x93, 0xbe, 0x9b, 0x72, 0xf5, 0xbd, 0x08, 0x51, 0x07, 0x3d,
  0x60, 0x5b, 0x07, 0xbf, 0xc6, 0x8a, 0xe0, 0xbe, 0xb2, 0xa5, 0x6a, 0x3e,
  0xa2, 0xdc, 0x3d, 0xbd, 0x00, 0xf8, 0x2e, 0x3e, 0x93, 0x93, 0x2a, 0xbe,
  0xbc, 0x41, 0x9e, 0xbe, 0xb9, 0x7c, 0xe6, 0x3d, 0xb8, 0x15, 0xd1, 0xbd,
  0x99, 0xe0, 0x0b, 0xbd, 0x2c, 0x7f, 0x10, 0x3f, 0x6c, 0x50, 0x8d, 0xbc,
  0x44, 0x5d, 0xb1, 0x3e, 0xce, 0x54, 0xb4, 0x3e, 0xf7, 0xa5, 0x77, 0x3e,
  0xcd, 0x8b, 0x52, 0xbe, 0x51, 0xeb, 0xfd, 0xbe, 0x8f, 0xcf, 0x15, 0x3f,
  0xb9, 0x9f, 0x2d, 0xbe, 0xbe, 0x85, 0xbd, 0xbe, 0xce, 0x7a, 0x63, 0x3e,
  0xee, 0x5f, 0x02, 0x3e, 0xe5, 0xf7, 0xfd, 0xbd, 0x10, 0x68, 0x0f, 0x3e,
  0x2e, 0xee, 0xf2, 0x3e, 0xb2, 0xf9, 0x28, 0x3f, 0x77, 0x0a, 0x52, 0xbd,
  0x92, 0x22, 0x8a, 0x3d, 0x46, 0x55, 0x01, 0xbf, 0xa7, 0xe0, 0xf0, 0x3c,
  0xd6, 0xa7, 0x78, 0xbe, 0xb9, 0x90, 0x3f, 0xbe, 0xda, 0x80, 0x04, 0x3f,
  0x90, 0x85, 0x02, 0xbe, 0xff, 0x6b, 0x2c, 0x3e, 0x6c, 0xaf, 0xc4, 0x3e,
  0x16, 0x14, 0xcb, 0xbd, 0xb3, 0x23, 0x8f, 0x3e, 0x2e, 0x6b, 0xae, 0x3a,
  0x47, 0x88, 0x1b, 0xbe, 0x0a, 0xed, 0x5d, 0x3e, 0x5b, 0x4d, 0xf2, 0x3c,
  0x3b, 0xc9, 0xf2, 0x3e, 0x90, 0x40, 0x85, 0x3e, 0x19, 0x97, 0xb4, 0x3e,
  0xfe, 0x30, 0x19, 0x3a, 0x70, 0xcb, 0x21, 0xbd, 0xd1, 0x4b, 0xf3, 0x3d,
  0x05, 0xf6, 0x0d, 0x3d, 0x4b, 0x2d, 0x3e, 0xbc, 0xc6, 0x41, 0x89, 0xbe,
  0xa6, 0x1e, 0xf8, 0xbe, 0x58, 0xf5, 0x8c, 0x3e, 0x5b, 0x71, 0xb4, 0xbd,
  0x06, 0x91, 0x24, 0xbe, 0x0b, 0xd0, 0xb9, 0x3e, 0x8f, 0xae, 0xa0, 0x3d,
  0x7c, 0x27, 0xa9, 0x3e, 0xb1, 0x6c, 0x36, 0xbd, 0x16, 0xf8, 0xc3, 0xbe,
  0x7c, 0x85, 0xe7, 0xbe, 0x91, 0xf3, 0x8c, 0x3d, 0x48, 0x82, 0x9a, 0x3b,
  0x5f, 0xde, 0xdd, 0x3d, 0xbf, 0x65, 0x95, 0xbd, 0xe4, 0x88, 0x4c, 0xbe,
  0xdc, 0xde, 0xae, 0x3e, 0x35, 0xa9, 0xe1, 0xbd, 0x79, 0x49, 0xee, 0x3c,
  0x7c, 0xc8, 0x07, 0xbe, 0x39, 0x39, 0x9e, 0xbe, 0xbe, 0xf5, 0x81, 0x3d,
  0x2c, 0xc2, 0xdf, 0xbc, 0xf4, 0x43, 0xc9, 0xbe, 0x50, 0x72, 0x82, 0x3d,
  0x42, 0xcc, 0x7a, 0x3c, 0x17, 0xb4, 0x15, 0xbf, 0x6a, 0xc8, 0x3b, 0x3e,
  0xc8, 0x03, 0x0b, 0xbe, 0x49, 0xa6, 0x1c, 0xbf, 0xb7, 0x22, 0x2d, 0x3f,
  0x39, 0xc5, 0xc3, 0x3e, 0x4f, 0x5f, 0xde, 0xbd, 0x7c, 0x62, 0xc4, 0xbc,
  0x94, 0xd9, 0x8c, 0x3d, 0xc2, 0xc9, 0x1f, 0x3e, 0xf1, 0xe7, 0xc7, 0xbd,
  0x8b, 0x98, 0x16, 0xbf, 0x2c, 0x44, 0xa1, 0x3c, 0x03, 0x1b, 0x0b, 0xbe,
  0x7e, 0x7d, 0xa3, 0x3e, 0x77, 0x0a, 0x44, 0x3e, 0x34, 0x42, 0xfd, 0x3e,
  0x10, 0xe2, 0xad, 0xbe, 0x32, 0xce, 0xc8, 0x3e, 0xc0, 0x94, 0x1c, 0x3f,
  0x3c, 0x1e, 0x82, 0xbd, 0xb1, 0x14, 0xa2, 0xbd, 0x66, 0x9a, 0x55, 0xbc,
  0x2c, 0x7a, 0xcd, 0xbe, 0x2a, 0xf6, 0xd7, 0x3e, 0x1b, 0x93, 0x18, 0xbe,
  0xaf, 0x98, 0xdb, 0xbe, 0x4f, 0x19, 0xe8, 0x3e, 0x4d, 0x87, 0xde, 0xbc,
  0x52, 0xd8, 0x57, 0xbd, 0x61, 0x17, 0x80, 0x3e, 0xd7, 0x7b, 0xa0, 0xbe,
  0x31, 0x49, 0xe2, 0xbe, 0x28, 0xfe, 0x0c, 0x3e, 0xa2, 0xe4, 0xe1, 0x3e,
  0x58, 0xf6, 0xa5, 0x3d, 0xc2, 0x66, 0x03, 0xbd, 0xf6, 0x77, 0x83, 0x3d,
  0xcc, 0xda, 0x72, 0x3e, 0x0f, 0xc9, 0x1d, 0xbe, 0x2d, 0x2e, 0x0e, 0x3f,
  0xb3, 0x9b, 0xe6, 0xbe, 0x7d, 0x55, 0xbf, 0xbe, 0x14, 0x55, 0x22, 0x3f,
  0xcc, 0x01, 0x1f, 0x3f, 0x15, 0xf5, 0xc1, 0x3e, 0x45, 0xc9, 0x03, 0xbe,
  0x79, 0x42, 0xd0, 0x3e, 0x6c, 0x29, 0x9c, 0x3e, 0x08, 0x5f, 0xac, 0xbd,
  0x4a, 0xe5, 0x5d, 0x3d, 0x98, 0xb2, 0x07, 0x3f, 0xb3, 0x63, 0x63, 0xbe,
  0x3e, 0x05, 0x94, 0x3d, 0xa8, 0x58, 0x05, 0xbb, 0x2a, 0x99, 0xba, 0x3e,
  0x94, 0x71, 0x09, 0x3e, 0x97, 0xb0, 0x9e, 0x3e, 0x69, 0x1d, 0x5b, 0x3e,
  0xbf, 0x1a, 0xd4, 0x3e, 0xb0, 0x14, 0x37, 0x3e, 0x17, 0x9c, 0x23, 0x3e,
  0xb4, 0x3c, 0x6b, 0xbd, 0xb9, 0x54, 0xa0, 0x3d, 0x0b, 0x85, 0xef, 0xbe,
  0xef, 0xb9, 0xfe, 0x3e, 0xae, 0x95, 0xe8, 0x3d, 0x53, 0x3c, 0xaf, 0xbd,
  0xb0, 0x36, 0xed, 0x3d, 0xac, 0xe5, 0x15, 0x3f, 0x73, 0x9a, 0x4d, 0x3e,
  0x78, 0x2c, 0x41, 0x3f, 0x34, 0xe0, 0xe0, 0xbe, 0x4d, 0x89, 0x1d, 0x3e,
  0xd2, 0xdc, 0xb3, 0x3e, 0x7a, 0xa8, 0x8f, 0xbb, 0xa3, 0x6f, 0x55, 0xbe,
  0x56, 0xf3, 0x0c, 0x3d, 0xc7, 0x17, 0x1c, 0x3d, 0xa2, 0x74, 0xaf, 0x3e,
  0x6d, 0xd2, 0xe3, 0x3e, 0xa1, 0xaa, 0x17, 0xbc, 0x94, 0x86, 0x01, 0xbe,
  0x63, 0xa3, 0xc0, 0xb9, 0x4c, 0x0f, 0x9a, 0x3e, 0xd0, 0x50, 0xb5, 0xbd,
  0x2d, 0x61, 0x88, 0x3e, 0x10, 0x59, 0x6f, 0x3e, 0x7c, 0xf4, 0x93, 0xbe,
  0xba, 0xb2, 0xc8, 0x3e, 0xc3, 0x01, 0x45, 0x3e, 0x18, 0xcb, 0xb3, 0xbe,
  0xd7, 0x23, 0x7d, 0xbe, 0x55, 0x74, 0xd2, 0xbd, 0x1a, 0x9d, 0xd7, 0x3d,
  0x76, 0xb9, 0xdd, 0x3d, 0x8e, 0xd4, 0xe3, 0x3e, 0x59, 0x30, 0x68, 0x3d,
  0xb4, 0xea, 0x0f, 0x3e, 0x61, 0x43, 0x2d, 0x3d, 0xcd, 0x9b, 0x37, 0xbe,
  0x97, 0x94, 0x95, 0xbd, 0xe0, 0xfb, 0xe2, 0x3e, 0x9f, 0xa4, 0xf5, 0x3e,
  0x47, 0xd4, 0x09, 0x3e, 0x72, 0x1a, 0x09, 0xbd, 0x88, 0x4b, 0x60, 0x3e,
  0x6c, 0x72, 0x92, 0x3e, 0xb7, 0x05, 0x39, 0xbe, 0xec, 0x2a, 0x9a, 0x3d,
  0x48, 0x66, 0x5d, 0xbe, 0xb9, 0x8a, 0xbd, 0x3e, 0x79, 0x76, 0x49, 0x3e,
  0x26, 0x22, 0xe5, 0x3e, 0x47, 0x45, 0x80, 0x3e, 0x7e, 0xa0, 0xb3, 0xbd,
  0x76, 0x1b, 0x07, 0x3f, 0x78, 0x49, 0x0d, 0x3f, 0x65, 0x37, 0x26, 0xbe,
  0x05, 0x01, 0x5d, 0x3e, 0xd9, 0x0b, 0x09, 0xbe, 0xc0, 0xbf, 0xf9, 0x3e,
  0x0f, 0xa0, 0x0a, 0x3f, 0xdb, 0xb8, 0x41, 0x3e, 0x71, 0x3f, 0x78, 0xbe,
  0xc6, 0x18, 0xc3, 0x3e, 0x4a, 0x1f, 0xb2, 0xbd, 0xee, 0xdd, 0x03, 0x3f,
  0xec, 0xae, 0xab, 0x3d, 0x58, 0x88, 0x12, 0xbe, 0x62, 0xe6, 0x43, 0x3e,
  0x3b, 0x08, 0x75, 0x3e, 0x0b, 0x43, 0x88, 0x3e, 0x7f, 0x65, 0x0a, 0x3c,
  0x15, 0x65, 0xeb, 0x3e, 0xe4, 0x62, 0xef, 0xbc, 0x8c, 0xbd, 0xc5, 0xbc,
  0x86, 0xf9, 0x9d, 0x3e, 0x22, 0x5e, 0xfd, 0x3e, 0x12, 0xcf, 0xee, 0xbc,
  0xc7, 0x69, 0xea, 0x3c, 0xa2, 0x18, 0xa5, 0xbc, 0xac, 0x6a, 0xc0, 0x3d,
  0x85, 0x23, 0x15, 0xbe, 0x7e, 0xd2, 0x18, 0xbe, 0xee, 0x64, 0x80, 0xbe,
  0x42, 0x8a, 0xa0, 0x3d, 0x1c, 0x73, 0x7c, 0xbe, 0x23, 0x1b, 0x29, 0xbe,
  0xea, 0x01, 0xc1, 0xbd, 0xb3, 0x1e, 0xa5, 0xbe, 0xc6, 0xf9, 0x24, 0x3d,
  0xca, 0x55, 0x11, 0xbe, 0x41, 0xd5, 0x32, 0x3e, 0x95, 0xc7, 0x66, 0xbd,
  0x8d, 0x37, 0x0d, 0x3e, 0x28, 0x9a, 0x8a, 0x3e, 0x0c, 0x87, 0x78, 0xbe,
  0x5b, 0xea, 0x5a, 0xbe, 0x8f, 0x07, 0xd8, 0xbd, 0x42, 0xdf, 0xad, 0x3b,
  0xab, 0x19, 0x1a, 0x3e, 0x28, 0x32, 0xa1, 0xbe, 0xa6, 0x19, 0xd5, 0x3b,
  0xfb, 0x3b, 0xf3, 0xbd, 0x72, 0xa1, 0xd4, 0xbd, 0x12, 0x63, 0x0c, 0x3d,
  0x19, 0xaf, 0xfe, 0x3b, 0x5b, 0x91, 0x27, 0x3c, 0x3f, 0xd5, 0x7a, 0xbe,
  0xaf, 0x8e, 0x05, 0x3d, 0x8e, 0xa2, 0x00, 0xbd, 0xd7, 0xc7, 0x08, 0x3e,
  0xfd, 0x74, 0x22, 0x3e, 0xa8, 0x82, 0xa4, 0xbc, 0x1f, 0xc8, 0x2e, 0xbe,
  0xf8, 0x2d, 0x46, 0x3e, 0xc3, 0x43, 0xc2, 0x3d, 0x6e, 0x07, 0x8e, 0xbe,
  0x15, 0xfd, 0x29, 0x3d, 0x7c, 0x90, 0xbe, 0x3d, 0xf8, 0x1e, 0xca, 0xbc,
  0xb0, 0x12, 0x23, 0xbc, 0xf8, 0xd1, 0x7f, 0xbe, 0xa5, 0x9a, 0x54, 0x3e,
  0x7d, 0xce, 0x69, 0xbe, 0x1e, 0x81, 0x70, 0x3e, 0x1e, 0x0b, 0x38, 0xbe,
  0x2f, 0xa1, 0x06, 0xbd, 0x07, 0x17, 0xa5, 0xbd, 0x9a, 0x3b, 0x7d, 0xbe,
  0xca, 0xfa, 0x82, 0xbe, 0x89, 0x73, 0x96, 0xbe, 0xe5, 0xd4, 0x06, 0xbe,
  0x21, 0x13, 0xaf, 0xbe, 0xac, 0xec, 0xff, 0xbe, 0x5a, 0x42, 0x93, 0x3e,
  0x8e, 0x77, 0xcb, 0x3e, 0xb4, 0x03, 0x22, 0xbe, 0x5b, 0xd7, 0x80, 0x3e,
  0x13, 0x18, 0x0d, 0x3e, 0xc7, 0xc7, 0x5a, 0xbd, 0x33, 0x57, 0x87, 0xbe,
  0x86, 0x5f, 0x2a, 0xbe, 0x58, 0x7f, 0x03, 0xbe, 0xd2, 0xfa, 0x0d, 0x3e,
  0xec, 0x64, 0xfd, 0x3e, 0xa9, 0x9f, 0xd7, 0xbd, 0xc6, 0xa8, 0x01, 0x3f,
  0x44, 0x9e, 0x69, 0xbe, 0x80, 0x29, 0xdb, 0x3c, 0xde, 0xfd, 0x15, 0x3f,
  0x4e, 0xdb, 0x8c, 0x3c, 0x01, 0x35, 0x6f, 0xbe, 0xb8, 0xca, 0x7d, 0xbe,
  0xa7, 0xc8, 0xb9, 0xbe, 0x4b, 0x2b, 0x64, 0x3e, 0x14, 0x24, 0x12, 0xbf,
  0x46, 0x7f, 0xcb, 0xbe, 0x89, 0x59, 0x3a, 0x3e, 0x52, 0x5f, 0x01, 0xbe,
  0xd6, 0xa7, 0x16, 0x3e, 0xa3, 0xf2, 0x87, 0x3e, 0x89, 0x33, 0xe3, 0xbe,
  0x6a, 0x51, 0xf5, 0xbe, 0xfa, 0xdc, 0x10, 0x3c, 0x0b, 0xc8, 0xcf, 0x3e,
  0x01, 0x35, 0xfc, 0x3e, 0xd1, 0x76, 0x1a, 0xbb, 0x20, 0x52, 0x04, 0x3d,
  0xd7, 0x4f, 0x2d, 0x3e, 0x99, 0xf7, 0x9f, 0x3c, 0x6a, 0x62, 0x8d, 0x3e,
  0x9e, 0x7e, 0x79, 0xbe, 0x75, 0x66, 0x67, 0xbe, 0xf3, 0xaf, 0x08, 0x3e,
  0x9a, 0xf1, 0xad, 0x3e, 0x0a, 0x44, 0x9e, 0xbe, 0x39, 0xd5, 0x0c, 0x3d,
  0x00, 0x34, 0xde, 0xbe, 0xd3, 0xe7, 0xfa, 0xbe, 0xcd, 0xbb, 0x7c, 0x3e,
  0xe9, 0xc5, 0x2a, 0x3d, 0xc5, 0x00, 0xdb, 0x3d, 0x49, 0x67, 0xde, 0xbd,
  0x17, 0x5e, 0xd4, 0xbd, 0x65, 0x28, 0x9a, 0x3e, 0xd5, 0xdf, 0xff, 0x3e,
  0x06, 0x95, 0xf6, 0x3e, 0x18, 0x1c, 0xe6, 0x3d, 0xd0, 0x19, 0xa2, 0xbe,
  0x4b, 0xa8, 0xa0, 0xbd, 0x74, 0xe1, 0x1e, 0xbe, 0xe3, 0x8f, 0xa9, 0xbc,
  0x51, 0x66, 0x09, 0x3e, 0xf0, 0xe8, 0x9e, 0x3e, 0x9e, 0x7a, 0xf2, 0x3d,
  0xcd, 0x47, 0x4e, 0xbe, 0xbe, 0x92, 0xb5, 0x3e, 0x22, 0x61, 0x04, 0x3e,
  0x72, 0x0e, 0xdf, 0x3e, 0xb7, 0x72, 0x50, 0xbe, 0x1e, 0xda, 0x43, 0xbd,
  0xa3, 0xe5, 0x8f, 0xbe, 0x5c, 0xd5, 0x86, 0x3e, 0xe5, 0x5b, 0x91, 0xbe,
  0x75, 0xe1, 0x2d, 0xbe, 0xce, 0x90, 0x89, 0x3e, 0xc9, 0xd8, 0x64, 0xbe,
  0xa9, 0xc2, 0x62, 0x3e, 0xe4, 0xb9, 0x91, 0xbe, 0xe3, 0x4f, 0xf6, 0xbc,
  0xff, 0x8a, 0xd2, 0xbe, 0x24, 0x09, 0x11, 0x3e, 0x1a, 0xe9, 0xba, 0xbc,
  0xef, 0x13, 0xce, 0x3e, 0xd0, 0xf4, 0x77, 0x3e, 0xb7, 0x53, 0x7a, 0xbe,
  0x09, 0xa9, 0x99, 0x3e, 0xd4, 0xf4, 0x00, 0x3f, 0x43, 0x79, 0x18, 0x3e,
  0x7b, 0xd4, 0x67, 0xbe, 0x5d, 0x62, 0xa5, 0x3d, 0x54, 0x73, 0x91, 0x3d,
  0xa5, 0xd6, 0x86, 0xbe, 0x79, 0x09, 0xfe, 0xbe, 0x8f, 0xdd, 0xb1, 0x3e,
  0x0f, 0xe9, 0x90, 0x3d, 0x5a, 0xd9, 0xeb, 0xbe, 0xbf, 0x28, 0x7d, 0x3e,
  0x22, 0xa2, 0xe5, 0xbe, 0xcd, 0x2b, 0xbc, 0xbe, 0x2c, 0x3a, 0xbc, 0x3e,
  0xa3, 0xbb, 0xb4, 0x3d, 0x49, 0xad, 0xa4, 0x3d, 0xa7, 0xc7, 0x4d, 0x3e,
  0x63, 0x4a, 0x15, 0xbe, 0x18, 0x26, 0x9a, 0x3e, 0xa4, 0x2c, 0x3c, 0xbe,
  0x09, 0x6d, 0xee, 0xbe, 0x9b, 0xf6, 0x7b, 0xbe, 0x03, 0x27, 0x1a, 0x3d,
  0x9f, 0x12, 0xd6, 0x3e, 0xb2, 0xe9, 0x86, 0x3e, 0x9f, 0x24, 0x3f, 0x3e,
  0x15, 0x27, 0xb4, 0xbe, 0x8f, 0x4e, 0x45, 0x3e, 0x18, 0x98, 0xf7, 0x3b,
  0xb3, 0x99, 0x03, 0x3d, 0x8d, 0xdf, 0x47, 0xbd, 0x39, 0xf3, 0x3b, 0xbe,
  0x4a, 0x99, 0x5d, 0xbe, 0x36, 0xaf, 0x55, 0xbd, 0x51, 0x6d, 0xf8, 0xbe,
  0xe5, 0x9b, 0xc9, 0xbc, 0x33, 0x5a, 0x30, 0x3e, 0xf6, 0x3c, 0x30, 0xbe,
  0x98, 0xc2, 0x8b, 0x3e, 0xb4, 0xa6, 0x38, 0x3e, 0xda, 0xcf, 0xe8, 0xbe,
  0x79, 0xf9, 0x05, 0xbf, 0x2d, 0xe1, 0x9d, 0x3b, 0xe8, 0x0b, 0xcb, 0x3e,
  0x25, 0xa3, 0xff, 0x3e, 0xca, 0x3c, 0x67, 0x3e, 0x76, 0xb9, 0xda, 0x3d,
  0xc5, 0xe0, 0x19, 0x3e, 0xe4, 0xe2, 0x4f, 0x3e, 0xe5, 0x75, 0xa8, 0x3d,
  0xb7, 0xf3, 0x5b, 0xbe, 0xb5, 0xdd, 0xa6, 0xbc, 0xf6, 0xfd, 0xb7, 0x3e,
  0x6f, 0x38, 0xe5, 0x3d, 0x65, 0x53, 0xc8, 0xbe, 0xf0, 0x79, 0xb4, 0x3e,
  0x6a, 0x74, 0x5f, 0x3f, 0x00, 0x8a, 0x9b, 0x3e, 0x84, 0x2b, 0xd3, 0x3d,
  0x38, 0x13, 0x29, 0xbd, 0x76, 0x0b, 0x95, 0x3e, 0x66, 0x77, 0x4d, 0xbd,
  0x8d, 0xb0, 0x7c, 0x3e, 0xcf, 0x86, 0x55, 0xbd, 0xa0, 0xee, 0x94, 0x3d,
  0x29, 0x1e, 0xbc, 0xbd, 0x70, 0xb8, 0x6d, 0xbe, 0xd6, 0x5a, 0x90, 0x3d,
  0x82, 0x7f, 0xc9, 0x3e, 0x86, 0x65, 0x89, 0x3e, 0xf0, 0x68, 0x13, 0x3f,
  0xd0, 0x11, 0xbf, 0x3d, 0x5e, 0x9c, 0x90, 0xbe, 0xbf, 0xf0, 0x51, 0xbe,
  0xb0, 0x03, 0xf0, 0x3e, 0xba, 0x26, 0xba, 0xbe, 0x95, 0x3c, 0x4b, 0x3e,
  0x90, 0x34, 0xed, 0xbd, 0x74, 0x42, 0x70, 0x3e, 0x6b, 0x48, 0x20, 0xbe,
  0x88, 0x67, 0x0b, 0x3f, 0x91, 0xda, 0x02, 0x3e, 0xe5, 0x2f, 0xe8, 0x3d,
  0x5e, 0x49, 0xd1, 0x3e, 0xaa, 0x51, 0x87, 0xbe, 0xe4, 0xb3, 0x15, 0x3e,
  0xac, 0x6b, 0xe1, 0xbe, 0xd4, 0x24, 0x37, 0x3e, 0xfa, 0x7f, 0xcb, 0xbb,
  0x7f, 0x91, 0x7e, 0x3e, 0xb6, 0x19, 0x32, 0xbd, 0x07, 0xf3, 0xa9, 0x3e,
  0x57, 0x0e, 0x0a, 0xbe, 0x18, 0x83, 0xb7, 0xbe, 0x7e, 0xe5, 0x37, 0x3f,
  0x11, 0x6b, 0xea, 0xbd, 0x7d, 0xb3, 0x9a, 0xbe, 0x24, 0xf0, 0xe8, 0x3b,
  0x01, 0x4e, 0x6b, 0x3e, 0x78, 0x71, 0xd7, 0x3e, 0x0b, 0xfc, 0x19, 0xbe,
  0x4d, 0x0e, 0xfe, 0x3e, 0xa6, 0x8f, 0x2f, 0x3f, 0x5a, 0xe0, 0x1c, 0x3e,
  0x19, 0xc4, 0x6d, 0x3e, 0xea, 0x86, 0x94, 0x3e, 0x53, 0x0b, 0x96, 0x3e,
  0x97, 0x1d, 0x49, 0x3e, 0x65, 0x64, 0x19, 0x3f, 0xd6, 0x02, 0x09, 0xbf,
  0x31, 0x0a, 0xe9, 0xbc, 0x93, 0xe0, 0x8b, 0x3d, 0xe9, 0x5d, 0x6e, 0x3e,
  0x60, 0xc7, 0xd9, 0x3e, 0xb9, 0xe7, 0xa7, 0x3e, 0x69, 0xba, 0xf0, 0x3e,
  0x66, 0x18, 0xd6, 0x3e, 0x12, 0xa9, 0x47, 0xbe, 0x88, 0x0f, 0xd5, 0x3e,
  0x76, 0x08, 0xe6, 0xbe, 0xd0, 0x21, 0x43, 0xbe, 0x25, 0x2c, 0x12, 0xbf,
  0x77, 0xe1, 0x8e, 0x3c, 0x06, 0xaa, 0x96, 0xbe, 0xc7, 0x4f, 0x00, 0xbf,
  0xb3, 0x3e, 0x73, 0x3d, 0xf5, 0x4c, 0xca, 0x3e, 0x23, 0xb8, 0x85, 0xbd,
  0xc3, 0x3e, 0x40, 0x3f, 0x72, 0x3e, 0xb9, 0xbe, 0x9e, 0xd4, 0xd4, 0x3e,
  0x34, 0xc2, 0x96, 0x3e, 0x0f, 0xf7, 0x48, 0x3b, 0x4a, 0x0b, 0xd6, 0x3d,
  0x64, 0x1c, 0x08, 0x3e, 0xcb, 0xb8, 0x2e, 0xbe, 0xf7, 0x45, 0xe7, 0x3e,
  0x72, 0x55, 0xc1, 0x3e, 0x24, 0x72, 0x03, 0xbe, 0xec, 0x3a, 0x3d, 0x3c,
  0x01, 0x3a, 0x58, 0x3c, 0x6a, 0xbc, 0x03, 0x3e, 0x1a, 0x02, 0x7e, 0x3e,
  0x75, 0xde, 0x9a, 0x3d, 0x00, 0xbd, 0x62, 0x3e, 0xcb, 0xe6, 0x24, 0xbe,
  0x0c, 0x9d, 0xb2, 0x3e, 0x7f, 0x07, 0x05, 0x3f, 0x1a, 0x44, 0x78, 0xbe,
  0xdd, 0x28, 0xd7, 0xbd, 0xdf, 0xa9, 0x30, 0xbd, 0x7b, 0x15, 0x9d, 0xbd,
  0xb0, 0xfb, 0xcf, 0xbe, 0x0d, 0x65, 0x47, 0x3e, 0xe0, 0x2b, 0x09, 0x3f,
  0x05, 0x2c, 0xbf, 0xbb, 0x99, 0xee, 0x5d, 0x3e, 0xb2, 0xb0, 0x87, 0x3e,
  0x9b, 0x3e, 0xbd, 0xbd, 0xa1, 0x44, 0x93, 0x3e, 0xaa, 0xdc, 0xb0, 0x3e,
  0x2a, 0x37, 0x0a, 0x3f, 0x42, 0x04, 0xfa, 0x3e, 0x7c, 0xf4, 0xcb, 0xbd,
  0x4f, 0xe2, 0xbb, 0x3e, 0xff, 0x2f, 0x1e, 0x3e, 0xa5, 0xf8, 0x14, 0xbe,
  0x4e, 0x01, 0x4b, 0x3e, 0x40, 0xb0, 0xfa, 0x3e, 0x61, 0x60, 0x9c, 0x3e,
  0xf3, 0x11, 0x6f, 0xbd, 0x6c, 0x2d, 0x2c, 0x3e, 0xb1, 0xcc, 0x49, 0xbc,
  0x98, 0x19, 0x21, 0x3f, 0x7c, 0x25, 0x39, 0x3d, 0x99, 0x3f, 0xc0, 0x3c,
  0xe4, 0xa1, 0x73, 0x3e, 0x8f, 0x2d, 0x07, 0x3e, 0xcb, 0xae, 0x54, 0x3e,
  0xf2, 0xd6, 0x14, 0x3e, 0x04, 0xf7, 0x07, 0xbd, 0x26, 0x6f, 0xf1, 0x3d,
  0x36, 0xab, 0xb7, 0x3d, 0xcd, 0xa3, 0xa4, 0xbe, 0xad, 0x28, 0x12, 0x3d,
  0x63, 0xd4, 0x30, 0x3e, 0xc2, 0x66, 0x69, 0xbe, 0x77, 0xd8, 0xcf, 0x3b,
  0x82, 0x28, 0xba, 0xbc, 0x6e, 0x24, 0x12, 0x3f, 0x9a, 0x0f, 0x9e, 0xbe,
  0x6d, 0x6d, 0xc1, 0x3e, 0x43, 0x12, 0x0d, 0x3f, 0x9c, 0x0d, 0x93, 0x3d,
  0x95, 0x0c, 0x2d, 0x3e, 0x87, 0x37, 0x22, 0x3e, 0xb2, 0x94, 0x83, 0x3e,
  0xec, 0x29, 0xbe, 0xbe, 0x7e, 0x06, 0x96, 0xbe, 0x44, 0xa0, 0xc9, 0x3d,
  0x9a, 0x49, 0x4b, 0x3d, 0x6a, 0x06, 0x8f, 0xbe, 0x07, 0x18, 0x0d, 0x3c,
  0xc5, 0xc6, 0x5a, 0xbe, 0x46, 0x54, 0x71, 0xbd, 0x77, 0x73, 0x0c, 0x3e,
  0x82, 0x3e, 0x52, 0x3d, 0x70, 0xa4, 0x04, 0x3e, 0xe0, 0x7e, 0x06, 0xbe,
  0xf4, 0x93, 0x8b, 0xbe, 0x76, 0x9f, 0x95, 0xbe, 0xd8, 0x6a, 0x53, 0xbe,
  0x88, 0xfc, 0x48, 0x3e, 0x36, 0xe6, 0x27, 0x3e, 0xa2, 0xfb, 0xc6, 0x3c,
  0x38, 0x51, 0x9a, 0xbd, 0xc1, 0xd4, 0x14, 0x3e, 0x59, 0xe9, 0x55, 0x3d,
  0x7a, 0xae, 0x22, 0xbd, 0xc6, 0x4d, 0xd8, 0xbd, 0x9e, 0xd0, 0x62, 0xbe,
  0x83, 0xb9, 0x30, 0xbe, 0x5a, 0xe0, 0xa6, 0xbd, 0xf8, 0x84, 0x26, 0xbd,
  0xb0, 0xbc, 0xd0, 0x3d, 0xcc, 0xf7, 0x06, 0xbe, 0x3e, 0x6f, 0x6a, 0xbe,
  0x6e, 0x01, 0x12, 0x3d, 0x33, 0xf6, 0x64, 0xbc, 0x09, 0xa7, 0x3c, 0x3d,
  0x27, 0x6c, 0x02, 0xbe, 0xe3, 0x3e, 0x01, 0xbe, 0x79, 0x33, 0x1a, 0x3d,
  0xd5, 0x47, 0x1a, 0xbe, 0x5f, 0x41, 0xf1, 0xbd, 0x8d, 0xcc, 0x85, 0xbe,
  0x5b, 0x23, 0x9f, 0xbe, 0x64, 0xfe, 0x0b, 0x3e, 0x89, 0x4a, 0xde, 0x3d,
  0xd8, 0xb5, 0x1d, 0x3e, 0x16, 0x1e, 0x89, 0xbe, 0x61, 0x5e, 0x27, 0xbd,
  0x4b, 0x89, 0x17, 0x3e, 0x02, 0xe0, 0x07, 0xbe, 0x38, 0xdf, 0x4e, 0xbe,
  0x8c, 0xe9, 0x41, 0xbd, 0x39, 0xda, 0xbb, 0xbe, 0xfb, 0xb0, 0x5f, 0xbe,
  0xf4, 0xa6, 0x7f, 0x3e, 0x75, 0xfc, 0xec, 0xbe, 0xf4, 0xc3, 0x17, 0x3e,
  0x43, 0x54, 0x07, 0xbf, 0x9c, 0x22, 0xd3, 0xbe, 0x56, 0x0a, 0xe5, 0x3e,
  0x91, 0x02, 0x9c, 0x3e, 0xfe, 0x8f, 0x08, 0x3b, 0x06, 0x04, 0x4c, 0xbe,
  0xb5, 0x38, 0x04, 0x3e, 0x48, 0x52, 0xb0, 0x3d, 0x7f, 0xf8, 0x30, 0xbe,
  0x56, 0x19, 0x6b, 0xbe, 0x73, 0x9c, 0x69, 0xbd, 0x10, 0x7f, 0x41, 0x3e,
  0x8e, 0x03, 0xc3, 0x3e, 0x55, 0x3c, 0xa5, 0x3d, 0x89, 0x67, 0x1d, 0x3f,
  0x79, 0xbb, 0xba, 0xbe, 0x12, 0x0f, 0x5f, 0x3e, 0x26, 0xa2, 0x0b, 0x3e,
  0x2c, 0xf4, 0x1e, 0xbe, 0xcc, 0x20, 0x03, 0xbf, 0x21, 0xfc, 0x0d, 0xbe,
  0x09, 0xa1, 0x1e, 0xbf, 0xec, 0x14, 0x96, 0x3e, 0x26, 0x22, 0x1d, 0xbf,
  0xca, 0x30, 0xe5, 0xbe, 0x82, 0x8a, 0x1e, 0x3e, 0x7d, 0xd2, 0x15, 0x3e,
  0x24, 0x30, 0x4f, 0xbd, 0x37, 0xde, 0x03, 0x3f, 0xb3, 0x27, 0x1f, 0xbf,
  0x09, 0xb9, 0xee, 0xbd, 0x12, 0x22, 0x03, 0x3f, 0x55, 0x9f, 0xc7, 0x3e,
  0x4c, 0x95, 0x45, 0xbc, 0x8f, 0xb5, 0xb8, 0xbd, 0xdf, 0xd4, 0x95, 0xbc,
  0x23, 0x8b, 0x7d, 0xbd, 0xba, 0xbb, 0x38, 0xbe, 0xe3, 0x9a, 0xd3, 0x3e,
  0x8d, 0x76, 0xf0, 0xbe, 0x3e, 0xa3, 0x80, 0xbe, 0x96, 0x4b, 0x2d, 0x3e,
  0x03, 0x05, 0xe5, 0x3e, 0x53, 0xe9, 0x1b, 0x3e, 0x59, 0x34, 0x02, 0x3e,
  0xda, 0x6c, 0x54, 0xbe, 0x6e, 0x28, 0x8e, 0xbe, 0x93, 0x6c, 0x96, 0x3e,
  0x3f, 0xab, 0x36, 0xbe, 0x4b, 0x7a, 0x33, 0xbe, 0x35, 0x92, 0x5f, 0x3d,
  0x73, 0x8a, 0x32, 0xbe, 0x18, 0xa0, 0x1d, 0x3f, 0x7e, 0xb0, 0x47, 0x3e,
  0x06, 0xb9, 0x15, 0x3e, 0x66, 0xa8, 0x09, 0x3f, 0xbf, 0x23, 0x7e, 0xbe,
  0x07, 0xa7, 0x7c, 0xbd, 0x38, 0x2d, 0x0e, 0xbe, 0xbc, 0xf6, 0xce, 0xbe,
  0xdf, 0xb0, 0xd2, 0xbd, 0x4c, 0x5f, 0x75, 0x3e, 0x9f, 0x57, 0xc1, 0xbd,
  0x72, 0xeb, 0x20, 0xbe, 0x03, 0x7b, 0xce, 0x3e, 0x64, 0x44, 0x37, 0x3e,
  0xc4, 0xec, 0xbf, 0x3e, 0x14, 0xbb, 0x95, 0xbe, 0x02, 0xa2, 0xca, 0x3d,
  0x09, 0x13, 0x85, 0xbe, 0xe6, 0xaa, 0x1c, 0xbd, 0x39, 0x50, 0x09, 0xbe,
  0x2e, 0x1f, 0x65, 0xbe, 0xf9, 0x48, 0xcf, 0x3d, 0xd3, 0x37, 0x88, 0x3e,
  0x49, 0xec, 0x6b, 0x3e, 0x8f, 0x32, 0x3e, 0xbd, 0x64, 0x6a, 0x7d, 0x3e,
  0x60, 0x2d, 0xa8, 0xbe, 0x50, 0xae, 0x24, 0x3e, 0x3b, 0x80, 0x2e, 0x3e,
  0x4f, 0x30, 0xca, 0x3d, 0x43, 0x43, 0xf1, 0x3e, 0xd1, 0xfd, 0x5e, 0xbe,
  0x1a, 0xa9, 0x23, 0x3f, 0x73, 0x61, 0x04, 0x3f, 0xa2, 0x14, 0x91, 0x3e,
  0x8a, 0x07, 0xba, 0xbd, 0xd4, 0x1e, 0x5a, 0xbe, 0xdc, 0x73, 0xec, 0x3d,
  0xae, 0x46, 0x61, 0xbd, 0x03, 0x69, 0xc6, 0xbe, 0xcf, 0x39, 0x04, 0x3f,
  0x2f, 0xfb, 0xee, 0x3e, 0x00, 0xf7, 0x3d, 0x3f, 0x77, 0xdc, 0x8f, 0x3e,
  0x4e, 0x39, 0x52, 0x3e, 0x85, 0x43, 0xdc, 0x3e, 0xde, 0xdd, 0x65, 0xbd,
  0x22, 0x8c, 0x8a, 0xbe, 0x56, 0x2d, 0x5b, 0xbe, 0x80, 0x28, 0xa0, 0x3e,
  0x57, 0xd4, 0xf4, 0xbd, 0xbb, 0x88, 0xb4, 0x3e, 0x84, 0xc6, 0x01, 0x3f,
  0x30, 0x1b, 0x59, 0x3e, 0x6a, 0x35, 0x41, 0xbe, 0x8d, 0x75, 0x03, 0x3f,
  0xcf, 0xca, 0xb3, 0xbe, 0xd0, 0x45, 0x17, 0xbe, 0xf9, 0x27, 0x69, 0xbe,
  0xec, 0x9f, 0xa8, 0x3d, 0x57, 0x24, 0xbe, 0xbe, 0x3c, 0x6f, 0x16, 0x3e,
  0x60, 0x08, 0x40, 0xbe, 0xca, 0x4c, 0x8d, 0x3e, 0x34, 0x23, 0x19, 0x3e,
  0xc0, 0xe9, 0x62, 0x3e, 0x2b, 0x29, 0xf0, 0x3d, 0x05, 0x87, 0xb2, 0x3e,
  0xa3, 0x05, 0xfd, 0x3e, 0xa8, 0x05, 0x24, 0xbe, 0xd2, 0xc9, 0xe9, 0xbd,
  0x14, 0xe8, 0xa1, 0xbe, 0xf4, 0x95, 0xb3, 0x3e, 0x8d, 0xbb, 0x9f, 0x3e,
  0x4d, 0xaf, 0xe5, 0x3e, 0x9c, 0x00, 0x94, 0x3e, 0x23, 0xc2, 0x87, 0x3c,
  0x79, 0x48, 0xa9, 0xbd, 0xaf, 0xfd, 0x5b, 0xbe, 0x03, 0x76, 0xc5, 0x3e,
  0x9c, 0x70, 0x03, 0x3e, 0xe6, 0x8d, 0x0b, 0x3e, 0x22, 0xff, 0x05, 0xbe,
  0x37, 0xde, 0x1d, 0x3f, 0xa7, 0x27, 0xf2, 0x3e, 0xfb, 0xcf, 0xda, 0xbe,
  0x57, 0x1f, 0x8a, 0x3d, 0x98, 0xbf, 0x26, 0x3f, 0xfe, 0x11, 0xc3, 0x3d,
  0x36, 0xdc, 0xff, 0xff, 0x04, 0x00, 0x00, 0x00, 0x00, 0x18, 0x00, 0x00,
  0xf0, 0x65, 0x3d, 0x3f, 0x7a, 0xb0, 0x66, 0x3f, 0x8f, 0xbd, 0x67, 0xbe,
  0x2f, 0x89, 0xe1, 0xbd, 0x87, 0xe5, 0xd7, 0xbd, 0x2c, 0x0c, 0xb6, 0x3e,
  0xeb, 0xe4, 0xea, 0xbe, 0xfe, 0xe1, 0x00, 0xbe, 0xfc, 0x0b, 0x5f, 0xbe,
  0xc7, 0x47, 0x28, 0x3f, 0xc2, 0x57, 0x56, 0x3f, 0x41, 0xcb, 0x53, 0x3e,
  0x6d, 0x35, 0xe9, 0xbc, 0xb3, 0x7e, 0x4a, 0x3e, 0x8e, 0x28, 0xcf, 0xbd,
  0xd6, 0x2c, 0xb0, 0xbe, 0xb5, 0x7a, 0x48, 0x3e, 0x29, 0xe0, 0x1c, 0xbd,
  0xe3, 0xa8, 0xa8, 0x3d, 0x7e, 0x50, 0xff, 0x3e, 0x6a, 0x13, 0x8c, 0x3d,
  0x20, 0xce, 0xe6, 0xbd, 0x0e, 0x10, 0x00, 0xbe, 0xd7, 0xb9, 0x8d, 0xbd,
  0xa2, 0xe6, 0x3a, 0x3f, 0x10, 0xab, 0xe1, 0x3d, 0xcc, 0xe2, 0x3e, 0x3c,
  0xc2, 0x13, 0x8d, 0xbc, 0xf8, 0xfe, 0x73, 0x3f, 0xf4, 0x87, 0x03, 0x3f,
  0x3a, 0x00, 0xcd, 0x3e, 0xc4, 0xee, 0x9a, 0x3e, 0x1f, 0x01, 0xe7, 0x3e,
  0x1e, 0x3f, 0x37, 0x3e, 0x44, 0x88, 0xca, 0xbe, 0x2e, 0x57, 0x7a, 0x3e,
  0x7e, 0x73, 0xed, 0xbe, 0x40, 0x58, 0xd3, 0x3e, 0x85, 0x7f, 0x81, 0x3e,
  0x2f, 0x5b, 0xe3, 0xbb, 0xd6, 0x75, 0x8a, 0x3e, 0x91, 0x74, 0xf9, 0x3e,
  0x65, 0x84, 0x40, 0x3f, 0x8b, 0x96, 0x49, 0x3e, 0xed, 0xeb, 0xc0, 0xbe,
  0x1a, 0x87, 0xbd, 0x3e, 0x86, 0xc1, 0xbb, 0xbe, 0xcc, 0x52, 0xf6, 0xbd,
  0x90, 0x96, 0x42, 0x3e, 0x8a, 0xf9, 0x0f, 0xbf, 0x9d, 0x69, 0x52, 0xbe,
  0x0b, 0x80, 0x9f, 0x3e, 0xa9, 0x96, 0xf9, 0xbe, 0x1e, 0xb2, 0x08, 0x3e,
  0x03, 0x3c, 0x4c, 0xbe, 0x0e, 0x15, 0x8e, 0x3c, 0x52, 0x3a, 0x96, 0x3a,
  0x31, 0x30, 0x00, 0x3f, 0x73, 0xf1, 0x25, 0xbe, 0x08, 0x0f, 0x34, 0xbc,
  0xb8, 0xd9, 0xaf, 0x3d, 0x2b, 0xeb, 0xed, 0x3d, 0xb3, 0xcf, 0x9d, 0x3e,
  0xd9, 0xd3, 0x88, 0xbe, 0x4f, 0x5f, 0x1c, 0xbe, 0x10, 0x5f, 0xdb, 0xbe,
  0x07, 0x82, 0x02, 0xbd, 0xc2, 0x49, 0xd2, 0x3e, 0x33, 0x72, 0xe9, 0x3b,
  0x9a, 0x0c, 0x88, 0x3c, 0xd1, 0x05, 0xa8, 0x3d, 0x5b, 0x88, 0xb2, 0x3e,
  0xe2, 0x9d, 0xde, 0x3e, 0x5c, 0x51, 0xb3, 0x3e, 0xf6, 0x64, 0xc0, 0x3e,
  0xd6, 0x30, 0x96, 0xbe, 0xea, 0xf6, 0xa5, 0x3d, 0xfd, 0x3e, 0x82, 0x3e,
  0xdc, 0x89, 0x7c, 0xbd, 0x4b, 0x39, 0xba, 0x3e, 0x5f, 0xaa, 0x6a, 0x3d,
  0xfb, 0x71, 0x26, 0xbc, 0x15, 0xd2, 0x23, 0xbe, 0xe1, 0xf1, 0x17, 0xbf,
  0xf5, 0x70, 0xc9, 0x3c, 0x03, 0xfa, 0x75, 0x3e, 0x55, 0xf8, 0x94, 0xbd,
  0x9f, 0x8b, 0x77, 0x3e, 0x58, 0xf7, 0xf3, 0xbe, 0xc6, 0x88, 0x09, 0x3e,
  0x3f, 0xc1, 0x85, 0xbd, 0xf6, 0x1f, 0xde, 0x3e, 0x1e, 0x8c, 0xd1, 0xbe,
  0x49, 0xc4, 0x81, 0xbe, 0x9c, 0xe3, 0x08, 0x3f, 0x45, 0x9c, 0x02, 0xbf,
  0x73, 0x77, 0x51, 0x3c, 0xf3, 0x9c, 0x51, 0x3d, 0xef, 0xb6, 0x8f, 0xbe,
  0x8e, 0x7a, 0x5a, 0xbd, 0xf2, 0xdd, 0x90, 0xbe, 0x1e, 0x86, 0x41, 0x3e,
  0x7b, 0x0d, 0x2b, 0x3e, 0x3d, 0xbd, 0xdc, 0xbd, 0xaa, 0xc3, 0x31, 0x3e,
  0xcc, 0x67, 0x03, 0x3f, 0xd0, 0x2d, 0x2b, 0x3f, 0xf4, 0x2b, 0x02, 0x3e,
  0x27, 0x94, 0xe8, 0xbe, 0x3d, 0x29, 0xdb, 0x3e, 0x55, 0x81, 0xa9, 0xbe,
  0xc3, 0x91, 0x85, 0x3e, 0x70, 0x73, 0x3b, 0xbe, 0x3b, 0x22, 0x13, 0xbf,
  0x8d, 0xa9, 0x2d, 0xbe, 0xbe, 0x0d, 0x14, 0x3d, 0x2f, 0xcf, 0x95, 0xbe,
  0x5b, 0xa9, 0xdf, 0x3d, 0x2e, 0x98, 0x83, 0xbe, 0xa3, 0x91, 0x38, 0xbe,
  0x74, 0x0f, 0x1f, 0x3e, 0xdd, 0xce, 0x18, 0x3e, 0x50, 0x09, 0xb8, 0xbd,
  0x2e, 0xac, 0x96, 0x3e, 0x7b, 0x22, 0x58, 0x3d, 0xbf, 0xba, 0x9e, 0x3d,
  0x05, 0xb1, 0x31, 0x3f, 0x9f, 0xfe, 0xdf, 0x3d, 0xc0, 0xe0, 0xfb, 0x3e,
  0x12, 0x09, 0x7e, 0xbc, 0xbd, 0x55, 0x4e, 0xbe, 0xb1, 0x41, 0xb8, 0x3d,
  0x79, 0x84, 0x1e, 0xbf, 0x6a, 0xc5, 0x86, 0x3e, 0x7f, 0x95, 0x1a, 0xbe,
  0xd4, 0x25, 0x45, 0x3e, 0x12, 0x35, 0xe9, 0x3d, 0xfc, 0x09, 0x27, 0x3f,
  0x45, 0x89, 0x2c, 0x3f, 0x32, 0x52, 0x81, 0xbd, 0x17, 0xf3, 0xd4, 0xbe,
  0xc8, 0xb4, 0x19, 0x3f, 0xbf, 0xd8, 0xb0, 0xbe, 0x75, 0xb2, 0x42, 0xbc,
  0xbd, 0xf1, 0xff, 0xbd, 0xec, 0xe2, 0x0f, 0xbf, 0x37, 0x42, 0xd1, 0xbe,
  0xf9, 0x5f, 0x58, 0x3e, 0xb1, 0xed, 0x22, 0xbf, 0x8e, 0x8d, 0x85, 0xbe,
  0x74, 0x68, 0x85, 0xbe, 0xdc, 0xa1, 0x37, 0x3e, 0x8f, 0x1c, 0xaf, 0x3c,
  0xa9, 0x6e, 0xb2, 0x3e, 0xa8, 0x8f, 0xce, 0xbe, 0x9a, 0x0b, 0xa4, 0xbc,
  0xdf, 0x16, 0xba, 0x3e, 0x8c, 0x9d, 0x72, 0xbe, 0x32, 0xff, 0xd7, 0x3e,
  0xbf, 0x7c, 0x95, 0xbe, 0x7d, 0xc5, 0x53, 0xbe, 0x1e, 0xd2, 0x86, 0x3c,
  0x13, 0x28, 0x37, 0x3e, 0x85, 0x35, 0x90, 0xbd, 0x89, 0x32, 0xd4, 0x3e,
  0xe5, 0x9c, 0xc2, 0xbe, 0xe3, 0x9e, 0x2a, 0x3e, 0xbb, 0xf8, 0x82, 0xbc,
  0x8f, 0xb9, 0xba, 0xbd, 0x88, 0xec, 0x23, 0xbf, 0xe5, 0xcf, 0x43, 0xbe,
  0xe1, 0x2b, 0x0d, 0x3e, 0x67, 0xc8, 0xaf, 0x3d, 0xd8, 0x6d, 0x25, 0xbf,
  0xb1, 0x18, 0xd7, 0x3e, 0x9e, 0x47, 0xaa, 0xbe, 0xb8, 0x23, 0x11, 0x3e,
  0x68, 0xae, 0x6f, 0x3e, 0x19, 0xce, 0x2b, 0x3e, 0xa6, 0x46, 0x5c, 0x3e,
  0xc0, 0x63, 0x34, 0x3e, 0x13, 0xa0, 0x36, 0xbd, 0xef, 0xfc, 0x6a, 0x3e,
  0xab, 0xde, 0x07, 0x3e, 0x25, 0xec, 0x90, 0x3e, 0x36, 0x76, 0xc1, 0xbe,
  0x8a, 0x99, 0x26, 0x3e, 0x46, 0xdd, 0xfa, 0xba, 0x74, 0x53, 0x9d, 0x3e,
  0x01, 0xdf, 0xac, 0x3e, 0x9b, 0x7f, 0x43, 0xbf, 0x9e, 0xfd, 0x31, 0x3f,
  0xa2, 0x05, 0x87, 0x3d, 0xca, 0xef, 0x23, 0x3d, 0xf5, 0xe8, 0x05, 0x3e,
  0xe3, 0x3b, 0x8c, 0xbe, 0x92, 0x0a, 0xf2, 0x3e, 0x3a, 0xf8, 0x44, 0xbe,
  0x3d, 0x52, 0x73, 0xbe, 0xc6, 0x71, 0x42, 0x3e, 0x6f, 0xdf, 0x76, 0x3e,
  0x0c, 0xdf, 0xd0, 0xbe, 0xfb, 0xd8, 0x02, 0xbf, 0x7f, 0x27, 0xef, 0x3e,
  0xc8, 0x48, 0x1a, 0x3e, 0x5b, 0x7f, 0x1b, 0xbf, 0x62, 0x99, 0x36, 0xbd,
  0x57, 0xb9, 0x1e, 0x3e, 0xea, 0xbf, 0x60, 0x3e, 0xea, 0x7f, 0x0d, 0x3f,
  0xc2, 0x07, 0x83, 0x3e, 0x7d, 0x7f, 0xff, 0x3e, 0xf6, 0x04, 0x91, 0x3e,
  0x40, 0x0f, 0x27, 0xbe, 0x05, 0x21, 0x78, 0x3e, 0xd0, 0x16, 0x5b, 0xbe,
  0x57, 0x9f, 0xfe, 0x3d, 0xc3, 0x12, 0x61, 0xbe, 0xf4, 0x3f, 0x6b, 0x3d,
  0xd0, 0x2b, 0xfd, 0xbd, 0xf1, 0x75, 0xba, 0x3e, 0x31, 0x47, 0x10, 0x3f,
  0xf0, 0xc0, 0x23, 0xbf, 0xa8, 0x8a, 0xb1, 0x3e, 0xbc, 0x43, 0x3d, 0xbe,
  0xa1, 0x78, 0x03, 0xbf, 0x15, 0x20, 0x26, 0x3e, 0x72, 0xc7, 0x35, 0x3f,
  0x4c, 0x98, 0x31, 0x3d, 0x8d, 0x6e, 0x8a, 0x3c, 0x86, 0xfa, 0xe0, 0x3e,
  0x76, 0xe1, 0x48, 0x3f, 0x9b, 0x1e, 0x04, 0x3f, 0xbf, 0x38, 0xe2, 0x3d,
  0xc9, 0xad, 0x5a, 0xbd, 0xda, 0x2a, 0x68, 0xbe, 0xf4, 0x00, 0x21, 0x3e,
  0x26, 0x23, 0xa3, 0xbd, 0x15, 0x5e, 0xd4, 0xbc, 0x18, 0xb1, 0xd2, 0x3e,
  0xc5, 0x46, 0x56, 0xbe, 0x66, 0x5b, 0xe4, 0x3c, 0xa4, 0x02, 0xd0, 0xbd,
  0x91, 0xcf, 0xff, 0xbe, 0x4d, 0x8d, 0x8b, 0xbd, 0x88, 0x16, 0x6c, 0x3e,
  0x37, 0x7b, 0x06, 0xbd, 0xf4, 0x55, 0xd5, 0xbd, 0x7f, 0xc0, 0x0f, 0xbf,
  0x3d, 0xb3, 0x3f, 0x3e, 0x5c, 0x24, 0x6d, 0x3e, 0x85, 0x85, 0xdc, 0x3e,
  0xbd, 0xce, 0xcd, 0xbe, 0x30, 0x41, 0x0a, 0xbf, 0xaf, 0xd2, 0x5f, 0x3e,
  0xee, 0x9a, 0xcf, 0xbe, 0xba, 0x0c, 0x82, 0x3d, 0x4b, 0xa4, 0x47, 0xbf,
  0x63, 0x2e, 0x90, 0x3e, 0x43, 0x9c, 0x26, 0x3f, 0xbd, 0xa0, 0xaa, 0xbd,
  0x3b, 0xab, 0xa1, 0x3e, 0xf0, 0x2f, 0x76, 0x3e, 0xad, 0x84, 0x5a, 0x3f,
  0xac, 0xf5, 0xc7, 0x3e, 0x0a, 0x03, 0x18, 0x3e, 0x7b, 0xc4, 0xc8, 0x3e,
  0x25, 0x2a, 0xe5, 0xbd, 0x07, 0x8e, 0x62, 0xbd, 0x6f, 0xb7, 0xd3, 0x3e,
  0x91, 0x0f, 0xb2, 0x3d, 0x68, 0x20, 0x2e, 0x3f, 0x7e, 0x69, 0x2b, 0xbe,
  0x8d, 0xe4, 0x17, 0xbe, 0xfa, 0xdf, 0x3e, 0xbd, 0xa4, 0xa9, 0xf4, 0xbe,
  0xe5, 0xa8, 0x77, 0x3e, 0x97, 0x3e, 0x6d, 0xbe, 0xf9, 0x90, 0x3b, 0xbe,
  0xdd, 0x5a, 0x2f, 0x3d, 0xbc, 0xf4, 0x2f, 0xbf, 0xe6, 0x9f, 0xa3, 0x3e,
  0x67, 0xdc, 0xf5, 0x3d, 0x74, 0x79, 0x26, 0x3f, 0x84, 0x86, 0x20, 0xbf,
  0xdc, 0x0d, 0x9f, 0xbe, 0x2d, 0xac, 0xe0, 0x3e, 0x4e, 0xcf, 0x44, 0xbf,
  0xb3, 0x20, 0xea, 0xbc, 0xc7, 0x50, 0x29, 0xbf, 0x76, 0xb1, 0xa1, 0x3e,
  0xc7, 0xea, 0xb9, 0x3e, 0xa1, 0xf1, 0xbf, 0xbd, 0xdb, 0xc3, 0xd9, 0x3e,
  0xad, 0x3e, 0x2b, 0x3e, 0xea, 0x7b, 0x03, 0x3f, 0xa3, 0xd4, 0x17, 0x3f,
  0xdd, 0x93, 0x05, 0x3f, 0x3a, 0xe9, 0xee, 0x3e, 0x4b, 0x7f, 0xe4, 0xbe,
  0xd0, 0xbd, 0x85, 0xbd, 0x0a, 0x1e, 0x06, 0x3f, 0x3c, 0xf1, 0x47, 0xbe,
  0xa4, 0x59, 0xbe, 0x3e, 0x67, 0x9a, 0x0e, 0xbe, 0xa7, 0x9f, 0x0f, 0x3d,
  0x83, 0x76, 0xae, 0x3d, 0x90, 0xcf, 0xc5, 0xbe, 0xa7, 0xea, 0x75, 0xbd,
  0x4b, 0x8b, 0xfe, 0xbd, 0x2e, 0xe2, 0xbe, 0xbc, 0xf2, 0x89, 0x90, 0x3e,
  0x26, 0x92, 0x01, 0xbf, 0xad, 0x71, 0x46, 0x3e, 0x08, 0x42, 0xcb, 0x3d,
  0x28, 0xbf, 0x04, 0x3f, 0xc5, 0x4c, 0x02, 0xbf, 0xda, 0xf4, 0x0e, 0xbf,
  0x72, 0xc8, 0x25, 0x3f, 0xd6, 0x5c, 0x11, 0xbf, 0x53, 0x62, 0xce, 0xbd,
  0x2f, 0x02, 0xcb, 0xbe, 0x0c, 0x87, 0x63, 0x3e, 0x12, 0xf7, 0x0d, 0x3f,
  0xfd, 0xe9, 0x46, 0x3c, 0x5f, 0x7c, 0x91, 0x3e, 0x10, 0x93, 0xc7, 0x3e,
  0x5b, 0x76, 0x66, 0x3f, 0x85, 0xc3, 0x1c, 0x3f, 0xf2, 0x06, 0x22, 0x3f,
  0x4b, 0xb5, 0x26, 0x3f, 0x75, 0xec, 0x70, 0xbe, 0x59, 0x68, 0x16, 0x3e,
  0xfe, 0x7f, 0xa0, 0x3e, 0xe7, 0xd6, 0x67, 0x3d, 0x83, 0xe9, 0x47, 0x3e,
  0x86, 0xe2, 0xbe, 0xbd, 0x51, 0x78, 0x2c, 0xbd, 0x92, 0xd0, 0x2d, 0xbe,
  0x24, 0x37, 0x37, 0xbf, 0x8a, 0x72, 0x13, 0xbe, 0x48, 0x35, 0x58, 0xbe,
  0x70, 0x7a, 0x5c, 0x3e, 0xb9, 0x78, 0x74, 0xbe, 0x7d, 0x17, 0xf3, 0xbe,
  0xe8, 0x22, 0x11, 0x3f, 0x27, 0xf2, 0xd5, 0x3a, 0x14, 0x77, 0x3d, 0x3f,
  0x52, 0x62, 0x15, 0xbf, 0xc3, 0x2b, 0x11, 0xbf, 0xd7, 0x5c, 0x14, 0x3f,
  0xbb, 0xc5, 0xfd, 0xbe, 0xd9, 0x89, 0xe5, 0x3e, 0x98, 0x83, 0xb1, 0xbc,
  0x1a, 0xaa, 0x91, 0xbe, 0xef, 0xfe, 0x7c, 0x3e, 0xd0, 0x43, 0x10, 0xbf,
  0x96, 0xb0, 0xbe, 0x3e, 0xd3, 0x73, 0xee, 0xbd, 0xd2, 0x78, 0x24, 0xbe,
  0xc3, 0x78, 0xfa, 0x3d, 0xc6, 0x41, 0x20, 0x3d, 0x99, 0x90, 0x34, 0x3f,
  0xcb, 0x24, 0x37, 0xbd, 0x70, 0x26, 0x08, 0xbf, 0x9e, 0xb9, 0xa1, 0x3e,
  0x60, 0xce, 0x86, 0xbe, 0x80, 0xf9, 0x8b, 0xbe, 0x9e, 0x16, 0x25, 0x3e,
  0x4c, 0x37, 0x9d, 0xbe, 0x0b, 0x51, 0x85, 0xbe, 0xd6, 0x90, 0xf1, 0x3d,
  0x59, 0x34, 0x8a, 0xbe, 0x81, 0xe8, 0x48, 0x3e, 0x57, 0xd5, 0xac, 0xbe,
  0xd2, 0xe0, 0x8a, 0xbd, 0x53, 0x38, 0xf1, 0x3e, 0x79, 0x69, 0x5c, 0x3e,
  0x40, 0xd4, 0xb1, 0xbe, 0x46, 0xd0, 0xba, 0x3d, 0xb8, 0x6b, 0xa6, 0xbd,
  0xef, 0x21, 0x48, 0xbe, 0x82, 0xa1, 0x15, 0x3f, 0xd7, 0x3f, 0xf7, 0xbd,
  0xae, 0xc3, 0x84, 0x3e, 0x11, 0x89, 0x71, 0x3d, 0xcb, 0x2b, 0x21, 0xbe,
  0x3a, 0x96, 0x2f, 0x3e, 0xae, 0xee, 0x0e, 0xbf, 0x19, 0x59, 0x02, 0x3f,
  0xa2, 0x5e, 0xf9, 0x3d, 0x77, 0x9f, 0x4a, 0xbe, 0x0f, 0xf1, 0x85, 0x3e,
  0x2c, 0xab, 0xae, 0x3e, 0xaa, 0x67, 0x2b, 0x3f, 0x4a, 0x3d, 0xa6, 0xbd,
  0x79, 0x9a, 0xbe, 0xbe, 0xe8, 0x2f, 0x09, 0x3f, 0x3c, 0xbc, 0x80, 0xbe,
  0xc2, 0xdb, 0x28, 0xbe, 0xee, 0xd9, 0x0a, 0xbd, 0xa8, 0x4e, 0x38, 0xbf,
  0x00, 0xf5, 0x7a, 0xbe, 0xa9, 0x29, 0x50, 0x3d, 0xb5, 0x7f, 0x2a, 0xbf,
  0x4e, 0x82, 0x35, 0x3e, 0x05, 0xfb, 0x1b, 0x3d, 0xd6, 0x3d, 0xf4, 0x3d,
  0xbb, 0x57, 0x51, 0x3e, 0xe7, 0x61, 0x98, 0x3e, 0x97, 0xbb, 0x70, 0xbe,
  0xf8, 0xba, 0x57, 0x3d, 0xa7, 0x07, 0xc1, 0xbc, 0xa2, 0x3c, 0x2c, 0xbe,
  0x00, 0x3a, 0xfc, 0x3e, 0xef, 0xaf, 0x8e, 0x3a, 0x5e, 0xb8, 0x9b, 0xbc,
  0xe9, 0x75, 0x67, 0x3e, 0xe9, 0xa2, 0x4c, 0xbe, 0x51, 0xc5, 0x73, 0xbe,
  0xef, 0xdd, 0x18, 0xbe, 0xe9, 0x96, 0x7d, 0xbd, 0xb7, 0xfc, 0x55, 0xbe,
  0x77, 0x81, 0xeb, 0xbe, 0x1f, 0xcb, 0x87, 0xbe, 0x5b, 0x7d, 0xd0, 0xbe,
  0x76, 0xde, 0xad, 0xbe, 0xb5, 0xab, 0xcd, 0x3d, 0x96, 0x26, 0x70, 0x3e,
  0x8f, 0x28, 0x9e, 0xbe, 0xef, 0x69, 0x0d, 0x3e, 0xe1, 0xec, 0x5c, 0xbc,
  0x55, 0xc9, 0x81, 0x3e, 0xed, 0x6a, 0x52, 0x3e, 0xb7, 0xba, 0xb4, 0x3e,
  0x8b, 0xab, 0x06, 0x3e, 0x98, 0xb2, 0x72, 0xbe, 0x02, 0x63, 0x44, 0x3e,
  0x53, 0xcb, 0x1f, 0xbe, 0x32, 0x56, 0x15, 0xbe, 0xb6, 0x5b, 0xb4, 0x3c,
  0x40, 0x57, 0x4a, 0xbe, 0x97, 0xfb, 0x4c, 0x3d, 0x86, 0x68, 0xb6, 0xbe,
  0x69, 0xb9, 0x81, 0x3e, 0x2f, 0x5e, 0xcb, 0x3e, 0x50, 0xa2, 0x48, 0xbe,
  0x20, 0xb2, 0x4b, 0x3e, 0x5b, 0xe8, 0x29, 0x3f, 0x8d, 0x37, 0x87, 0x3f,
  0xd5, 0x4e, 0xb7, 0xbe, 0x9a, 0xba, 0x6c, 0xbe, 0xeb, 0x72, 0x20, 0xbd,
  0xf7, 0xec, 0xa2, 0x3e, 0x3c, 0x0d, 0xf3, 0xbe, 0xf7, 0x93, 0x50, 0xbe,
  0x90, 0xcd, 0x20, 0x3d, 0x9d, 0xac, 0x46, 0x3e, 0x12, 0x97, 0x63, 0x3e,
  0x48, 0x39, 0x63, 0x3e, 0x65, 0xfc, 0xc1, 0xbd, 0x91, 0x0f, 0x99, 0xbc,
  0x1a, 0x97, 0x44, 0x3e, 0x7d, 0x5f, 0xae, 0xbe, 0x7e, 0xad, 0x1e, 0xbe,
  0x09, 0xe4, 0xb2, 0xbe, 0xbb, 0x15, 0x5a, 0x3e, 0xdc, 0x0c, 0x94, 0x3d,
  0xfb, 0x5c, 0xeb, 0x3d, 0xde, 0x1c, 0x54, 0xbe, 0x24, 0xa7, 0x76, 0x3e,
  0x16, 0x3c, 0x94, 0xbd, 0xca, 0xd5, 0x4f, 0x3f, 0x2b, 0x68, 0x31, 0x3d,
  0x73, 0xc5, 0x65, 0x3d, 0x4d, 0xc3, 0x16, 0x3d, 0xea, 0xcd, 0x5c, 0x3f,
  0xf7, 0xab, 0xca, 0x3e, 0x83, 0xf4, 0x94, 0x3e, 0x3b, 0x6b, 0xfe, 0x3e,
  0x00, 0xf1, 0x65, 0xbe, 0x3e, 0x2c, 0x72, 0xbe, 0xd5, 0x9b, 0xee, 0xbd,
  0x9f, 0x3d, 0xa5, 0xbe, 0x53, 0x78, 0xb5, 0x3e, 0x2f, 0xef, 0x7e, 0xbe,
  0xb8, 0xa2, 0x9b, 0x3e, 0xa7, 0x4c, 0x79, 0x3d, 0x11, 0x18, 0x39, 0x3e,
  0x84, 0x84, 0x6d, 0xbe, 0x17, 0x98, 0x11, 0xbf, 0x87, 0x5e, 0xa7, 0xbd,
  0x0b, 0xfc, 0xfa, 0x3d, 0x62, 0x0a, 0x50, 0xbe, 0xbb, 0xae, 0xf8, 0x3e,
  0xa2, 0x1a, 0x8f, 0x3e, 0xa8, 0xb4, 0x5f, 0xbd, 0x1e, 0xd3, 0x09, 0x3f,
  0x8a, 0x81, 0xa1, 0x3e, 0xef, 0xad, 0x61, 0x3e, 0x76, 0x36, 0xf1, 0x3e,
  0xcd, 0x91, 0x64, 0xbe, 0x82, 0xc7, 0x74, 0x3b, 0xda, 0xe0, 0x1a, 0xbe,
  0xf4, 0x0a, 0xbc, 0x3c, 0x1f, 0x0b, 0x11, 0x3c, 0x48, 0x81, 0xe3, 0x3b,
  0x20, 0x4b, 0x3f, 0xbe, 0xc6, 0x35, 0x18, 0xbe, 0x00, 0x36, 0x32, 0xbd,
  0x0c, 0x9f, 0x22, 0xbf, 0xca, 0x2f, 0xb5, 0x3e, 0xb6, 0xed, 0x01, 0xbf,
  0x01, 0xcd, 0xc1, 0xbe, 0xfb, 0xd0, 0x22, 0x3e, 0xe3, 0x23, 0xf4, 0x3e,
  0x53, 0x15, 0x34, 0xbe, 0x64, 0x74, 0x40, 0xbe, 0xea, 0x85, 0xe4, 0x3e,
  0x36, 0x7f, 0x0b, 0x3f, 0x25, 0xe4, 0xd0, 0x3e, 0xf3, 0x2f, 0xd3, 0xbc,
  0x8a, 0xee, 0xe3, 0xbe, 0xb8, 0xb2, 0x91, 0xbe, 0x9f, 0x78, 0x68, 0x3e,
  0xb8, 0xd7, 0xcb, 0xbe, 0x69, 0x47, 0xb3, 0x3d, 0xca, 0xc2, 0xe9, 0x3e,
  0x03, 0x76, 0x3a, 0x3d, 0x14, 0x90, 0x43, 0x3e, 0x84, 0x57, 0x9b, 0x3d,
  0xd9, 0xe5, 0xeb, 0xbe, 0x3c, 0x33, 0xff, 0xbd, 0x52, 0x5b, 0x23, 0x3d,
  0xa3, 0x10, 0x32, 0xbd, 0x7c, 0xeb, 0xf3, 0x3c, 0xd6, 0xbb, 0xad, 0xbe,
  0xab, 0xc9, 0x59, 0x3e, 0x01, 0x7f, 0x66, 0xbd, 0x5a, 0xa3, 0xff, 0x3e,
  0xc5, 0x39, 0x96, 0xbe, 0x8b, 0x0a, 0xee, 0xbe, 0xe1, 0x58, 0x1d, 0xbe,
  0x1f, 0x0f, 0x3d, 0xbf, 0x47, 0x51, 0x92, 0xbe, 0x8d, 0x2f, 0x1a, 0x3d,
  0x0b, 0x4e, 0x5f, 0x3e, 0x74, 0xb5, 0xa5, 0xbd, 0xb1, 0x45, 0xf5, 0x3e,
  0x4c, 0x36, 0xa6, 0xbe, 0x81, 0x54, 0xcc, 0xbd, 0xd7, 0xd1, 0xcc, 0xbd,
  0x8b, 0x3a, 0xb2, 0xbd, 0x00, 0xa0, 0xf7, 0xbe, 0xce, 0xc1, 0xf5, 0xbe,
  0x37, 0x28, 0xf9, 0x3d, 0xdc, 0x13, 0xc4, 0x3e, 0xa6, 0x2b, 0x21, 0xbf,
  0xcb, 0xa8, 0xb5, 0x3e, 0xde, 0x74, 0xc2, 0xbc, 0x27, 0x1d, 0x68, 0xbe,
  0x52, 0x0f, 0x89, 0x3e, 0x9b, 0x8f, 0x6e, 0x3c, 0xe8, 0xbf, 0x92, 0x3e,
  0x03, 0xf0, 0x83, 0x3e, 0x01, 0xfa, 0x3d, 0x3e, 0x7c, 0x22, 0x89, 0x3e,
  0x76, 0x8d, 0x74, 0xbe, 0x98, 0x2a, 0x10, 0xbe, 0x63, 0x3d, 0xb8, 0xbe,
  0xf8, 0x11, 0xb2, 0x3d, 0xc4, 0x64, 0x09, 0x3e, 0x17, 0x05, 0xc0, 0x3d,
  0xec, 0x50, 0x21, 0xbd, 0x50, 0x50, 0xc3, 0xbe, 0xc0, 0x95, 0x07, 0x3f,
  0xe8, 0x33, 0xc1, 0x3e, 0xa0, 0x0b, 0x37, 0x3e, 0xef, 0x88, 0xd9, 0xbe,
  0x84, 0xcb, 0x82, 0x3e, 0x6d, 0xdf, 0x03, 0xbf, 0x31, 0xec, 0xa7, 0x3e,
  0x04, 0x6e, 0x39, 0xbe, 0x44, 0xed, 0x76, 0x3e, 0x19, 0x96, 0xa3, 0x3e,
  0x42, 0x66, 0x74, 0x3e, 0x07, 0x2a, 0x05, 0x3f, 0xaf, 0x76, 0x0f, 0xbe,
  0x4f, 0xd6, 0x03, 0xbf, 0xf0, 0x83, 0x17, 0x3f, 0xa8, 0x3d, 0xb3, 0xbe,
  0xb8, 0xfe, 0xf3, 0xbd, 0x37, 0x21, 0x08, 0x3e, 0xfb, 0x17, 0x9f, 0xbe,
  0xfd, 0x1e, 0x75, 0xbe, 0xbb, 0x2b, 0x4e, 0xbe, 0x35, 0x0b, 0x01, 0xbf,
  0x8e, 0x5b, 0x1f, 0xbd, 0xec, 0x9a, 0x1f, 0xbe, 0x70, 0xac, 0x29, 0xbd,
  0xd7, 0x7a, 0xab, 0x3d, 0x9c, 0xc1, 0xbc, 0x3e, 0xa8, 0x22, 0x00, 0xbf,
  0x2b, 0x6a, 0x3c, 0x3e, 0xc4, 0x6e, 0x90, 0x3e, 0x28, 0xca, 0xc6, 0xbd,
  0x92, 0x4a, 0x9d, 0x3e, 0xe1, 0x88, 0x9b, 0xbe, 0xce, 0xd1, 0x03, 0xbf,
  0x8a, 0x64, 0xac, 0xbe, 0x6e, 0x8d, 0xb6, 0x3e, 0xd5, 0xed, 0x92, 0x3e,
  0x97, 0x03, 0xc8, 0x3d, 0x3b, 0x65, 0xe0, 0xbe, 0x23, 0xec, 0xb5, 0x3e,
  0x55, 0x1a, 0x18, 0x3e, 0x33, 0x8c, 0x5e, 0x3e, 0x59, 0xfc, 0x4d, 0xbe,
  0x41, 0x0e, 0xad, 0xbe, 0x76, 0xa5, 0xb6, 0xbe, 0xa1, 0xb9, 0x62, 0xbe,
  0xd6, 0x7e, 0xf7, 0xbe, 0xc2, 0xc2, 0x51, 0x3d, 0xa0, 0x3e, 0x12, 0x3e,
  0xd1, 0xab, 0x5d, 0x3d, 0xc2, 0x73, 0x07, 0x3e, 0x0b, 0x04, 0x8d, 0xbe,
  0x79, 0xab, 0xbd, 0xbe, 0x6b, 0x97, 0x95, 0x3d, 0xd5, 0x4d, 0x9a, 0x3b,
  0xc1, 0xd5, 0x32, 0x3e, 0x00, 0xfc, 0xdc, 0x3a, 0xf9, 0x2b, 0x26, 0xbf,
  0x3b, 0x5b, 0xd1, 0xbd, 0xed, 0x34, 0x3b, 0xbe, 0x4e, 0x37, 0x38, 0x3e,
  0x60, 0xc6, 0xbb, 0xbe, 0x8e, 0x5c, 0xce, 0xbe, 0xca, 0x89, 0x98, 0xbd,
  0xde, 0x7e, 0x01, 0xbf, 0xc8, 0xaa, 0x28, 0xbe, 0x32, 0x0a, 0x26, 0xbd,
  0x0e, 0xd9, 0x1d, 0xbd, 0x49, 0x1b, 0x9c, 0x3d, 0xb9, 0x40, 0x35, 0x3e,
  0xcb, 0xd6, 0xad, 0xbe, 0xb3, 0xae, 0x6c, 0xbd, 0xa7, 0xef, 0x8b, 0x3e,
  0xa1, 0x2e, 0x17, 0xbe, 0xc4, 0xb4, 0xc5, 0xbe, 0x7f, 0x6c, 0x08, 0xbf,
  0xbc, 0xbb, 0xf5, 0x3d, 0xb7, 0x55, 0xed, 0x3d, 0x63, 0x9d, 0xdf, 0xbe,
  0xb5, 0xbf, 0x2c, 0xbb, 0xec, 0xdb, 0xb4, 0xbd, 0xd4, 0xd6, 0x07, 0x3e,
  0xe9, 0x13, 0x98, 0x3e, 0xfe, 0xf1, 0x89, 0x3e, 0xf5, 0x0a, 0xce, 0x3e,
  0xfb, 0xa1, 0x40, 0x3e, 0xb7, 0xec, 0x63, 0xbe, 0x55, 0x0d, 0x87, 0x3e,
  0xa7, 0x96, 0x80, 0xbe, 0xef, 0x79, 0xe6, 0x3d, 0xfe, 0x54, 0x8e, 0xbe,
  0x6f, 0x6c, 0x9d, 0x3d, 0x48, 0xc5, 0xd8, 0xbc, 0x62, 0x82, 0x91, 0xbe,
  0xc7, 0x5a, 0x25, 0x3e, 0x85, 0xf9, 0x0d, 0xbf, 0x77, 0x30, 0x0b, 0x3f,
  0x47, 0xb3, 0xd4, 0xbe, 0x31, 0xe0, 0x28, 0xbf, 0x81, 0x3b, 0xa6, 0x3e,
  0xe6, 0x68, 0x0f, 0x3e, 0xc3, 0x60, 0x78, 0x3d, 0x1f, 0x48, 0xed, 0xbd,
  0x20, 0xed, 0xa1, 0x3e, 0x4f, 0xcb, 0x07, 0x3f, 0x8d, 0xfc, 0x84, 0x3e,
  0xb7, 0xb6, 0x85, 0xbe, 0x3b, 0x18, 0xac, 0xbe, 0x29, 0x3f, 0xad, 0xbe,
  0xc6, 0x31, 0x00, 0xbd, 0x97, 0xe5, 0x9b, 0xbe, 0x57, 0xfd, 0x23, 0x3e,
  0xf4, 0x85, 0x86, 0x3e, 0xf2, 0xf6, 0x44, 0x3e, 0x11, 0xbc, 0xab, 0x3b,
  0xad, 0xb3, 0x71, 0x3e, 0x4d, 0xe2, 0xd8, 0xbe, 0x68, 0x2e, 0xa9, 0x3d,
  0x54, 0xb9, 0x7c, 0x3e, 0x4d, 0x82, 0x11, 0x3d, 0x1e, 0x18, 0x2a, 0xbe,
  0xf4, 0xd6, 0x21, 0xbf, 0x41, 0x9b, 0x1a, 0x3d, 0x49, 0x17, 0x97, 0xbd,
  0xb6, 0x49, 0x86, 0x3e, 0xad, 0xbb, 0x14, 0xbf, 0xa7, 0x4f, 0xdb, 0xbe,
  0xf4, 0xe5, 0xbd, 0xbe, 0xcc, 0x20, 0x00, 0xbf, 0x2e, 0x30, 0xe6, 0x3e,
  0x2d, 0x18, 0xbd, 0xbb, 0xfa, 0x05, 0xe5, 0xbe, 0x0b, 0xc1, 0x94, 0xbc,
  0x1d, 0x65, 0x2d, 0xbf, 0xe4, 0x55, 0xe4, 0x3e, 0xda, 0xc3, 0x9b, 0xbe,
  0x5f, 0xd2, 0x12, 0x3e, 0x1c, 0xff, 0xa1, 0xbd, 0x49, 0x01, 0x21, 0x3f,
  0x57, 0x5c, 0xcf, 0x3e, 0x19, 0x85, 0x18, 0x3e, 0x71, 0xd0, 0xe0, 0xbe,
  0x47, 0x07, 0x07, 0x3f, 0x14, 0x5e, 0xff, 0xbe, 0xc7, 0x99, 0xbb, 0xbe,
  0x76, 0xe4, 0xf6, 0x3d, 0xfa, 0xa1, 0x01, 0xbf, 0xf6, 0xeb, 0xa5, 0x3b,
  0x04, 0x00, 0x7a, 0x3e, 0xcd, 0xe4, 0x04, 0xbf, 0x46, 0xbf, 0x0a, 0xbe,
  0x52, 0xd9, 0xc7, 0xbe, 0xc6, 0xe2, 0x59, 0x3d, 0x77, 0xbc, 0xf5, 0x3d,
  0x04, 0xa6, 0x60, 0x3e, 0xf3, 0x74, 0xf1, 0xbd, 0x38, 0x12, 0x66, 0x3e,
  0x60, 0x3c, 0xb9, 0xbc, 0xfc, 0x92, 0x91, 0xbd, 0x1f, 0xa9, 0xe9, 0x3e,
  0x8b, 0xf4, 0x8f, 0xbb, 0x29, 0xa8, 0x8a, 0xbe, 0x49, 0xd8, 0xb0, 0xbd,
  0xfb, 0x39, 0xfc, 0x3d, 0xe3, 0xee, 0x43, 0xbe, 0xd5, 0xbb, 0x0b, 0x3d,
  0x8d, 0x06, 0x7a, 0xbd, 0x9c, 0x1d, 0x4f, 0x3e, 0x86, 0x82, 0xaa, 0x3b,
  0x1f, 0xac, 0xbf, 0x3d, 0x1f, 0x97, 0x42, 0xbc, 0xa0, 0x90, 0x71, 0xbc,
  0xa3, 0xc8, 0x46, 0x3e, 0xcf, 0x1f, 0x9f, 0x3d, 0x8d, 0x9d, 0x1d, 0xbe,
  0x96, 0x20, 0x7d, 0xbd, 0xff, 0x05, 0x3d, 0xbd, 0x88, 0xf6, 0x8a, 0xbe,
  0x7e, 0x79, 0x92, 0xbe, 0xda, 0x4e, 0x6b, 0x3d, 0x26, 0x99, 0x4e, 0xbe,
  0x40, 0xd6, 0x80, 0xbe, 0x50, 0x40, 0xb7, 0xbc, 0x4e, 0x8b, 0xdb, 0xbd,
  0xcb, 0x52, 0x1c, 0x3e, 0xa8, 0xb1, 0x89, 0xbd, 0x42, 0xf3, 0xf8, 0xbd,
  0xf4, 0xe2, 0x9b, 0xbe, 0x78, 0xa9, 0x81, 0xbe, 0xe3, 0xa6, 0xb1, 0x3d,
  0x2a, 0x0d, 0x06, 0xbe, 0xff, 0x0e, 0xc0, 0x3d, 0xa9, 0xb7, 0x84, 0xbe,
  0x96, 0x4a, 0xd1, 0x3e, 0x40, 0xaf, 0x39, 0x3e, 0x89, 0x1b, 0xe0, 0xbe,
  0x8b, 0x3d, 0xbd, 0x3d, 0x8b, 0xf4, 0x0f, 0xbf, 0xcb, 0x8f, 0x8c, 0x3e,
  0x96, 0xb9, 0x1e, 0x3c, 0x88, 0x27, 0x58, 0x3e, 0x53, 0x06, 0x85, 0x3d,
  0xb9, 0x09, 0xc2, 0x3e, 0xbe, 0xac, 0x0b, 0x3f, 0xea, 0x34, 0xe6, 0x3e,
  0xa0, 0x84, 0x18, 0xbf, 0xc8, 0x71, 0x04, 0x3f, 0x86, 0x47, 0x09, 0xbf,
  0x98, 0x69, 0x68, 0xbe, 0x8e, 0x12, 0xb5, 0x3d, 0x8b, 0x92, 0x3d, 0xbf,
  0x50, 0xbd, 0xcb, 0x3c, 0xb4, 0x7a, 0x45, 0x3e, 0x8b, 0x7f, 0x91, 0xbe,
  0xcc, 0xa4, 0xcd, 0x3d, 0x30, 0xdf, 0xa3, 0xbe, 0x20, 0x08, 0x1e, 0xbe,
  0xd5, 0x43, 0xa3, 0x3e, 0xbf, 0xcc, 0xc1, 0x3e, 0xb7, 0x19, 0x7e, 0xbe,
  0x1b, 0x02, 0x23, 0x3e, 0x81, 0xb9, 0xd8, 0x3d, 0x05, 0x7b, 0x8a, 0xbb,
  0x00, 0x61, 0x29, 0x3f, 0x3e, 0xda, 0xeb, 0xbd, 0x54, 0x4a, 0x9e, 0x3d,
  0x64, 0xb7, 0xf2, 0xbd, 0xd2, 0xc5, 0x10, 0x3e, 0xe6, 0x9d, 0x90, 0xbe,
  0x6a, 0x23, 0x94, 0x3e, 0xea, 0x27, 0x91, 0xbe, 0xe1, 0xcb, 0x9e, 0xbe,
  0x9d, 0x21, 0xff, 0xbd, 0xb8, 0x5c, 0x7b, 0xbe, 0xdc, 0x11, 0x19, 0xbf,
  0x66, 0xf6, 0xaa, 0xbe, 0x29, 0x02, 0x56, 0x3e, 0xed, 0xed, 0x21, 0xbe,
  0xbd, 0xa4, 0xab, 0xbe, 0x83, 0x95, 0x86, 0x3e, 0x76, 0xe7, 0x4f, 0xbe,
  0x48, 0x7e, 0x18, 0xbe, 0xa9, 0x98, 0xa5, 0xbd, 0x32, 0x58, 0xee, 0x3d,
  0x8e, 0x53, 0x17, 0x3f, 0xca, 0xab, 0x5a, 0x3e, 0x66, 0xee, 0x83, 0xbe,
  0x18, 0x1b, 0xbf, 0x3d, 0x8b, 0x5b, 0x15, 0xbe, 0x86, 0x69, 0x45, 0x3e,
  0x65, 0x36, 0xa0, 0xbe, 0x77, 0xc7, 0x8d, 0x3d, 0xe6, 0x12, 0x00, 0x3e,
  0x29, 0xe5, 0x84, 0x3e, 0x5c, 0x00, 0x03, 0x3f, 0xc2, 0x1a, 0x43, 0xbf,
  0xeb, 0x4a, 0x0d, 0x3f, 0x4a, 0xca, 0x44, 0x3e, 0x7a, 0xed, 0x89, 0x3d,
  0x0a, 0xf6, 0x8c, 0xbe, 0x23, 0xb2, 0x1c, 0xbd, 0xcd, 0xb8, 0x3f, 0xbf,
  0xe3, 0x61, 0x00, 0x3f, 0x89, 0x3d, 0x9b, 0xbe, 0xc0, 0x63, 0x58, 0x3e,
  0x5b, 0xa1, 0x63, 0x3e, 0x0a, 0x3f, 0xfc, 0x3e, 0x6b, 0xa9, 0x5a, 0x3f,
  0xc1, 0xa3, 0xd4, 0x3d, 0x15, 0x81, 0xa1, 0xbe, 0x35, 0x04, 0xa8, 0x3e,
  0xea, 0xa0, 0x96, 0xbe, 0x33, 0x15, 0xb8, 0xbd, 0xb6, 0x3e, 0x35, 0xbe,
  0x3b, 0xd3, 0xa2, 0xbe, 0xba, 0x69, 0xa7, 0xbd, 0x4a, 0xe8, 0x0f, 0xbd,
  0xc2, 0x43, 0x27, 0xbf, 0x33, 0x4a, 0x3a, 0xbe, 0x15, 0xfc, 0x30, 0xbe,
  0x33, 0xdd, 0x55, 0xbe, 0xdf, 0xef, 0xa2, 0x3d, 0x34, 0xcf, 0x3c, 0xbd,
  0x38, 0x21, 0xbd, 0xbe, 0xff, 0x87, 0x87, 0xbd, 0x79, 0x3a, 0xa2, 0x3e,
  0xb0, 0xb4, 0x2d, 0x3d, 0x3e, 0x52, 0x1a, 0x3f, 0x37, 0x38, 0xfa, 0x3d,
  0x63, 0x98, 0x2f, 0x3e, 0xf2, 0x9d, 0x04, 0xbe, 0xee, 0xba, 0x89, 0xbe,
  0x00, 0xf5, 0x51, 0xbd, 0xcc, 0xe3, 0x29, 0xbf, 0x6f, 0x35, 0x02, 0x3e,
  0xfc, 0x56, 0x71, 0x3d, 0x78, 0xda, 0x49, 0x3b, 0xfc, 0x9f, 0x25, 0x3e,
  0xae, 0x12, 0x27, 0x3f, 0xcd, 0x1b, 0x0a, 0x3f, 0xa5, 0x0f, 0xbe, 0x3e,
  0x65, 0xd2, 0x20, 0xbf, 0xf2, 0x97, 0x0e, 0x3f, 0x4e, 0x04, 0x27, 0xbf,
  0xe6, 0x00, 0xa7, 0xbd, 0x85, 0x15, 0x61, 0xbc, 0x4d, 0xf2, 0x15, 0xbf,
  0xef, 0x31, 0x0f, 0xbe, 0x02, 0x58, 0x93, 0xbe, 0x48, 0x75, 0x84, 0xbe,
  0xbd, 0x39, 0x83, 0xbe, 0xc4, 0xe8, 0x84, 0xbe, 0x85, 0xad, 0x7e, 0x3d,
  0xbc, 0xb8, 0xb8, 0x3e, 0x87, 0xe8, 0x06, 0x3e, 0x18, 0xdf, 0x0c, 0xbe,
  0x5e, 0xf3, 0x92, 0x3d, 0x6d, 0xb0, 0x00, 0xbe, 0x9f, 0xe8, 0x2c, 0xbe,
  0x1a, 0x8a, 0xd6, 0x3e, 0x79, 0x99, 0x45, 0xbe, 0xea, 0xc7, 0xa1, 0xbe,
  0xbc, 0x4a, 0x35, 0xbf, 0x1c, 0xf4, 0xed, 0x3d, 0xc9, 0x21, 0xd4, 0x3d,
  0xad, 0xd6, 0x5b, 0x3e, 0x58, 0x1b, 0x76, 0x3d, 0xd0, 0x5f, 0x44, 0x3e,
  0xd5, 0x42, 0xe7, 0xbb, 0xdd, 0xf9, 0xa3, 0x3d, 0xef, 0xc2, 0xc2, 0xbe,
  0x6d, 0x27, 0x21, 0xbf, 0x4a, 0x74, 0xc2, 0xbe, 0x7e, 0x94, 0x82, 0x3e,
  0x04, 0x7e, 0x6e, 0xbe, 0x20, 0x44, 0x56, 0x3e, 0xc2, 0x5c, 0x62, 0x3e,
  0xc0, 0xa7, 0x10, 0x3e, 0xca, 0xf1, 0x23, 0x3e, 0x60, 0x19, 0x65, 0xbd,
  0xb2, 0xb3, 0x98, 0xbe, 0xb5, 0x07, 0xf8, 0x3d, 0xbc, 0x6c, 0x61, 0x3e,
  0x79, 0x68, 0x67, 0xbd, 0x64, 0x53, 0x04, 0x3e, 0x15, 0x2b, 0xa4, 0xbe,
  0x48, 0xd4, 0x6b, 0x3d, 0x50, 0xdd, 0xad, 0x3e, 0xca, 0x36, 0x01, 0x3e,
  0xcb, 0x35, 0xea, 0xbe, 0xac, 0xd6, 0x67, 0xbe, 0xf4, 0xd0, 0xc2, 0xbe,
  0x6c, 0x00, 0xdb, 0xbd, 0xfb, 0xab, 0x18, 0xbe, 0x2b, 0x20, 0x3c, 0x3e,
  0xbd, 0xf1, 0x9d, 0xbe, 0x72, 0xe5, 0x7b, 0x3e, 0x41, 0xad, 0x07, 0x3e,
  0xdd, 0xe7, 0x8c, 0xbd, 0x9d, 0xe2, 0x97, 0xbe, 0x49, 0x1a, 0x9a, 0xbd,
  0x0b, 0x0e, 0xe3, 0xbd, 0x0a, 0xc5, 0x19, 0x3e, 0xb3, 0xfa, 0xa2, 0xbe,
  0x00, 0x84, 0x9a, 0xbc, 0xe5, 0x49, 0x13, 0x3e, 0xe9, 0xc8, 0x92, 0x3d,
  0x9f, 0x14, 0x98, 0xbe, 0x49, 0x51, 0x45, 0xbc, 0xde, 0x47, 0x1b, 0x3b,
  0x4d, 0xd9, 0x8a, 0xbe, 0xbe, 0x5d, 0x2c, 0xbe, 0x65, 0x52, 0x6f, 0x3e,
  0x2c, 0xab, 0x11, 0xbe, 0x41, 0xcb, 0x52, 0x3e, 0xa4, 0x7f, 0x8c, 0xbc,
  0xed, 0x3d, 0xfd, 0xbc, 0x0d, 0x45, 0xef, 0x3d, 0x91, 0x48, 0x75, 0x3e,
  0xab, 0x51, 0x3e, 0x3e, 0x4a, 0x0c, 0x2e, 0xbd, 0x54, 0x8a, 0xdf, 0xbd,
  0xa9, 0x90, 0xf3, 0xbc, 0x2b, 0x2f, 0xe2, 0x3c, 0x9c, 0xcd, 0x40, 0xbe,
  0xb1, 0x7a, 0x88, 0xbe, 0xea, 0x91, 0x0b, 0xbf, 0x4f, 0x60, 0x9c, 0x3e,
  0x91, 0xa1, 0xd3, 0xbd, 0xb6, 0xb3, 0xc0, 0x3d, 0x3c, 0x85, 0xaf, 0xbd,
  0xc2, 0xb6, 0xcc, 0x3e, 0x68, 0xd6, 0xf5, 0x3e, 0x20, 0xf0, 0x46, 0x3d,
  0x27, 0x8f, 0x03, 0xbf, 0xe0, 0xf0, 0x2e, 0xbf, 0x75, 0x09, 0xf2, 0xbe,
  0x4b, 0xef, 0x9a, 0x3d, 0x38, 0x8f, 0x89, 0xbe, 0x20, 0x0c, 0x88, 0x3e,
  0xfc, 0xf6, 0x01, 0x3f, 0x12, 0x0b, 0x07, 0xbd, 0xce, 0x18, 0x9d, 0x3d,
  0x94, 0xf0, 0x6f, 0x3e, 0xf8, 0xee, 0xfd, 0xbe, 0xd4, 0x22, 0x4e, 0xbd,
  0x22, 0xfa, 0x4f, 0xbe, 0xd4, 0xd8, 0x8d, 0x3d, 0xeb, 0xff, 0x6e, 0xbe,
  0xe2, 0xce, 0x2e, 0xbf, 0xda, 0x1b, 0x89, 0xbe, 0x85, 0xb0, 0xe3, 0x3d,
  0xa3, 0x1f, 0x9f, 0x3e, 0xad, 0xad, 0x49, 0xbf, 0x51, 0xa1, 0x65, 0xbe,
  0x5e, 0x65, 0xd6, 0xbe, 0xe2, 0x92, 0xe6, 0xbe, 0xe5, 0xf8, 0x11, 0xbe,
  0x18, 0x75, 0x28, 0x3f, 0x53, 0x38, 0x31, 0x3d, 0xae, 0x9e, 0x04, 0xbf,
  0x69, 0x70, 0x47, 0xbe, 0x07, 0x97, 0x90, 0xbe, 0x19, 0x34, 0x09, 0xbf,
  0x4a, 0x68, 0x2d, 0xbf, 0x44, 0x12, 0x35, 0xbe, 0x48, 0xed, 0xb2, 0xbe,
  0x7d, 0xe2, 0x8e, 0xbe, 0x8d, 0xac, 0xc4, 0x3e, 0xfa, 0x6f, 0x18, 0x3d,
  0x64, 0x08, 0xc7, 0xbe, 0x93, 0x56, 0x8c, 0x3e, 0x1e, 0xfc, 0x9e, 0xbe,
  0x71, 0xb0, 0xf2, 0xbc, 0x11, 0x73, 0x8d, 0x3e, 0x53, 0x3b, 0x15, 0xbe,
  0xc5, 0x3e, 0xe4, 0x3e, 0x5a, 0x6a, 0xfe, 0xbd, 0xc9, 0x17, 0x46, 0xbe,
  0x99, 0x2b, 0x94, 0x3e, 0xdd, 0x79, 0x52, 0xbe, 0x35, 0x65, 0xe4, 0x3e,
  0xca, 0x40, 0x24, 0xbe, 0xfe, 0xb4, 0xee, 0xbd, 0x1d, 0x64, 0x8f, 0xbe,
  0x59, 0x9c, 0x05, 0x3f, 0x67, 0x17, 0xd6, 0x3e, 0x1b, 0xec, 0x17, 0xbf,
  0x6e, 0x13, 0x41, 0x3f, 0x1d, 0x52, 0x3b, 0x3e, 0x8d, 0x97, 0x2f, 0x3e,
  0x3d, 0x8b, 0xfc, 0xbe, 0xd3, 0x81, 0x3c, 0x3e, 0xa1, 0xf0, 0x32, 0xbf,
  0x64, 0xa5, 0x1b, 0x3d, 0xf2, 0x5b, 0xa1, 0xbe, 0x48, 0x35, 0x4c, 0x3e,
  0x53, 0x6e, 0xd2, 0x3c, 0x39, 0xe9, 0x13, 0x3f, 0xfb, 0x45, 0x97, 0x3e,
  0x92, 0x43, 0x7b, 0xbd, 0x4c, 0xe7, 0xc0, 0xbe, 0xb6, 0x55, 0x01, 0x3f,
  0x2b, 0x5c, 0xcf, 0xbe, 0x25, 0xd3, 0x86, 0x3c, 0x09, 0x10, 0x22, 0xbe,
  0x5b, 0xd6, 0x42, 0xbf, 0x36, 0x5c, 0xb9, 0xbd, 0x51, 0x0e, 0xa6, 0x3d,
  0x6d, 0xc9, 0x04, 0xbf, 0xe2, 0x28, 0x87, 0xbd, 0x22, 0x32, 0x83, 0xbe,
  0xe1, 0xf7, 0x2d, 0xbe, 0x31, 0x66, 0xf1, 0x3d, 0xf9, 0x47, 0x12, 0x3e,
  0x9d, 0x9c, 0x28, 0xbe, 0xc3, 0xc9, 0x02, 0x3d, 0x3d, 0x86, 0xaf, 0x3e,
  0x2c, 0xa5, 0x31, 0x3e, 0xbb, 0xb8, 0xdd, 0x3e, 0x28, 0x47, 0x46, 0xbe,
  0xde, 0x9b, 0x60, 0x3e, 0x17, 0x19, 0x17, 0x3d, 0xb3, 0x5f, 0xd6, 0xbe,
  0x03, 0x2c, 0x28, 0x3d, 0x38, 0xc2, 0x06, 0xbf, 0xdf, 0x5e, 0xcf, 0x3e,
  0x19, 0x32, 0x86, 0xbe, 0xed, 0x83, 0x23, 0xbe, 0x4d, 0x5e, 0x24, 0x3d,
  0x81, 0x93, 0xa2, 0x3e, 0xc7, 0x35, 0x03, 0x3f, 0x44, 0x1a, 0x89, 0x3e,
  0x99, 0x59, 0xc6, 0xbe, 0x09, 0x3a, 0xcb, 0x3d, 0x49, 0x30, 0x20, 0xbe,
  0x41, 0x69, 0x4f, 0xbb, 0xd9, 0x98, 0x32, 0xbe, 0x94, 0xf6, 0x1f, 0xbf,
  0xee, 0xcb, 0x80, 0xbe, 0xe9, 0x52, 0xd4, 0x3e, 0x55, 0xb0, 0xe9, 0xbe,
  0x74, 0xd5, 0x6d, 0x3e, 0xba, 0x70, 0x97, 0xbe, 0xde, 0xf6, 0x3f, 0xbe,
  0x5c, 0x8e, 0xc7, 0x3e, 0x10, 0x65, 0x65, 0x3e, 0xd0, 0x38, 0x9f, 0xbe,
  0xd9, 0xb3, 0x5a, 0x3e, 0x88, 0x8b, 0x46, 0x3e, 0x75, 0x3a, 0x40, 0xbe,
  0x03, 0x91, 0x37, 0x3f, 0x7a, 0xe9, 0xc7, 0xbe, 0xb7, 0x7d, 0x3a, 0x38,
  0x25, 0x1d, 0x28, 0x3f, 0x96, 0xe2, 0x80, 0xbe, 0xa0, 0x79, 0x86, 0xbe,
  0xae, 0x72, 0xcf, 0x3d, 0xda, 0xa0, 0x88, 0xbe, 0x07, 0xa3, 0x1c, 0xbe,
  0x00, 0xc5, 0xfb, 0xbe, 0x2d, 0xe6, 0x9f, 0xbe, 0xfa, 0x76, 0xa1, 0xbe,
  0x2b, 0xc2, 0xd9, 0xbe, 0x7c, 0xff, 0xac, 0x3e, 0xd6, 0xdf, 0x04, 0x3c,
  0x8c, 0x91, 0xbb, 0xbe, 0x53, 0x39, 0xb4, 0x3d, 0x4d, 0xc6, 0xb0, 0xbe,
  0x53, 0xe4, 0x19, 0x3e, 0xe3, 0x38, 0xb1, 0x3e, 0x29, 0x18, 0x77, 0x3e,
  0x14, 0x05, 0x03, 0x3f, 0x71, 0xde, 0xb2, 0x3d, 0x1b, 0x6e, 0x8a, 0x3e,
  0x01, 0xd7, 0x12, 0xbd, 0xfb, 0x61, 0x08, 0xbe, 0x3a, 0x28, 0xa8, 0x3e,
  0xa7, 0xf3, 0x4a, 0xbe, 0xb7, 0x8a, 0x4d, 0x3e, 0x19, 0x07, 0x38, 0xbe,
  0x2a, 0xa3, 0x5b, 0x3e, 0x5d, 0xd0, 0x37, 0x3f, 0xe9, 0x9b, 0xb5, 0xbe,
  0x92, 0x56, 0x40, 0x3f, 0xfa, 0x2d, 0x39, 0xbe, 0xf4, 0x2e, 0x32, 0x3f,
  0x87, 0x4b, 0xf7, 0xbc, 0x19, 0x8e, 0x84, 0xbe, 0x91, 0x2a, 0x99, 0x3e,
  0x86, 0x6b, 0x0b, 0xbe, 0x4a, 0x69, 0x10, 0xbf, 0x82, 0x6f, 0x7c, 0xbe,
  0x77, 0x0b, 0xf1, 0x3d, 0xb8, 0x59, 0x9b, 0xbe, 0xcc, 0x27, 0x53, 0xbe,
  0x42, 0xe0, 0xe9, 0x3e, 0xa5, 0x2e, 0x34, 0x3e, 0x84, 0x27, 0x2e, 0xbf,
  0x48, 0x0d, 0xb2, 0x3d, 0x66, 0xda, 0x58, 0x3d, 0x8a, 0x6b, 0x1c, 0xbe,
  0x3f, 0x30, 0xcc, 0x3e, 0x74, 0xd3, 0x26, 0x3e, 0x32, 0xdf, 0x20, 0x3d,
  0xd2, 0x38, 0x4a, 0x3c, 0xeb, 0x1c, 0x81, 0xbe, 0x77, 0x49, 0xa4, 0x3c,
  0x84, 0x82, 0x67, 0xbd, 0xfe, 0xec, 0x8c, 0x3e, 0x3d, 0xdb, 0xe2, 0xbe,
  0x3f, 0xc7, 0x7e, 0x3e, 0x0c, 0x6f, 0x0e, 0xbc, 0x0b, 0x9b, 0x55, 0x3f,
  0xf1, 0xac, 0x24, 0x3f, 0x3a, 0xc7, 0x27, 0xbf, 0x90, 0xcd, 0xfd, 0x3e,
  0x12, 0x7c, 0xe2, 0xbd, 0xe7, 0x63, 0xd4, 0xbe, 0xcc, 0x0a, 0x98, 0x3e,
  0xa9, 0xe0, 0x17, 0x3b, 0x8c, 0x45, 0x9e, 0xbd, 0x37, 0x61, 0x9f, 0xbe,
  0x9a, 0xa7, 0x8e, 0x3e, 0x42, 0x09, 0x96, 0x3e, 0xd9, 0x3e, 0xa0, 0x3d,
  0xaa, 0xb1, 0x2e, 0x3d, 0xf6, 0xe7, 0xcd, 0xbe, 0x4c, 0xc6, 0xea, 0xbe,
  0x74, 0xd0, 0x5b, 0x3e, 0x89, 0xf4, 0xf9, 0x3c, 0x8c, 0x50, 0xb3, 0x3d,
  0x58, 0x54, 0x77, 0x3e, 0xc1, 0xae, 0x67, 0xbe, 0x86, 0xa9, 0x45, 0x3e,
  0xab, 0xf0, 0x40, 0x3e, 0x31, 0x5a, 0xe9, 0xbe, 0xf5, 0x60, 0x5f, 0x3e,
  0x59, 0x3c, 0x82, 0x3e, 0x6b, 0x11, 0xca, 0xbd, 0xb3, 0xab, 0x4e, 0xbe,
  0x1e, 0xfa, 0x3d, 0xbf, 0x58, 0xbd, 0x8f, 0xbe, 0xbc, 0x4b, 0xe2, 0x3d,
  0xf2, 0xf5, 0xcc, 0x3c, 0x87, 0x34, 0xaa, 0xbe, 0xfe, 0xb6, 0x39, 0xbf,
  0xd2, 0x02, 0x18, 0xbe, 0x55, 0xf5, 0x46, 0xbf, 0x4c, 0x4a, 0x40, 0xbf,
  0x59, 0xd2, 0x16, 0xbf, 0xcd, 0x56, 0xe4, 0x3d, 0xbe, 0xed, 0x79, 0x3e,
  0x6e, 0xb8, 0x5b, 0xbd, 0x30, 0x3a, 0x68, 0xbe, 0x0f, 0xfd, 0x2c, 0x3f,
  0x63, 0x2a, 0x43, 0x3f, 0x00, 0x35, 0x0c, 0x3f, 0x29, 0xcd, 0x23, 0xbe,
  0xc7, 0xe0, 0xec, 0xbe, 0x6c, 0x92, 0x27, 0xbd, 0x30, 0xb8, 0x33, 0x3e,
  0x21, 0x1a, 0xb7, 0x3d, 0x23, 0xba, 0x15, 0x3d, 0xd8, 0x6d, 0xd7, 0x3e,
  0x39, 0xab, 0x83, 0xbe, 0x70, 0xf0, 0x89, 0xbd, 0x59, 0xe1, 0x3a, 0x3e,
  0xd6, 0x18, 0x22, 0xbf, 0xde, 0x84, 0x12, 0x3e, 0xf8, 0x7d, 0xe7, 0x3d,
  0x78, 0x52, 0x7a, 0x3e, 0x03, 0xd6, 0x12, 0x3e, 0x30, 0xa4, 0x26, 0xbf,
  0x10, 0x26, 0x22, 0x3e, 0x72, 0x4b, 0xcf, 0xbd, 0xd3, 0xec, 0xd3, 0x3e,
  0x2f, 0x2c, 0x97, 0xbe, 0x0a, 0x8f, 0xe0, 0xbe, 0x75, 0x16, 0xc6, 0xbe,
  0x61, 0x67, 0x20, 0xbf, 0x02, 0x14, 0x23, 0x3f, 0xad, 0xd8, 0x80, 0x3f,
  0x59, 0x30, 0xb0, 0xbe, 0xb6, 0xd7, 0x10, 0xbe, 0xfb, 0x30, 0x02, 0xbe,
  0x9d, 0x60, 0xd1, 0x3e, 0xe6, 0x2c, 0xc3, 0xbe, 0x48, 0x94, 0x14, 0xbe,
  0x6a, 0x3d, 0xa0, 0x3d, 0x0e, 0x31, 0x68, 0x3e, 0xd1, 0x65, 0x13, 0x3f,
  0x35, 0x7c, 0x2a, 0x3f, 0xa6, 0x39, 0x88, 0x3e, 0xf7, 0xec, 0xdd, 0x3d,
  0xf4, 0xa3, 0x22, 0x3d, 0x38, 0x71, 0x06, 0xbe, 0x48, 0xb9, 0x0f, 0xbe,
  0xc0, 0x9e, 0xae, 0xbb, 0x8c, 0x22, 0x25, 0xbe, 0x80, 0xa8, 0xe6, 0x3e,
  0x57, 0x1d, 0x80, 0xbe, 0x4f, 0xd8, 0xdb, 0xbd, 0xb0, 0x7c, 0x4b, 0x3e,
  0xbd, 0x5d, 0x96, 0xbd, 0x4e, 0x9d, 0xf6, 0x3e, 0x1b, 0xfb, 0x33, 0x3c,
  0xf3, 0x8d, 0xe3, 0xbd, 0x4b, 0x4c, 0x33, 0x3e, 0xd9, 0xb7, 0x61, 0x3f,
  0xf4, 0x23, 0xb8, 0x3e, 0xf1, 0xc0, 0x65, 0x3e, 0xfa, 0x84, 0x04, 0x3f,
  0x01, 0xac, 0x0c, 0xbf, 0xe5, 0xba, 0x38, 0xbf, 0x97, 0x29, 0x91, 0x3e,
  0x16, 0x3c, 0xe3, 0x3e, 0xf7, 0x47, 0xac, 0x3c, 0xd4, 0x24, 0x92, 0x3c,
  0x04, 0x1c, 0x98, 0x3e, 0xda, 0xbf, 0xf5, 0x3e, 0x0b, 0xd3, 0x10, 0x3f,
  0xa0, 0xb4, 0x8e, 0xbe, 0x67, 0x0f, 0x13, 0xbf, 0x7b, 0xf7, 0x14, 0xbf,
  0x26, 0x8d, 0x0b, 0xbd, 0x34, 0xf5, 0x2a, 0xbe, 0xf6, 0xe8, 0xfc, 0xbd,
  0xc2, 0x18, 0x0a, 0x3f, 0xb4, 0xe5, 0x76, 0xbe, 0xd4, 0x95, 0x85, 0xbd,
  0xfb, 0xbd, 0x42, 0x3e, 0x18, 0xfa, 0x14, 0xbf, 0x47, 0x56, 0xaf, 0xbc,
  0x7c, 0x72, 0xf6, 0xbd, 0x44, 0x56, 0x40, 0x3d, 0xde, 0x3b, 0x2a, 0x3e,
  0x17, 0xe2, 0x10, 0xbf, 0x4d, 0x05, 0x22, 0xbe, 0xca, 0xff, 0x8b, 0x3e,
  0x15, 0x6f, 0xf3, 0x3e, 0xda, 0x0b, 0x19, 0xbf, 0x00, 0x63, 0x58, 0xbe,
  0xcb, 0xa9, 0x15, 0xbe, 0x01, 0x07, 0xca, 0xbe, 0x96, 0x53, 0xe8, 0xbe,
  0xf7, 0x09, 0x47, 0xbf, 0x69, 0x5f, 0x6d, 0x3e, 0xea, 0x32, 0x94, 0x3e,
  0xce, 0x19, 0x46, 0x3e, 0x9d, 0x1d, 0x1f, 0x3e, 0xd2, 0x46, 0x15, 0x3e,
  0x71, 0xd0, 0x43, 0x3f, 0x45, 0xa8, 0x3a, 0x3f, 0x37, 0x3b, 0xc8, 0x3e,
  0x48, 0x88, 0x39, 0x3d, 0x62, 0x4c, 0xc9, 0xbe, 0x1a, 0x50, 0x43, 0x3e,
  0x49, 0xd1, 0xeb, 0x3e, 0xb8, 0x46, 0x58, 0xbe, 0x28, 0x89, 0xac, 0x3e,
  0xf8, 0xd4, 0xfa, 0xbd, 0x61, 0xc5, 0x26, 0xbe, 0xad, 0xcc, 0x30, 0xbd,
  0x36, 0xb9, 0x18, 0xbf, 0xc1, 0x4d, 0x11, 0x3e, 0x69, 0x7d, 0x03, 0xbe,
  0xfd, 0x26, 0x49, 0x3e, 0x65, 0x73, 0xb2, 0xbc, 0xa3, 0xca, 0xe7, 0xbe,
  0x7c, 0x86, 0x6e, 0x3d, 0x02, 0x54, 0x73, 0xbe, 0xee, 0xd6, 0x22, 0x3f,
  0xc8, 0xc0, 0x2a, 0xbf, 0x57, 0x7f, 0x25, 0xbf, 0xb9, 0x92, 0x7a, 0x3e,
  0x77, 0xcf, 0xdc, 0xbe, 0xa1, 0x91, 0x9b, 0xbe, 0x47, 0x41, 0xda, 0xbd,
  0x2d, 0x44, 0x15, 0x3e, 0x6b, 0x27, 0x95, 0x3e, 0x39, 0x59, 0x1f, 0x3d,
  0x0d, 0xe2, 0x6b, 0x3d, 0x3a, 0x2c, 0xd6, 0x3c, 0x92, 0x0a, 0xd2, 0x3d,
  0x04, 0x53, 0x0d, 0xbe, 0xb9, 0x0b, 0xf3, 0xbe, 0x2c, 0x0b, 0x01, 0xbf,
  0x75, 0x43, 0xa0, 0x3d, 0x22, 0x64, 0x0c, 0x3e, 0x61, 0xf2, 0x0c, 0xbf,
  0x63, 0x25, 0x41, 0x3e, 0xa6, 0x35, 0x57, 0xbd, 0x85, 0xe3, 0xfc, 0xbd,
  0x2c, 0xe5, 0xc1, 0x3e, 0xac, 0x7c, 0x4e, 0x3e, 0x25, 0x1e, 0x14, 0x3e,
  0x2f, 0x96, 0xa8, 0x3d, 0x2f, 0xe8, 0x74, 0x3e, 0x60, 0x8f, 0x3b, 0x3e,
  0x9c, 0xda, 0x0a, 0xbe, 0x61, 0xc5, 0xb1, 0x3d, 0x11, 0x0f, 0x27, 0xbe,
  0xa6, 0x8e, 0xb5, 0x3e, 0x47, 0xda, 0xbc, 0xbd, 0xd9, 0xb2, 0x5b, 0xbe,
  0x09, 0xb7, 0x66, 0xbe, 0x61, 0xda, 0xcb, 0xbe, 0x9e, 0x0f, 0xff, 0xbc,
  0x27, 0x38, 0x80, 0x3e, 0x6c, 0x96, 0x1b, 0x3e, 0x63, 0xd9, 0xd4, 0xbe,
  0xaa, 0x28, 0xcd, 0x3c, 0x7f, 0x25, 0x2b, 0xbf, 0xe7, 0xa3, 0x93, 0x3e,
  0x8f, 0xfc, 0x97, 0xbe, 0x91, 0xa2, 0x6a, 0x3e, 0xae, 0x57, 0xaa, 0xbd,
  0xeb, 0x85, 0xe2, 0x3d, 0x24, 0xe5, 0xb0, 0x3e, 0x23, 0x70, 0x47, 0x3e,
  0x31, 0xa8, 0xe0, 0xbe, 0xfe, 0x14, 0x89, 0x3e, 0x1d, 0xd2, 0x8a, 0xbe,
  0x86, 0x52, 0x87, 0xbe, 0x8c, 0xd8, 0x46, 0xbc, 0x90, 0xaa, 0x3a, 0xbf,
  0xd1, 0x64, 0xa6, 0xbd, 0x4b, 0x9d, 0x84, 0xbd, 0x88, 0x2a, 0xbc, 0xbe,
  0x19, 0xd7, 0x08, 0x3c, 0x76, 0xa2, 0x91, 0xbe, 0x46, 0x2a, 0x85, 0x3e,
  0x07, 0x79, 0x65, 0x3e, 0xde, 0x05, 0xab, 0x3e, 0x34, 0x0c, 0x7b, 0xbd,
  0x46, 0xb4, 0xb3, 0x3c, 0x04, 0xf5, 0xb9, 0x3e, 0xeb, 0x2e, 0xb7, 0xbe,
  0xb9, 0x61, 0x29, 0x3f, 0x20, 0x22, 0x99, 0xbe, 0x68, 0x9e, 0x1f, 0x3e,
  0x42, 0x2e, 0xa3, 0x3e, 0xc9, 0xaa, 0x83, 0xbe, 0x87, 0x31, 0x2c, 0x3e,
  0xfc, 0x78, 0x0d, 0xbf, 0xab, 0xd1, 0xb6, 0x3e, 0xd5, 0x8b, 0x84, 0xbe,
  0x3b, 0xf4, 0x82, 0x3e, 0x5f, 0xf3, 0xab, 0x3d, 0x29, 0x0e, 0xaf, 0x3e,
  0xc8, 0xb6, 0x27, 0x3f, 0xc7, 0x4c, 0x9b, 0x3e, 0xa1, 0x61, 0x14, 0xbf,
  0x7a, 0xd0, 0x00, 0x3f, 0xe7, 0x8b, 0x94, 0xbe, 0x18, 0x9c, 0xce, 0xbc,
  0xb7, 0x8d, 0x47, 0x3e, 0xe1, 0x20, 0x33, 0xbf, 0x00, 0xcc, 0xca, 0xbe,
  0x43, 0x73, 0x6c, 0xbd, 0x25, 0xe7, 0x63, 0xbe, 0x35, 0x6f, 0x4b, 0xbe,
  0xcd, 0x4e, 0x74, 0xbe, 0x3f, 0x1e, 0x08, 0xbe, 0xc5, 0x1d, 0xf1, 0x3e,
  0x69, 0x77, 0xea, 0x3d, 0x3d, 0x85, 0xfc, 0xbe, 0xf2, 0x76, 0x22, 0x3e,
  0x73, 0x4a, 0xfc, 0x3d, 0xc2, 0xe1, 0x98, 0xbd, 0xed, 0xac, 0x3d, 0x3f,
  0xc5, 0x0e, 0xe1, 0x3d, 0xc7, 0xf9, 0x9c, 0xbe, 0x9d, 0x54, 0xb4, 0x3d,
  0xf6, 0x34, 0xf6, 0xbd, 0xba, 0xc3, 0x3d, 0x3e, 0x68, 0xcc, 0x70, 0x3e,
  0x90, 0xc0, 0x56, 0xbe, 0xc2, 0x17, 0x7f, 0xbd, 0x42, 0x7f, 0x07, 0xbe,
  0x95, 0x06, 0x12, 0xbc, 0x3b, 0x73, 0x22, 0xbe, 0x24, 0x96, 0x2b, 0xbf,
  0xfb, 0x3a, 0xaf, 0x3d, 0xb9, 0xba, 0x8d, 0x3e, 0x7d, 0x95, 0x19, 0xbf,
  0x5b, 0xf7, 0x9f, 0x3e, 0x5a, 0x26, 0x73, 0x3d, 0xb7, 0xd6, 0x2d, 0xbe,
  0x57, 0xcf, 0xdc, 0x3e, 0x19, 0x44, 0xae, 0x3e, 0x40, 0x20, 0x72, 0x3e,
  0x7b, 0xea, 0xd5, 0x3e, 0xa9, 0xc9, 0x0a, 0x3c, 0x55, 0x72, 0x4c, 0x3e,
  0x61, 0xd7, 0x28, 0x3e, 0x7f, 0xec, 0xd7, 0x3c, 0x7e, 0xa4, 0x5f, 0xbe,
  0xc6, 0x8d, 0xc2, 0x3e, 0x3f, 0x4c, 0x5c, 0xbe, 0x5a, 0x7e, 0x89, 0x3e,
  0xe4, 0x6e, 0x64, 0x3e, 0xe1, 0x5e, 0x1d, 0xbf, 0x0a, 0xd1, 0x96, 0x3e,
  0xb4, 0x2a, 0x22, 0xbe, 0x16, 0xd3, 0x64, 0x3f, 0x27, 0x3a, 0x02, 0xbe,
  0xe0, 0x09, 0xa8, 0xbe, 0xe8, 0x42, 0x7f, 0x3d, 0x2c, 0x6a, 0x39, 0x3d,
  0xe2, 0xae, 0xf8, 0xbe, 0xae, 0x31, 0x0b, 0xbf, 0x20, 0x74, 0x14, 0xbe,
  0x9b, 0x5a, 0xe3, 0xbe, 0x0e, 0x3d, 0x9d, 0xbe, 0x06, 0x5f, 0x12, 0x3f,
  0x01, 0x83, 0x44, 0x3e, 0xe9, 0xe0, 0x17, 0xbe, 0xad, 0x0a, 0x05, 0x3e,
  0x83, 0xc7, 0x86, 0xbe, 0x88, 0x49, 0xd2, 0xbd, 0xe7, 0xa9, 0x7c, 0xbd,
  0x05, 0x31, 0x02, 0xbd, 0xdf, 0x88, 0x10, 0x3f, 0x51, 0xf1, 0xb0, 0x3d,
  0xfd, 0x31, 0xfb, 0x3d, 0x51, 0xd4, 0x8a, 0x3d, 0xd7, 0xb2, 0x5e, 0xbd,
  0x89, 0xa2, 0xfe, 0x3e, 0xbb, 0x5e, 0xb5, 0xbe, 0x18, 0x82, 0xb8, 0x3c,
  0xd0, 0x70, 0x8d, 0xbe, 0x12, 0x50, 0x42, 0x3f, 0x7b, 0xff, 0x29, 0x3f,
  0x48, 0xc9, 0x10, 0xbf, 0xc8, 0xda, 0x3c, 0x3f, 0x94, 0xea, 0xcf, 0x3d,
  0xee, 0xc4, 0x1c, 0x3f, 0x74, 0xf7, 0x99, 0x3c, 0x43, 0x67, 0xb7, 0xbe,
  0x66, 0x29, 0xe6, 0xbd, 0x79, 0x3a, 0x6f, 0xbe, 0x8c, 0xaa, 0xfe, 0xbe,
  0x97, 0xe5, 0x54, 0xbf, 0xb2, 0x65, 0x11, 0xbe, 0x1f, 0xdc, 0x02, 0xbf,
  0x9c, 0x5c, 0x73, 0xbe, 0xf7, 0x92, 0xbc, 0x3e, 0x1b, 0x52, 0x08, 0x3d,
  0x52, 0x84, 0xd5, 0xbe, 0x98, 0x5e, 0xd7, 0xbd, 0xa8, 0xf3, 0xfd, 0xbe,
  0x9b, 0xb0, 0x90, 0xbd, 0xa6, 0xed, 0x6e, 0xbe, 0x30, 0x92, 0x3c, 0x3d,
  0xf9, 0xdf, 0x6f, 0x3d, 0x45, 0x78, 0x2c, 0x3e, 0x14, 0x96, 0x1d, 0x3e,
  0x62, 0xf8, 0xfc, 0x3c, 0x26, 0x0a, 0x87, 0x3e, 0x1c, 0x15, 0x43, 0x3f,
  0x6b, 0x47, 0x89, 0xbe, 0xb8, 0x4c, 0x19, 0x3e, 0xc2, 0x1e, 0x38, 0xbf,
  0x88, 0xe4, 0x65, 0x3f, 0x20, 0xd1, 0x00, 0x3f, 0x6e, 0xf5, 0x8f, 0xbe,
  0x8f, 0x61, 0x05, 0x3f, 0x49, 0xc6, 0x1e, 0x3e, 0x73, 0x2d, 0xd8, 0xbe,
  0xd9, 0xef, 0x50, 0x3e, 0x2c, 0xaf, 0x0d, 0x3f, 0xe5, 0x7a, 0xb1, 0x3d,
  0xd7, 0x28, 0x38, 0x3e, 0x6a, 0x13, 0x09, 0x3f, 0x52, 0xc0, 0xc5, 0x3e,
  0xb7, 0xb1, 0x0b, 0x3f, 0x1b, 0x49, 0x33, 0x3e, 0xdd, 0x46, 0x9a, 0x3e,
  0xb0, 0x2a, 0x2e, 0xbe, 0xf3, 0xf2, 0xbe, 0x3c, 0x99, 0x7c, 0x97, 0x3e,
  0x82, 0x48, 0x0d, 0x3e, 0x74, 0xfc, 0x1e, 0x3e, 0x84, 0xe3, 0xb7, 0xbd,
  0x99, 0x4f, 0x3f, 0xbe, 0x7f, 0x7f, 0x18, 0xbe, 0x8a, 0x30, 0xe5, 0xbe,
  0xc0, 0x5c, 0xf6, 0xbc, 0x4a, 0xf5, 0x73, 0xbd, 0x42, 0x77, 0xa6, 0xbd,
  0xe8, 0x02, 0x82, 0xbe, 0x1a, 0x6c, 0x06, 0xbf, 0xdc, 0x1f, 0x4e, 0x3e,
  0x59, 0x7a, 0x43, 0xbe, 0xf0, 0x85, 0xd0, 0x3e, 0xbd, 0x9e, 0x9b, 0xbe,
  0xd1, 0x73, 0x07, 0xbf, 0x04, 0x79, 0x44, 0x3f, 0xa4, 0x04, 0x74, 0xbf,
  0x42, 0xf4, 0xff, 0xff, 0x04, 0x00, 0x00, 0x00, 0x00, 0x08, 0x00, 0x00,
  0x4a, 0x1c, 0x5d, 0x3e, 0x00, 0xda, 0x6e, 0x3e, 0x87, 0x4d, 0x01, 0x3e,
  0x89, 0x2b, 0x02, 0xbe, 0x69, 0xa7, 0x6c, 0xbf, 0x18, 0xaa, 0xf0, 0xbd,
  0x75, 0x35, 0x97, 0x3e, 0x0a, 0x33, 0xb4, 0xbe, 0x66, 0x58, 0x11, 0xbe,
  0x48, 0x49, 0x27, 0xbe, 0xc8, 0xbb, 0xd7, 0xbd, 0xea, 0x78, 0x73, 0x3e,
  0xde, 0xf5, 0x5f, 0xbf, 0x1a, 0xa9, 0x7f, 0x3e, 0x85, 0xe9, 0x46, 0xbf,
  0x09, 0x74, 0xa4, 0x3e, 0x51, 0x0a, 0x9c, 0xbe, 0xd5, 0x0a, 0x9d, 0x3f,
  0x11, 0x4e, 0x78, 0xbf, 0xd6, 0x6f, 0x23, 0x3e, 0x33, 0xe4, 0xca, 0xbc,
  0xae, 0xc7, 0x28, 0x3d, 0xa0, 0x08, 0x16, 0xbe, 0x40, 0x59, 0x7f, 0xbc,
  0x71, 0xc8, 0x6d, 0xbf, 0xf7, 0x73, 0xab, 0x3d, 0x5a, 0x37, 0x42, 0xbe,
  0xac, 0xff, 0x81, 0x3d, 0xa5, 0x67, 0xe2, 0x3e, 0xf2, 0xd8, 0x19, 0x3e,
  0x8a, 0x04, 0xc2, 0x3c, 0xd2, 0x95, 0x3d, 0xbe, 0x37, 0xa5, 0x5c, 0xbe,
  0x88, 0x23, 0xbc, 0xbf, 0x45, 0x14, 0x31, 0x3f, 0x40, 0x16, 0x6b, 0xbc,
  0x03, 0x51, 0x96, 0x3e, 0x18, 0x21, 0xcf, 0x3e, 0x40, 0x55, 0xdb, 0x3b,
  0x49, 0x48, 0x12, 0xbe, 0x94, 0xd2, 0xf6, 0x3e, 0x47, 0xc1, 0xc0, 0x3e,
  0x10, 0x6e, 0x37, 0x3d, 0x8c, 0xf6, 0xb1, 0xbe, 0x26, 0x4a, 0x53, 0x3d,
  0xf8, 0x1a, 0x68, 0xbd, 0xbd, 0x49, 0xbd, 0x3d, 0xcd, 0x7d, 0x39, 0xbe,
  0x46, 0xce, 0xf5, 0xbd, 0x30, 0x9a, 0xfa, 0xbe, 0x14, 0x47, 0x5b, 0x3f,
  0x62, 0x62, 0xab, 0xbe, 0xd6, 0x00, 0xcc, 0xbd, 0xc2, 0xd4, 0x96, 0xbd,
  0xf7, 0xc2, 0x99, 0xbe, 0x2b, 0xe4, 0xb4, 0xbe, 0x10, 0x4b, 0x9d, 0x3f,
  0x5a, 0x4b, 0x2f, 0xbc, 0xb4, 0x1e, 0xe1, 0x3d, 0x58, 0xe9, 0xe7, 0x3d,
  0x95, 0xed, 0x2f, 0xbe, 0x9e, 0xe4, 0x17, 0x3e, 0xf3, 0xeb, 0x84, 0x3b,
  0x56, 0x09, 0x2f, 0x3e, 0x02, 0xe1, 0x7e, 0xbe, 0xb1, 0xf3, 0xad, 0xbd,
  0xbb, 0xa4, 0x25, 0x3c, 0x96, 0x7c, 0x4f, 0x3e, 0x22, 0xe3, 0x6c, 0x3e,
  0xdc, 0x0f, 0x02, 0x3f, 0x00, 0x6c, 0xfc, 0xbc, 0xe6, 0x75, 0x54, 0x3e,
  0xc1, 0x51, 0xbb, 0xbd, 0x4a, 0x0e, 0xb2, 0x3e, 0x4e, 0x5b, 0x23, 0x3e,
  0xc0, 0x4b, 0x24, 0xbc, 0x42, 0x79, 0x5b, 0x3f, 0xf2, 0xfc, 0x39, 0x3e,
  0x14, 0x7a, 0xd7, 0x3e, 0x7a, 0xfe, 0x4e, 0x3e, 0x4b, 0xa7, 0xa1, 0x3e,
  0xfc, 0x17, 0xf8, 0x3d, 0x59, 0x96, 0x19, 0xbb, 0x83, 0x25, 0x61, 0xbe,
  0x34, 0x91, 0x4e, 0xbf, 0x8a, 0x72, 0xa5, 0xbe, 0x1d, 0x0c, 0x99, 0x3e,
  0x8d, 0x39, 0x97, 0x3e, 0x95, 0xc6, 0x79, 0x3e, 0xbf, 0x89, 0xb1, 0xbe,
  0x22, 0x0b, 0x96, 0xbe, 0x30, 0x1f, 0x82, 0xbd, 0x7b, 0xa7, 0x62, 0xbf,
  0x73, 0x31, 0x81, 0x3e, 0xa8, 0xe1, 0x24, 0xbf, 0x3a, 0xad, 0x73, 0x3e,
  0x00, 0xcb, 0x34, 0xbc, 0xb9, 0x77, 0xbe, 0xbf, 0x2c, 0x00, 0x19, 0x3f,
  0xf6, 0x46, 0x5a, 0x3e, 0x86, 0xa6, 0xc4, 0xbd, 0x51, 0xa3, 0x9e, 0x3e,
  0x95, 0xab, 0x8e, 0x3e, 0x95, 0x9a, 0xae, 0xbe, 0x45, 0xea, 0xea, 0x3e,
  0x61, 0xf9, 0x0f, 0x3f, 0x0f, 0x68, 0x28, 0xbe, 0x00, 0x98, 0xce, 0x3d,
  0x4b, 0xd1, 0x7c, 0xbe, 0xe7, 0xa4, 0x92, 0x3e, 0x27, 0xe0, 0xa7, 0xbd,
  0x48, 0x96, 0x2e, 0x3d, 0x3c, 0xc1, 0x0b, 0x3e, 0x70, 0xd2, 0x05, 0xbf,
  0xe5, 0x73, 0x9e, 0x3f, 0x34, 0xba, 0xf7, 0x3d, 0xa1, 0x2d, 0xd4, 0x3c,
  0xca, 0x76, 0xc3, 0xbd, 0x10, 0x6f, 0xc1, 0xbc, 0xf4, 0xb6, 0xc7, 0xbd,
  0x10, 0x91, 0x8d, 0x3f, 0xb0, 0x2d, 0xa5, 0x3d, 0xab, 0xcb, 0x8f, 0x3e,
  0x30, 0xb9, 0xb4, 0xbe, 0x23, 0x80, 0x9b, 0xbd, 0xb9, 0x62, 0xa1, 0xbe,
  0x96, 0xf9, 0x80, 0x3d, 0x21, 0xc0, 0x82, 0x3e, 0x50, 0x00, 0x06, 0xbd,
  0xce, 0xaf, 0xe1, 0x3b, 0x1f, 0x16, 0x65, 0x3f, 0xc1, 0x88, 0xb1, 0x3e,
  0x5f, 0x49, 0xaa, 0xbd, 0x9a, 0x2e, 0xb0, 0xbd, 0x30, 0x7b, 0xb6, 0x3d,
  0x1c, 0xc4, 0xeb, 0x3d, 0xe0, 0x69, 0x58, 0x3f, 0xaa, 0xd4, 0xd7, 0xbd,
  0x62, 0x1a, 0x07, 0x3e, 0xd0, 0x1d, 0xfb, 0x3d, 0x25, 0x42, 0x5e, 0xbe,
  0x40, 0x7c, 0x05, 0x3d, 0x9f, 0x6a, 0xe7, 0xbd, 0xd6, 0x5d, 0x77, 0x3e,
  0x2a, 0x44, 0x5c, 0xbe, 0xac, 0x32, 0x49, 0x3d, 0x2b, 0x98, 0x61, 0x3e,
  0xc2, 0xeb, 0x6e, 0x3e, 0xce, 0xa2, 0x45, 0xbf, 0x36, 0xf4, 0x2d, 0xbf,
  0x73, 0x7b, 0x88, 0x3e, 0xce, 0xc5, 0x37, 0x3e, 0xf6, 0x99, 0x5f, 0xbd,
  0x22, 0x3a, 0x34, 0xbf, 0xfe, 0x38, 0x72, 0x3e, 0xb9, 0x6a, 0x43, 0xbe,
  0x99, 0xb0, 0x56, 0xbf, 0xea, 0x9d, 0x67, 0x3e, 0xd2, 0x57, 0x09, 0xbf,
  0x00, 0xe0, 0x86, 0x39, 0x46, 0xf1, 0x0c, 0x3e, 0x0c, 0x5c, 0xfa, 0x3d,
  0x60, 0x11, 0x06, 0x3e, 0xf8, 0x29, 0xf3, 0xbd, 0xd5, 0xde, 0x5f, 0xbf,
  0xe0, 0x5b, 0xe1, 0xbe, 0x4c, 0xf5, 0x4f, 0xbe, 0xc1, 0xcb, 0xb3, 0x3e,
  0x92, 0x59, 0x0d, 0x3c, 0x7d, 0x00, 0x0f, 0xbf, 0xca, 0x4a, 0x21, 0x3e,
  0x6f, 0x86, 0x9d, 0x3e, 0x1b, 0x92, 0x61, 0xbf, 0x51, 0x4f, 0xb3, 0xbe,
  0x65, 0x2f, 0x1c, 0xbf, 0xf3, 0x34, 0x95, 0x3e, 0x58, 0xd1, 0x4d, 0x3d,
  0xa9, 0xde, 0x7e, 0x3f, 0x5a, 0xa5, 0x89, 0xbf, 0x29, 0x3a, 0xa6, 0xbe,
  0x61, 0xd4, 0x69, 0xbe, 0xc7, 0xe7, 0x79, 0x3e, 0x64, 0xc0, 0xae, 0x3d,
  0xc0, 0x45, 0x3d, 0xbc, 0xdf, 0x2e, 0x46, 0xbf, 0x52, 0xb8, 0x12, 0xbd,
  0xda, 0x24, 0x72, 0x3e, 0xab, 0xa5, 0x27, 0xbe, 0xfd, 0x20, 0x4c, 0x3d,
  0xc6, 0xfa, 0xd8, 0xbd, 0x94, 0x31, 0xb1, 0x3e, 0x48, 0x4e, 0xa4, 0xbe,
  0xe3, 0x11, 0xa6, 0xbe, 0x5b, 0xae, 0x70, 0x3d, 0x53, 0xc9, 0xf8, 0x3d,
  0x1b, 0x15, 0x95, 0xbe, 0xcb, 0x58, 0xd5, 0x3e, 0xaa, 0xc4, 0xc8, 0x3e,
  0x3a, 0xee, 0x6d, 0x3e, 0xb2, 0x20, 0x9d, 0xbe, 0xdc, 0xef, 0x18, 0x3e,
  0xe8, 0x0e, 0x92, 0x3e, 0x40, 0x33, 0x0e, 0xbc, 0x80, 0x2b, 0x8e, 0xbc,
  0x7f, 0x44, 0x89, 0x3e, 0x38, 0x55, 0x0a, 0xbd, 0xb2, 0xae, 0x11, 0x3f,
  0x92, 0x1c, 0x3e, 0x3e, 0x8e, 0xea, 0x76, 0x3e, 0x12, 0x75, 0x30, 0xbe,
  0xf4, 0x7d, 0xfb, 0xbd, 0x20, 0x3f, 0xba, 0x3c, 0x7f, 0xc8, 0x4f, 0xbf,
  0xae, 0x2a, 0xdc, 0xbe, 0x10, 0xeb, 0xc7, 0xbd, 0x08, 0xc7, 0x5d, 0x3d,
  0x20, 0x1d, 0x83, 0x3d, 0x02, 0x5b, 0x12, 0xbf, 0x90, 0x16, 0xe6, 0x3d,
  0x30, 0x52, 0x82, 0xbd, 0x68, 0xfe, 0x2d, 0xbf, 0x84, 0xc2, 0xdb, 0xbd,
  0x1c, 0x51, 0x34, 0xbf, 0x52, 0xa7, 0x3e, 0x3e, 0x80, 0xaa, 0xb1, 0xbc,
  0x9b, 0xc2, 0x5b, 0xbd, 0x3e, 0x9f, 0x00, 0xbe, 0xd9, 0x00, 0x83, 0x3e,
  0xf1, 0xd4, 0xa2, 0x3e, 0x23, 0x90, 0xbf, 0x3e, 0x05, 0x71, 0xa5, 0x3e,
  0xba, 0x8b, 0xa5, 0xbe, 0x4f, 0xa1, 0xb4, 0x3d, 0x82, 0x10, 0x03, 0x3f,
  0x60, 0xcd, 0xf4, 0x3d, 0x34, 0xe5, 0x82, 0xbe, 0xcb, 0x44, 0x1e, 0x3f,
  0xa0, 0xcc, 0x97, 0x3c, 0x8d, 0x82, 0xce, 0x3e, 0x24, 0xb6, 0x7d, 0xbe,
  0x33, 0xbe, 0x72, 0xbe, 0xc7, 0x1b, 0x94, 0xbf, 0x4d, 0xa5, 0x72, 0x3f,
  0xbb, 0xc0, 0xa2, 0x3e, 0x09, 0x7f, 0x7c, 0x3a, 0xc9, 0x25, 0x1d, 0x3c,
  0xac, 0x97, 0x0f, 0x3e, 0x68, 0x64, 0x9d, 0xbd, 0xe9, 0x54, 0xee, 0x3e,
  0xec, 0xbf, 0x9a, 0x3e, 0xba, 0x92, 0x56, 0x3e, 0xc0, 0x8a, 0xe3, 0x3d,
  0x48, 0x99, 0x8a, 0x3c, 0x0a, 0x22, 0x30, 0x3e, 0xd2, 0xc8, 0x97, 0x3d,
  0x30, 0x3d, 0xce, 0x3c, 0x12, 0x20, 0x94, 0xbe, 0x56, 0x48, 0x0b, 0x3e,
  0x96, 0xa6, 0xe5, 0x3d, 0x62, 0xd8, 0x50, 0x3e, 0xe4, 0x9a, 0xf2, 0xbd,
  0x53, 0xce, 0x6e, 0xbe, 0x7c, 0x54, 0xb9, 0xbd, 0x7c, 0x64, 0x66, 0xbe,
  0x75, 0x3a, 0x26, 0xbe, 0x6f, 0x5d, 0x2d, 0xbe, 0x50, 0x89, 0x8a, 0xbc,
  0x1b, 0xee, 0x87, 0x3e, 0x52, 0x62, 0xb5, 0xbe, 0x57, 0x6b, 0x43, 0xbe,
  0x5b, 0xb2, 0x2b, 0xbe, 0x1b, 0x10, 0x4f, 0xbe, 0x60, 0x79, 0xeb, 0x3d,
  0x9c, 0x08, 0x07, 0x3d, 0x08, 0x0a, 0x26, 0x3e, 0x91, 0xb2, 0xa6, 0xbe,
  0x1f, 0xc7, 0x12, 0x3f, 0xf0, 0x51, 0x92, 0x3c, 0x0e, 0x97, 0x3a, 0x3e,
  0xec, 0xe2, 0xd1, 0xbd, 0x3e, 0x33, 0xdd, 0xbd, 0x41, 0xf9, 0xf4, 0x3e,
  0x28, 0xb1, 0xb1, 0x3d, 0xb0, 0xc1, 0xf6, 0x3d, 0x0e, 0x54, 0x55, 0x3f,
  0x3e, 0xf0, 0x6b, 0xbe, 0xc0, 0x1a, 0x26, 0x3f, 0x06, 0x07, 0x7c, 0x3e,
  0xa9, 0x0a, 0x9a, 0xbe, 0xfa, 0x9c, 0xca, 0xbd, 0x8f, 0x44, 0xa8, 0x3e,
  0xb4, 0xc3, 0xe5, 0x3d, 0xdf, 0xee, 0x3b, 0xbd, 0x94, 0xe0, 0x24, 0x3e,
  0xca, 0x75, 0xa6, 0xbe, 0x88, 0xf3, 0x84, 0x3d, 0x5d, 0xfd, 0xd2, 0x3e,
  0x1a, 0x54, 0xac, 0xbc, 0x9e, 0x76, 0x7c, 0xbe, 0x66, 0xd5, 0x76, 0x3e,
  0xc8, 0x00, 0xfd, 0x3e, 0xf9, 0x7f, 0x09, 0xbe, 0x70, 0xba, 0x84, 0x3e,
  0xf9, 0xcf, 0x8e, 0xbe, 0xb0, 0x9b, 0xd7, 0x3d, 0xb4, 0x81, 0x83, 0x3e,
  0xce, 0x0f, 0x08, 0xbf, 0xd4, 0xd3, 0x89, 0xbd, 0x88, 0x91, 0xcc, 0x3e,
  0x63, 0xbc, 0xeb, 0x3b, 0x3c, 0xe2, 0xa1, 0xbe, 0xe0, 0x41, 0xf3, 0x3d,
  0x1d, 0xa1, 0x07, 0xbf, 0x0a, 0x81, 0xf0, 0xbc, 0x34, 0xd9, 0xbc, 0xbd,
  0x79, 0x11, 0xae, 0xbe, 0x0d, 0x06, 0x8b, 0xbf, 0x31, 0xb1, 0x53, 0xbe,
  0x99, 0x11, 0x44, 0x3e, 0x2b, 0x73, 0xb3, 0xbe, 0xfb, 0x2a, 0xb4, 0x3e,
  0xdd, 0x5f, 0xb0, 0xbc, 0x78, 0x75, 0xe4, 0x3b, 0xc8, 0x5c, 0x30, 0x3d,
  0x46, 0x96, 0x2d, 0x3f, 0xc4, 0x79, 0xa4, 0x3e, 0xfa, 0x50, 0x58, 0xbe,
  0x20, 0x56, 0x21, 0xbc, 0xf3, 0xba, 0xa2, 0xbd, 0x47, 0x9e, 0x0d, 0x3f,
  0xea, 0x2d, 0x2e, 0x3e, 0xa4, 0x86, 0x8e, 0xbe, 0x88, 0x68, 0x02, 0x3f,
  0x90, 0x1f, 0x38, 0x3d, 0x73, 0x1a, 0xb5, 0xbd, 0xc0, 0xe8, 0x84, 0x3c,
  0x8c, 0x00, 0xc8, 0xbd, 0x50, 0x8c, 0xfa, 0x3d, 0xa0, 0xc3, 0x7d, 0xbc,
  0x78, 0x5b, 0x29, 0xbd, 0xd5, 0xd6, 0x0f, 0x3d, 0xf8, 0xff, 0x9a, 0xbe,
  0x1d, 0x0e, 0x60, 0xbe, 0x8b, 0x04, 0xa6, 0x3e, 0x0e, 0xed, 0x85, 0xbe,
  0xc9, 0x08, 0x93, 0xbe, 0xcc, 0x64, 0xf6, 0x3d, 0xb3, 0xb4, 0x85, 0x3e,
  0x58, 0xe0, 0xc8, 0x3c, 0xc4, 0xe6, 0xbc, 0xbd, 0x36, 0x98, 0x2a, 0xbe,
  0x89, 0x41, 0xaf, 0x3e, 0x04, 0xe7, 0x9e, 0x3d, 0xac, 0x11, 0xe3, 0xbc,
  0xbb, 0x2f, 0xa3, 0xbd, 0xe2, 0xae, 0x38, 0x3e, 0xf6, 0x9a, 0x09, 0x3f,
  0x70, 0xba, 0x2c, 0x3e, 0x61, 0xc0, 0x06, 0xbe, 0xe0, 0x1c, 0x87, 0x3d,
  0xd7, 0xcb, 0xbe, 0x3e, 0xf0, 0x33, 0x7a, 0xbd, 0x12, 0x67, 0x5d, 0xbe,
  0x6d, 0x37, 0x9a, 0x3e, 0xf4, 0x31, 0x74, 0x3e, 0x95, 0x10, 0x9c, 0x3e,
  0xde, 0x8b, 0x3b, 0x3e, 0xb0, 0xc1, 0x47, 0x3d, 0xf0, 0x83, 0xcc, 0x3c,
  0x44, 0x0a, 0x90, 0xbe, 0xe7, 0x3e, 0xb5, 0xbd, 0x50, 0x66, 0xc9, 0xbc,
  0xa3, 0xf5, 0x1d, 0xbe, 0xc3, 0xf2, 0x78, 0xbe, 0x80, 0x05, 0x2a, 0x3d,
  0xc0, 0x12, 0x35, 0x3d, 0x96, 0x85, 0x95, 0x3c, 0x92, 0xd0, 0x4b, 0xbe,
  0x53, 0xeb, 0x89, 0x3e, 0x28, 0x4a, 0x3c, 0xbd, 0x8c, 0x7b, 0x24, 0x3e,
  0xe4, 0xa6, 0x89, 0x3d, 0xfd, 0x4c, 0xbe, 0x3b, 0x3f, 0x2f, 0x99, 0x3e,
  0xcc, 0xc6, 0x09, 0x3e, 0xa1, 0x75, 0x61, 0x3f, 0x41, 0x58, 0x8c, 0xbf,
  0x00, 0xa0, 0xc7, 0x3c, 0x27, 0x7a, 0x00, 0x3f, 0x12, 0x3d, 0xae, 0x3d,
  0x62, 0x9e, 0x36, 0x3e, 0x6a, 0x8f, 0x7b, 0x3e, 0xa5, 0x87, 0x6c, 0xbf,
  0xf0, 0x10, 0xaf, 0xbd, 0x80, 0x6d, 0xab, 0xbc, 0x86, 0x05, 0xb3, 0xbe,
  0xf0, 0x63, 0x7a, 0x3e, 0x1d, 0x40, 0xb1, 0xbe, 0x51, 0x16, 0x5d, 0xbe,
  0x66, 0x20, 0x6c, 0x3e, 0x7d, 0x5c, 0xa6, 0x3e, 0xc4, 0x67, 0x9f, 0x3e,
  0x10, 0x6e, 0x9a, 0xbd, 0xed, 0xe5, 0x85, 0x3e, 0x2d, 0x10, 0xd1, 0xbe,
  0x80, 0xd1, 0x03, 0xbf, 0x60, 0x5f, 0x79, 0x3c, 0x99, 0x95, 0x91, 0xbe,
  0x7e, 0x7c, 0x9c, 0x3e, 0x20, 0xcb, 0x13, 0xbf, 0x1b, 0x63, 0x98, 0x3e,
  0x60, 0xb1, 0x78, 0x3c, 0xf2, 0xef, 0xe9, 0xbe, 0xe7, 0x6d, 0x2a, 0xbe,
  0xe5, 0xb3, 0xe0, 0xbe, 0x65, 0x5d, 0x80, 0xbe, 0x5d, 0x22, 0x99, 0x3e,
  0xc7, 0x55, 0x38, 0xbe, 0xf3, 0xfb, 0xb9, 0x3e, 0xfe, 0x88, 0x68, 0x3e,
  0x66, 0xac, 0x0b, 0x3f, 0xbc, 0x31, 0x16, 0x3e, 0xfa, 0xc1, 0x3b, 0x3e,
  0x5a, 0x22, 0x65, 0x3e, 0xab, 0x2f, 0x96, 0xbd, 0x72, 0x33, 0xed, 0x3d,
  0x45, 0x8a, 0xa0, 0x3e, 0x16, 0x00, 0x25, 0x3e, 0x4a, 0xb4, 0x4a, 0x3e,
  0x08, 0xec, 0x85, 0x3d, 0x5e, 0x6e, 0x69, 0x3e, 0xb6, 0xa9, 0x6b, 0x3e,
  0xb6, 0x57, 0x6d, 0x3e, 0xe1, 0x0b, 0x0a, 0xbf, 0x76, 0x59, 0x93, 0x3f,
  0x51, 0x69, 0xa2, 0x3e, 0xba, 0x1f, 0x0d, 0xbe, 0x75, 0xcd, 0x45, 0xbe,
  0x94, 0xb4, 0xb8, 0xbd, 0x80, 0x97, 0x48, 0x3b, 0x52, 0xe6, 0x77, 0x3f,
  0xf3, 0xe5, 0x2f, 0x3e, 0x96, 0x72, 0x43, 0xbe, 0x55, 0xee, 0x04, 0xbe,
  0x45, 0x30, 0x9c, 0xbe, 0xeb, 0x38, 0x9c, 0x3e, 0x09, 0x8b, 0x9b, 0xbd,
  0x7e, 0x7b, 0x42, 0x3e, 0x7a, 0x6d, 0x1a, 0xbe, 0x2c, 0x3d, 0x9f, 0x3f,
  0x62, 0x04, 0x93, 0xbf, 0x00, 0xd5, 0x60, 0xbb, 0x47, 0x19, 0xbd, 0x3e,
  0x31, 0x0e, 0x70, 0xbd, 0x1e, 0xaa, 0xf2, 0xbd, 0x8a, 0xb0, 0x88, 0xbe,
  0x2e, 0xaf, 0x50, 0xbf, 0xa3, 0x0b, 0x3b, 0x3d, 0x2a, 0x6c, 0x64, 0x3e,
  0x4a, 0x68, 0x76, 0xbe, 0x1d, 0xe7, 0xad, 0x3e, 0x8d, 0x11, 0x8c, 0x3e,
  0x36, 0x0d, 0x4b, 0xbc, 0xc8, 0xdf, 0x8f, 0xbd, 0x08, 0x48, 0x35, 0xbd,
  0x46, 0x6e, 0xdf, 0x3e, 0x4a, 0x61, 0x98, 0xbf, 0xb2, 0x37, 0xfa, 0xbd,
  0x12, 0x0e, 0xb1, 0x3e, 0x01, 0x98, 0x5e, 0xbe, 0xba, 0x24, 0x97, 0xbe,
  0x52, 0xea, 0xa6, 0xbe, 0x8d, 0x81, 0x5d, 0xbf, 0x9d, 0xc2, 0x00, 0xbe,
  0x3c, 0xb2, 0x13, 0x3e, 0x06, 0xf9, 0x1f, 0x3e, 0x5d, 0x6a, 0x0f, 0x3f,
  0xd0, 0x00, 0xdf, 0x3c, 0xae, 0xda, 0x53, 0x3e, 0xbb, 0xc3, 0x9a, 0x3e,
  0xd4, 0x11, 0x25, 0xbe, 0xf0, 0x89, 0x62, 0x3e, 0x14, 0x87, 0x24, 0xbe,
  0x64, 0x82, 0x14, 0x3e, 0x98, 0x0a, 0x3f, 0xbf, 0xe7, 0x59, 0x0b, 0xbf,
  0x20, 0x6e, 0x85, 0xbd, 0xf8, 0xcb, 0x30, 0x3d, 0x55, 0x9c, 0x6d, 0x3e,
  0x0d, 0x76, 0x05, 0xbf, 0x35, 0x79, 0x1f, 0xbe, 0x88, 0x25, 0x77, 0xbd,
  0x9f, 0xb1, 0x48, 0xbf, 0x62, 0xa4, 0x49, 0x3e, 0x75, 0x82, 0x30, 0xbf,
  0x3a, 0x2b, 0x1f, 0xbe, 0xbb, 0x14, 0x93, 0x3e, 0xfa, 0x93, 0xbc, 0x3e,
  0xd9, 0x9c, 0x47, 0xbf, 0xe4, 0x25, 0x79, 0xbe, 0xcc, 0xaa, 0x28, 0xbe,
  0x67, 0x71, 0x83, 0xbe, 0x6c, 0x00, 0xa9, 0x3d, 0xaa, 0x43, 0x70, 0x3e,
  0x79, 0xd0, 0x41, 0xbf, 0x5b, 0xdb, 0x2a, 0xbe, 0xa0, 0x96, 0x67, 0xbc,
  0xb0, 0x16, 0xec, 0x3c, 0x9d, 0x58, 0x74, 0x3e, 0x12, 0x4c, 0x55, 0x3e,
  0x2e, 0x50, 0x43, 0x3f, 0x70, 0x48, 0x10, 0x3d, 0x4e, 0xfc, 0xff, 0xff,
  0x04, 0x00, 0x00, 0x00, 0xc0, 0x00, 0x00, 0x00, 0x14, 0xb2, 0xcd, 0xbd,
  0xec, 0x69, 0x2d, 0x3e, 0xc2, 0xa2, 0xed, 0xbe, 0xc2, 0xd5, 0xdb, 0xbd,
  0xdb, 0x8b, 0x76, 0xbe, 0x20, 0xa5, 0x42, 0x3f, 0x0d, 0xc6, 0xab, 0x3e,
  0x73, 0xfb, 0x02, 0x3f, 0x1c, 0xcc, 0x37, 0xbf, 0xc2, 0x15, 0xca, 0xbe,
  0x80, 0x40, 0x8a, 0x3c, 0xf9, 0xa3, 0x0e, 0x3f, 0x92, 0xef, 0xd7, 0x3e,
  0xff, 0xbc, 0x37, 0xbf, 0x23, 0x48, 0x16, 0x3f, 0x7c, 0x18, 0xfd, 0x3e,
  0x2d, 0xdc, 0x25, 0xbf, 0x84, 0xc3, 0x6a, 0xbe, 0xb2, 0x98, 0x88, 0xbe,
  0xc0, 0x99, 0xd7, 0x3c, 0x05, 0x93, 0x87, 0xbe, 0xe0, 0x6d, 0x83, 0x3d,
  0xa7, 0xda, 0xfe, 0xbe, 0xd1, 0xbf, 0x09, 0xbf, 0x15, 0x57, 0x9e, 0x3e,
  0x16, 0x8d, 0x2a, 0x3f, 0xa5, 0x57, 0x5c, 0xbf, 0x1c, 0xd3, 0x0a, 0x3f,
  0x04, 0x81, 0xda, 0xbe, 0x48, 0xc7, 0xf4, 0xbe, 0xea, 0xc3, 0x42, 0xbe,
  0xc0, 0x9f, 0x41, 0x3d, 0x80, 0x73, 0x2c, 0x3e, 0x69, 0x49, 0xee, 0xbe,
  0xe4, 0x9a, 0x0e, 0x3e, 0xa4, 0x8a, 0x6f, 0xbe, 0xdd, 0xf7, 0x8e, 0x3e,
  0xb7, 0xd4, 0xf8, 0xbe, 0xa0, 0x50, 0x14, 0x3f, 0x6e, 0xa4, 0xd3, 0xbe,
  0x70, 0x9f, 0x63, 0x3d, 0x46, 0xe6, 0xfa, 0x3e, 0x34, 0x3a, 0xf8, 0x3e,
  0x39, 0x96, 0x2e, 0xbf, 0x96, 0x73, 0xdb, 0x3e, 0x10, 0x06, 0x77, 0x3d,
  0x0b, 0x5d, 0x9a, 0xbe, 0xb2, 0xe1, 0x0a, 0xbf, 0x1a, 0xfd, 0xff, 0xff,
  0x04, 0x00, 0x00, 0x00, 0x40, 0x00, 0x00, 0x00, 0x00, 0x00, 0x00, 0x00,
  0x1d, 0x03, 0x44, 0xbb, 0xc5, 0xbf, 0x4b, 0xbe, 0x00, 0x00, 0x00, 0x00,
  0x9d, 0xcb, 0xa4, 0xbd, 0x09, 0x60, 0xe8, 0xbb, 0x00, 0x00, 0x00, 0x00,
  0x00, 0x00, 0x00, 0x00, 0xd1, 0x4f, 0x51, 0xbe, 0x7b, 0x52, 0x93, 0xbd,
  0x00, 0x00, 0x00, 0x00, 0x00, 0x00, 0x00, 0x00, 0x0b, 0x98, 0x9f, 0xbd,
  0x00, 0x00, 0x00, 0x00, 0xe9, 0x69, 0xa1, 0xbd, 0x00, 0x00, 0x00, 0x00,
  0x66, 0xfd, 0xff, 0xff, 0x04, 0x00, 0x00, 0x00, 0x80, 0x00, 0x00, 0x00,
  0x95, 0x9f, 0x3f, 0x3d, 0x0e, 0xba, 0x2b, 0xbd, 0x68, 0x77, 0x3f, 0xbd,
  0xa3, 0x35, 0xdc, 0x3c, 0x65, 0xa7, 0xdd, 0x3b, 0xa5, 0xd8, 0xe1, 0xbc,
  0xa0, 0xc6, 0x35, 0xbc, 0xbe, 0x4e, 0xad, 0xbc, 0xb0, 0xb1, 0xb1, 0x3c,
  0xe8, 0x14, 0x15, 0x3d, 0xc1, 0x04, 0xe3, 0x3c, 0x5d, 0x81, 0x06, 0xbd,
  0x61, 0x0b, 0xc4, 0xbb, 0x21, 0xc8, 0x10, 0x3d, 0xce, 0x2b, 0xce, 0x3a,
  0xc1, 0xf1, 0x8e, 0xbc, 0xc1, 0x8c, 0x91, 0xbd, 0x7d, 0xac, 0xba, 0xba,
  0xda, 0xa4, 0xd6, 0xbc, 0x51, 0xe8, 0x5d, 0x3c, 0x9b, 0xea, 0x3f, 0xba,
  0xa9, 0xfe, 0xc1, 0xbc, 0x90, 0x35, 0xbc, 0xbc, 0x19, 0x21, 0x20, 0xbd,
  0x19, 0x88, 0x30, 0xbc, 0xa5, 0x01, 0x9c, 0x3c, 0xe8, 0xba, 0xfe, 0xbb,
  0x42, 0x74, 0x0a, 0x3d, 0xc8, 0x3f, 0x8e, 0xbc, 0xa9, 0xbc, 0x15, 0xbc,
  0xf3, 0xdd, 0x8d, 0x3c, 0x0d, 0xca, 0xd4, 0xbc, 0xf2, 0xfd, 0xff, 0xff,
  0x04, 0x00, 0x00, 0x00, 0xc0, 0x00, 0x00, 0x00, 0xff, 0xc8, 0xd4, 0x3d,
  0xc8, 0xad, 0x81, 0x3d, 0xce, 0x68, 0x8a, 0x3d, 0x26, 0x4f, 0x82, 0x3d,
  0xe6, 0x85, 0x21, 0x3d, 0xf6, 0x34, 0x4e, 0x3d, 0xd0, 0x42, 0x62, 0x3d,
  0x18, 0xb0, 0x8f, 0x3c, 0x75, 0xc4, 0xa8, 0x3d, 0xd8, 0x75, 0x8d, 0x3d,
  0x0c, 0x9c, 0xc8, 0x3d, 0x64, 0x1d, 0xb7, 0xbb, 0x9b, 0xcb, 0x99, 0x3d,
  0x19, 0xa6, 0x90, 0x3c, 0xab, 0x74, 0xa0, 0x3d, 0x1a, 0x6e, 0xa4, 0x3d,
  0x72, 0xeb, 0x02, 0x3d, 0x30, 0xf5, 0x00, 0x3d, 0x33, 0xb7, 0x5a, 0x3d,
  0xa1, 0xa1, 0x43, 0x3d, 0xcf, 0x62, 0x64, 0x3d, 0xc6, 0x7d, 0xd2, 0x3c,
  0x76, 0x1d, 0xf0, 0x3c, 0x2d, 0xfe, 0xc0, 0xbd, 0x5a, 0x64, 0xd0, 0x3b,
  0xc5, 0xa8, 0x6f, 0x3c, 0xcb, 0xd9, 0x32, 0x3d, 0x3f, 0xf1, 0xd7, 0x3c,
  0xa8, 0x03, 0xba, 0x3c, 0xf3, 0x92, 0x83, 0xbd, 0xdf, 0x5b, 0x39, 0xbd,
  0xd5, 0x26, 0xa8, 0xbc, 0x92, 0xbf, 0xba, 0x3c, 0xb3, 0xb7, 0x8e, 0x3d,
  0x11, 0x2c, 0x03, 0x3d, 0xdd, 0xaa, 0x94, 0x3d, 0xbe, 0x1a, 0x1c, 0xbc,
  0x28, 0x32, 0xd9, 0x3c, 0xa5, 0x9c, 0xc1, 0x3d, 0xa3, 0xf6, 0x95, 0xbb,
  0x8e, 0xbf, 0x58, 0x3d, 0x0a, 0xb4, 0x33, 0x3d, 0x5c, 0x0b, 0x25, 0x3d,
  0xd7, 0xac, 0x50, 0x3d, 0xed, 0xf8, 0x73, 0x3d, 0x80, 0xa1, 0xbe, 0x3b,
  0x5b, 0x1f, 0x1d, 0x3d, 0x7e, 0xa0, 0x7f, 0x3c, 0xbe, 0xfe, 0xff, 0xff,
  0x04, 0x00, 0x00, 0x00, 0x80, 0x00, 0x00, 0x00, 0x90, 0x9f, 0x45, 0x3e,
  0xaf, 0xce, 0x68, 0x3d, 0x10, 0x35, 0xee, 0x3d, 0xfc, 0x5c, 0x71, 0x3e,
  0x2a, 0x07, 0x87, 0x3c, 0x98, 0xd2, 0x6e, 0xbd, 0x31, 0x9d, 0xe2, 0x3d,
  0xb7, 0x45, 0xa0, 0x3d, 0xe1, 0x76, 0x06, 0xbc, 0x2e, 0x4e, 0x24, 0x3e,
  0x41, 0xae, 0x95, 0x3c, 0xdc, 0x32, 0xc8, 0x3d, 0x75, 0x92, 0x07, 0x3e,
  0x99, 0xe6, 0x3d, 0x3d, 0xc1, 0x70, 0x51, 0xbd, 0x81, 0x3c, 0x61, 0x3d,
  0x35, 0x2b, 0x26, 0x3e, 0x78, 0xcb, 0xed, 0x3d, 0x6d, 0x8a, 0x31, 0x3e,
  0x1f, 0x7c, 0xd9, 0x3c, 0x70, 0x3f, 0x87, 0x3d, 0xfb, 0x03, 0xe0, 0xbd,
  0xe9, 0xdb, 0xc9, 0x3d, 0xd4, 0x1b, 0x34, 0x3d, 0x7a, 0xee, 0x3a, 0x3d,
  0x6f, 0x40, 0x3a, 0x3e, 0x7e, 0xbd, 0xf4, 0x3d, 0x66, 0x99, 0xf7, 0x3c,
  0x99, 0xa3, 0xf5, 0xbd, 0xdd, 0x4f, 0x57, 0x3e, 0x6f, 0x13, 0x71, 0x3d,
  0x18, 0xcb, 0xf8, 0x3d, 0x4a, 0xff, 0xff, 0xff, 0x04, 0x00, 0x00, 0x00,
  0x0c, 0x00, 0x00, 0x00, 0x24, 0x19, 0xa5, 0x3d, 0x67, 0x22, 0xc6, 0x3b,
  0x5d, 0x1c, 0xcd, 0xbd, 0x28, 0xf7, 0xff, 0xff, 0x2c, 0xf7, 0xff, 0xff,
  0x0f, 0x00, 0x00, 0x00, 0x4d, 0x4c, 0x49, 0x52, 0x20, 0x43, 0x6f, 0x6e,
  0x76, 0x65, 0x72, 0x74, 0x65, 0x64, 0x2e, 0x00, 0x01, 0x00, 0x00, 0x00,
  0x14, 0x00, 0x00, 0x00, 0x00, 0x00, 0x0e, 0x00, 0x18, 0x00, 0x14, 0x00,
  0x10, 0x00, 0x0c, 0x00, 0x08, 0x00, 0x04, 0x00, 0x0e, 0x00, 0x00, 0x00,
  0x14, 0x00, 0x00, 0x00, 0x1c, 0x00, 0x00, 0x00, 0x94, 0x01, 0x00, 0x00,
  0x98, 0x01, 0x00, 0x00, 0x9c, 0x01, 0x00, 0x00, 0x04, 0x00, 0x00, 0x00,
  0x6d, 0x61, 0x69, 0x6e, 0x00, 0x00, 0x00, 0x00, 0x06, 0x00, 0x00, 0x00,
  0x3c, 0x01, 0x00, 0x00, 0xf4, 0x00, 0x00, 0x00, 0xbc, 0x00, 0x00, 0x00,
  0x84, 0x00, 0x00, 0x00, 0x50, 0x00, 0x00, 0x00, 0x14, 0x00, 0x00, 0x00,
  0x00, 0x00, 0x0e, 0x00, 0x1a, 0x00, 0x14, 0x00, 0x10, 0x00, 0x0c, 0x00,
  0x0b, 0x00, 0x04, 0x00, 0x0e, 0x00, 0x00, 0x00, 0x1c, 0x00, 0x00, 0x00,
